[PAD]	0
[UNK]	0
[BOS]	0
[EOS]	0
ch	-0
en	-1
er	-2
ei	-3
▁d	-4
ie	-5
st	-6
▁s	-7
ich	-8
ein	-9
▁w	-10
▁i	-11
an	-12
as	-13
▁m	-14
▁g	-15
▁T	-16
▁h	-17
om	-18
te	-19
▁n	-20
▁S	-21
es	-22
au	-23
▁I	-24
un	-25
▁Tom	-26
ar	-27
▁b	-28
in	-29
▁Ich	-30
icht	-31
▁ein	-32
▁D	-33
▁W	-34
▁ha	-35
▁M	-36
▁z	-37
hr	-38
ir	-39
▁ist	-40
ll	-41
▁nicht	-42
▁v	-43
▁E	-44
▁k	-45
▁zu	-46
▁das	-47
▁ge	-48
gen	-49
sch	-50
ach	-51
▁die	-52
on	-53
de	-54
▁un	-55
▁Sie	-56
ge	-57
▁au	-58
▁B	-59
al	-60
▁f	-61
or	-62
it	-63
ten	-64
▁A	-65
▁H	-66
▁F	-67
▁du	-68
ben	-69
em	-70
▁K	-71
▁l	-72
▁G	-73
▁hat	-74
ter	-75
be	-76
▁in	-77
▁ich	-78
▁er	-79
▁sch	-80
et	-81
den	-82
el	-83
der	-84
ann	-85
ag	-86
▁ver	-87
▁der	-88
eh	-89
▁Er	-90
re	-91
sen	-92
▁es	-93
ig	-94
▁a	-95
ier	-96
▁an	-97
▁dass	-98
▁und	-99
um	-100
▁Mar	-101
ür	-102
▁L	-103
▁auf	-104
eine	-105
lich	-106
▁den	-107
ber	-108
▁war	-109
ck	-110
eit	-111
hn	-112
ut	-113
▁sich	-114
▁so	-115
▁wir	-116
ur	-117
▁sie	-118
▁Mari	-119
us	-120
▁mit	-121
▁Sch	-122
och	-123
mm	-124
▁Die	-125
▁t	-126
▁P	-127
▁habe	-128
at	-129
▁Maria	-130
ehr	-131
eu	-132
ung	-133
▁Das	-134
se	-135
iel	-136
▁mir	-137
▁be	-138
▁eine	-139
▁ihr	-140
ern	-141
isch	-142
▁V	-143
▁sein	-144
▁J	-145
ind	-146
▁Z	-147
▁N	-148
▁Es	-149
is	-150
men	-151
chen	-152
▁mich	-153
fen	-154
rei	-155
▁R	-156
ahr	-157
enn	-158
ro	-159
▁al	-160
▁aus	-161
ste	-162
ft	-163
▁j	-164
▁wie	-165
ra	-166
▁Wir	-167
▁kann	-168
and	-169
▁von	-170
ser	-171
cht	-172
ön	-173
über	-174
am	-175
▁geh	-176
▁ges	-177
rau	-178
▁wer	-179
▁Du	-180
▁einen	-181
▁sind	-182
bt	-183
▁dem	-184
▁St	-185
▁für	-186
etz	-187
▁haben	-188
▁o	-189
▁als	-190
hl	-191
▁st	-192
▁sp	-193
▁wo	-194
acht	-195
ehen	-196
▁was	-197
▁um	-198
▁all	-199
▁bin	-200
rü	-201
ill	-202
▁über	-203
eiß	-204
▁mein	-205
ol	-206
il	-207
▁Was	-208
▁Der	-209
ät	-210
anz	-211
▁U	-212
▁im	-213
▁noch	-214
ör	-215
mmer	-216
le	-217
▁vor	-218
▁dich	-219
ommen	-220
lau	-221
▁nach	-222
än	-223
önn	-224
▁dir	-225
▁sehr	-226
▁viel	-227
▁wird	-228
chte	-229
▁da	-230
und	-231
▁sag	-232
▁Ha	-233
▁soll	-234
ist	-235
lei	-236
ing	-237
tet	-238
▁uns	-239
▁p	-240
▁bes	-241
was	-242
▁bei	-243
▁Ver	-244
ent	-245
aus	-246
▁sa	-247
uss	-248
ff	-249
▁nie	-250
▁hier	-251
▁et	-252
▁Wie	-253
uch	-254
▁ihn	-255
▁An	-256
hm	-257
kt	-258
▁Ihr	-259
▁weiß	-260
▁Ge	-261
rie	-262
achen	-263
▁lie	-264
zu	-265
ort	-266
▁könn	-267
▁etwas	-268
▁will	-269
wei	-270
▁wur	-271
▁kein	-272
▁Sp	-273
▁Ar	-274
all	-275
omm	-276
sten	-277
che	-278
ank	-279
imm	-280
eute	-281
▁mö	-282
üs	-283
ne	-284
▁mehr	-285
itte	-286
os	-287
ik	-288
ru	-289
eg	-290
▁„	-291
▁schon	-292
eben	-293
▁Ein	-294
ang	-295
▁hast	-296
mal	-297
la	-298
▁War	-299
▁gut	-300
▁werden	-301
▁immer	-302
▁gew	-303
assen	-304
▁wurde	-305
▁keine	-306
▁O	-307
▁woll	-308
▁glau	-309
ot	-310
▁Un	-311
▁tun	-312
ges	-313
etzt	-314
▁re	-315
▁hatte	-316
▁nur	-317
▁ab	-318
▁Au	-319
sp	-320
▁man	-321
▁werde	-322
iert	-323
▁gef	-324
▁En	-325
▁hät	-326
ien	-327
kommen	-328
he	-329
▁dies	-330
lie	-331
▁des	-332
▁dein	-333
ück	-334
ün	-335
gt	-336
▁Zeit	-337
eil	-338
▁am	-339
▁dar	-340
onn	-341
▁Fre	-342
▁In	-343
▁zum	-344
▁einem	-345
▁sagte	-346
▁Wo	-347
▁eu	-348
ige	-349
▁nichts	-350
▁wenn	-351
ass	-352
▁Jahr	-353
▁ger	-354
▁ihm	-355
▁meine	-356
▁gern	-357
rin	-358
ger	-359
▁wür	-360
bei	-361
roß	-362
agt	-363
▁Ges	-364
orgen	-365
ul	-366
▁Fr	-367
▁muss	-368
▁wä	-369
gel	-370
ug	-371
▁aber	-372
▁gehen	-373
hen	-374
▁Warum	-375
rück	-376
▁seine	-377
▁schw	-378
ion	-379
heit	-380
▁ent	-381
bl	-382
▁je	-383
pf	-384
richt	-385
angen	-386
▁bist	-387
bst	-388
▁möchte	-389
ös	-390
ken	-391
ade	-392
▁würde	-393
est	-394
▁Mein	-395
▁ganz	-396
▁hätte	-397
oll	-398
zen	-399
ke	-400
stell	-401
issen	-402
ieren	-403
▁oder	-404
ost	-405
ffen	-406
schen	-407
▁hin	-408
▁Hau	-409
▁machen	-410
▁sagen	-411
▁brau	-412
igen	-413
rach	-414
▁Gel	-415
ad	-416
▁sei	-417
ap	-418
▁einer	-419
▁gesch	-420
▁euch	-421
ert	-422
▁C	-423
ibt	-424
elt	-425
inn	-426
▁drei	-427
fe	-428
▁kl	-429
▁ander	-430
▁verl	-431
▁her	-432
▁groß	-433
rechen	-434
▁Jo	-435
ze	-436
ab	-437
▁können	-438
▁heute	-439
▁Men	-440
▁Wenn	-441
▁wieder	-442
▁get	-443
▁unter	-444
▁jetzt	-445
▁gen	-446
▁lei	-447
▁Geld	-448
esen	-449
är	-450
▁komm	-451
her	-452
▁gesagt	-453
▁Re	-454
ick	-455
anzös	-456
anzösisch	-457
ungen	-458
det	-459
▁gest	-460
rä	-461
▁Haus	-462
beit	-463
▁Hast	-464
▁müs	-465
▁auch	-466
unden	-467
▁alles	-468
▁Leben	-469
tern	-470
▁Buch	-471
▁mag	-472
▁gerne	-473
klich	-474
ater	-475
äl	-476
▁gerade	-477
▁Aut	-478
achte	-479
hnen	-480
ange	-481
br	-482
▁gem	-483
ler	-484
inder	-485
▁Mary	-486
▁Französisch	-487
ant	-488
▁neu	-489
test	-490
▁Schw	-491
▁viele	-492
▁gu	-493
▁gibt	-494
auf	-495
▁deine	-496
hal	-497
dig	-498
▁Tag	-499
▁bitte	-500
äch	-501
immer	-502
▁Pro	-503
▁Hause	-504
▁Arbeit	-505
ochen	-506
gl	-507
ffe	-508
▁bis	-509
unde	-510
ört	-511
utter	-512
▁Schu	-513
▁ber	-514
▁sehen	-515
▁wirklich	-516
▁wollte	-517
▁zurück	-518
▁alle	-519
▁diese	-520
hne	-521
oston	-522
▁Boston	-523
▁zwei	-524
ht	-525
sa	-526
▁seinen	-527
äu	-528
ver	-529
▁einmal	-530
▁Toms	-531
zt	-532
▁kenn	-533
▁ar	-534
▁glaube	-535
lle	-536
ahl	-537
ßen	-538
▁Freund	-539
ahren	-540
▁Be	-541
▁Al	-542
▁geht	-543
▁vers	-544
▁verst	-545
▁Ist	-546
▁Nach	-547
annes	-548
▁So	-549
▁Wer	-550
▁zur	-551
mer	-552
▁Joh	-553
▁dieses	-554
▁Kinder	-555
▁Auto	-556
rank	-557
▁r	-558
▁gel	-559
ischen	-560
▁hel	-561
▁gesehen	-562
▁müssen	-563
art	-564
▁Frau	-565
▁Mann	-566
▁Johannes	-567
ragen	-568
pt	-569
los	-570
▁mus	-571
▁konn	-572
itt	-573
▁wäre	-574
▁Man	-575
▁Fl	-576
▁spiel	-577
lück	-578
▁kommen	-579
▁unser	-580
uchen	-581
▁ihre	-582
▁besser	-583
gend	-584
eht	-585
▁dur	-586
ast	-587
▁doch	-588
▁Lie	-589
▁helfen	-590
bend	-591
fach	-592
▁lern	-593
▁Vater	-594
pp	-595
▁sel	-596
aft	-597
▁Dies	-598
▁El	-599
▁mal	-600
▁fin	-601
▁Ihnen	-602
ess	-603
end	-604
▁wissen	-605
▁Meine	-606
ische	-607
▁Mutter	-608
▁letz	-609
ri	-610
▁durch	-611
▁Her	-612
ehmen	-613
cher	-614
▁sprechen	-615
▁besch	-616
▁fr	-617
▁gemacht	-618
gn	-619
ster	-620
glich	-621
iz	-622
eigen	-623
ähr	-624
▁macht	-625
agen	-626
▁einfach	-627
▁schön	-628
aufen	-629
me	-630
▁ob	-631
ett	-632
▁waren	-633
▁Gesch	-634
ähl	-635
▁wahr	-636
▁gek	-637
▁keinen	-638
ühr	-639
▁lange	-640
▁morgen	-641
anden	-642
ören	-643
▁meinen	-644
▁ins	-645
▁Diese	-646
aum	-647
▁jem	-648
▁hal	-649
▁konnte	-650
▁kommt	-651
▁arbei	-652
gangen	-653
geben	-654
sam	-655
adt	-656
atz	-657
▁lang	-658
▁kam	-659
iem	-660
▁best	-661
äd	-662
▁Mon	-663
▁Könn	-664
gessen	-665
hin	-666
▁ging	-667
keit	-668
fall	-669
▁Schule	-670
tes	-671
ehn	-672
▁1	-673
▁–	-674
ühl	-675
▁Welt	-676
bar	-677
gst	-678
▁dort	-679
äft	-680
ande	-681
▁Menschen	-682
age	-683
▁Kann	-684
amen	-685
▁Abend	-686
blem	-687
▁Engl	-688
▁Vor	-689
oren	-690
egen	-691
rage	-692
▁Zimmer	-693
eiten	-694
▁kannst	-695
schaft	-696
▁Bl	-697
iger	-698
▁schne	-699
immt	-700
▁Uhr	-701
▁seiner	-702
▁Pl	-703
▁frü	-704
▁Hund	-705
▁getan	-706
▁wei	-707
mmen	-708
▁dieser	-709
ckt	-710
▁sicher	-711
▁Problem	-712
▁ange	-713
sel	-714
▁beg	-715
llt	-716
cken	-717
▁schnell	-718
dern	-719
▁Dieses	-720
ald	-721
▁seinem	-722
▁Bitte	-723
▁ho	-724
schl	-725
asst	-726
tete	-727
▁ir	-728
▁rei	-729
▁sah	-730
sicht	-731
▁Ihre	-732
igt	-733
▁blei	-734
▁diesem	-735
ehe	-736
ucht	-737
▁Auf	-738
.“	-739
ädchen	-740
alt	-741
von	-742
▁wen	-743
ringen	-744
orden	-745
▁gestern	-746
eut	-747
▁dam	-748
▁le	-749
▁sollte	-750
▁Aus	-751
tel	-752
ße	-753
ßer	-754
▁oft	-755
üt	-756
vor	-757
eint	-758
▁wus	-759
▁selbst	-760
ehrer	-761
per	-762
eira	-763
▁Schl	-764
▁Mädchen	-765
▁Wasser	-766
rö	-767
▁erw	-768
apan	-769
gehen	-770
▁Sei	-771
▁essen	-772
str	-773
▁geb	-774
▁lassen	-775
ahn	-776
ech	-777
▁Haben	-778
▁zw	-779
▁ohne	-780
auft	-781
sst	-782
halten	-783
▁diesen	-784
asse	-785
ation	-786
lücklich	-787
▁na	-788
eicht	-789
▁Zu	-790
og	-791
▁heiß	-792
rief	-793
iell	-794
▁meiner	-795
▁sagt	-796
essen	-797
▁könnte	-798
aar	-799
kl	-800
▁denke	-801
ache	-802
▁Dieser	-803
?“	-804
▁Kl	-805
▁jeden	-806
▁damit	-807
▁gehört	-808
▁glücklich	-809
eim	-810
▁sieht	-811
▁sollen	-812
▁Wann	-813
▁pass	-814
▁Stadt	-815
▁Kat	-816
▁glei	-817
▁Ent	-818
▁zusa	-819
aten	-820
▁bet	-821
nis	-822
▁Ko	-823
▁Jahre	-824
▁Ka	-825
▁Hil	-826
▁Nacht	-827
▁Mal	-828
▁Englisch	-829
einen	-830
▁zusammen	-831
fer	-832
▁allein	-833
▁To	-834
▁musst	-835
▁wusste	-836
▁davon	-837
▁denn	-838
wo	-839
▁niem	-840
▁Tür	-841
gesch	-842
zähl	-843
▁meinem	-844
▁Gef	-845
dert	-846
▁gab	-847
▁Ü	-848
▁e	-849
▁Pol	-850
▁Leute	-851
ielleicht	-852
▁erf	-853
▁Hand	-854
hst	-855
▁näch	-856
▁lernen	-857
▁Augen	-858
ust	-859
▁schwer	-860
ungs	-861
▁wollen	-862
▁recht	-863
▁Mö	-864
ält	-865
zeit	-866
▁Bes	-867
▁seit	-868
▁bef	-869
ell	-870
▁son	-871
▁Unter	-872
arten	-873
hnt	-874
▁Geh	-875
ha	-876
ogen	-877
▁versch	-878
▁gegen	-879
ner	-880
▁ben	-881
▁aufge	-882
ichte	-883
▁Stra	-884
alien	-885
▁wirst	-886
iv	-887
▁2	-888
liche	-889
▁Ho	-890
ällt	-891
▁Hilfe	-892
oche	-893
▁warum	-894
▁Ber	-895
teress	-896
▁dachte	-897
▁Angst	-898
▁alt	-899
ho	-900
▁Rei	-901
rache	-902
▁Feh	-903
▁ihren	-904
▁schrei	-905
▁eigen	-906
▁Geb	-907
▁Fahr	-908
▁Ste	-909
hau	-910
▁Je	-911
▁star	-912
rot	-913
▁fast	-914
ander	-915
ücher	-916
▁wohl	-917
zeu	-918
▁paar	-919
▁Japan	-920
fl	-921
▁schl	-922
▁weg	-923
▁Kind	-924
▁schle	-925
▁weiter	-926
▁Land	-927
▁bez	-928
▁willst	-929
▁Hat	-930
▁Morgen	-931
▁Lehrer	-932
▁anderen	-933
ester	-934
ele	-935
▁scheint	-936
▁Woche	-937
▁Me	-938
▁Über	-939
▁Bru	-940
▁irgend	-941
op	-942
▁darüber	-943
▁spricht	-944
sehen	-945
▁Jahren	-946
▁bl	-947
▁interess	-948
dem	-949
uld	-950
▁dann	-951
▁bek	-952
ertig	-953
ingt	-954
immen	-955
▁beim	-956
bracht	-957
▁Bist	-958
▁habt	-959
▁Frage	-960
ünf	-961
▁entsch	-962
▁Mus	-963
▁Stu	-964
▁Lass	-965
ild	-966
▁Gr	-967
itz	-968
▁stell	-969
▁Freunde	-970
▁bereit	-971
▁tut	-972
▁gute	-973
▁Als	-974
▁Kaffe	-975
▁Ab	-976
▁Fehler	-977
▁solltest	-978
▁Mit	-979
▁Eltern	-980
▁Spiel	-981
▁Brief	-982
▁Da	-983
▁trin	-984
▁Or	-985
wor	-986
▁Bruder	-987
▁fre	-988
ittag	-989
▁deinen	-990
▁verb	-991
▁eines	-992
00	-993
eln	-994
lafen	-995
schein	-996
ingen	-997
aut	-998
▁Herr	-999
amil	-1000
▁Alle	-1001
▁vom	-1002
▁leben	-1003
wer	-1004
▁Fu	-1005
▁Zug	-1006
▁geben	-1007
▁fertig	-1008
tag	-1009
▁spielen	-1010
▁Br	-1011
ga	-1012
ünsch	-1013
▁bleiben	-1014
▁gekauft	-1015
▁erzähl	-1016
▁Niem	-1017
pr	-1018
unge	-1019
▁voll	-1020
▁Wahr	-1021
▁reden	-1022
▁Bücher	-1023
nen	-1024
▁genug	-1025
▁Niemand	-1026
▁Kaffee	-1027
▁gegangen	-1028
▁Wel	-1029
▁sollten	-1030
▁Bett	-1031
geb	-1032
ob	-1033
chten	-1034
▁Famil	-1035
öt	-1036
lt	-1037
▁Wei	-1038
▁sagten	-1039
▁spät	-1040
▁kaufen	-1041
etzen	-1042
tlich	-1043
▁fünf	-1044
▁Im	-1045
ok	-1046
▁passiert	-1047
eid	-1048
▁Te	-1049
▁finden	-1050
allen	-1051
ers	-1052
▁warten	-1053
ernt	-1054
▁Komm	-1055
rieben	-1056
▁frag	-1057
ielt	-1058
ierig	-1059
rad	-1060
im	-1061
iere	-1062
uten	-1063
ue	-1064
▁Mir	-1065
▁gekommen	-1066
für	-1067
▁gar	-1068
▁weil	-1069
▁beh	-1070
▁ganze	-1071
▁ru	-1072
eb	-1073
▁gehe	-1074
inge	-1075
▁wünsch	-1076
des	-1077
annt	-1078
▁einz	-1079
▁fahren	-1080
▁verw	-1081
▁Deut	-1082
▁Par	-1083
▁hör	-1084
uchte	-1085
▁jemand	-1086
▁Schwester	-1087
iss	-1088
hol	-1089
▁Min	-1090
▁hoffe	-1091
onnen	-1092
bte	-1093
▁ganzen	-1094
▁Ä	-1095
▁Frü	-1096
wort	-1097
▁andere	-1098
▁erst	-1099
▁Poliz	-1100
▁bekommen	-1101
▁Fuß	-1102
▁Kon	-1103
▁Krank	-1104
▁kennen	-1105
öff	-1106
ib	-1107
▁Wahrheit	-1108
▁dazu	-1109
▁grö	-1110
▁Will	-1111
▁beschäft	-1112
▁verloren	-1113
▁gleich	-1114
▁vergessen	-1115
▁Kannst	-1116
▁bew	-1117
▁hören	-1118
rich	-1119
▁neue	-1120
▁wel	-1121
▁erinn	-1122
▁Um	-1123
uldig	-1124
▁Bus	-1125
etter	-1126
üde	-1127
nung	-1128
kel	-1129
▁Austr	-1130
lichen	-1131
▁glauben	-1132
▁Haar	-1133
af	-1134
umen	-1135
ppe	-1136
▁steht	-1137
fon	-1138
▁verk	-1139
▁Wort	-1140
▁beschäftigt	-1141
reffen	-1142
anke	-1143
▁gefunden	-1144
ud	-1145
keiten	-1146
▁Ant	-1147
ierte	-1148
lossen	-1149
▁Australien	-1150
eiden	-1151
▁richt	-1152
▁bald	-1153
ere	-1154
▁nahm	-1155
innen	-1156
▁müde	-1157
▁Katze	-1158
▁ausge	-1159
▁ihrer	-1160
▁Geschichte	-1161
pl	-1162
▁verd	-1163
▁Familie	-1164
▁verm	-1165
arf	-1166
▁zehn	-1167
▁brauche	-1168
aß	-1169
urt	-1170
▁Entsch	-1171
ack	-1172
▁daran	-1173
▁gewesen	-1174
net	-1175
▁fühl	-1176
stag	-1177
▁Fil	-1178
ren	-1179
ichtig	-1180
legen	-1181
unter	-1182
▁Elke	-1183
▁brauchen	-1184
ennen	-1185
▁Eine	-1186
kte	-1187
▁Tele	-1188
▁verlie	-1189
eich	-1190
änger	-1191
▁liebe	-1192
▁Habt	-1193
pfel	-1194
sche	-1195
▁Flug	-1196
weise	-1197
hnlich	-1198
att	-1199
ekt	-1200
▁braucht	-1201
▁All	-1202
▁lesen	-1203
▁letzte	-1204
▁Ged	-1205
klär	-1206
▁bel	-1207
eiratet	-1208
▁Namen	-1209
bel	-1210
unkt	-1211
▁Tage	-1212
▁versp	-1213
lassen	-1214
▁Mensch	-1215
▁fragte	-1216
▁Straße	-1217
▁Erf	-1218
rig	-1219
▁hinter	-1220
ras	-1221
▁Sind	-1222
▁Musik	-1223
▁krank	-1224
iemlich	-1225
chst	-1226
▁Sprache	-1227
▁klein	-1228
itten	-1229
arte	-1230
▁Weg	-1231
haupt	-1232
▁Plan	-1233
▁große	-1234
▁ziemlich	-1235
zie	-1236
▁trä	-1237
▁genau	-1238
▁kenne	-1239
urz	-1240
▁Se	-1241
▁Sohn	-1242
▁Regen	-1243
▁darauf	-1244
▁gegessen	-1245
ende	-1246
asche	-1247
▁überhaupt	-1248
▁liegt	-1249
▁worden	-1250
lagen	-1251
enster	-1252
▁gewö	-1253
!“	-1254
▁früh	-1255
▁seid	-1256
▁leicht	-1257
spiel	-1258
achten	-1259
▁Wagen	-1260
▁ihnen	-1261
▁Tisch	-1262
▁Klei	-1263
▁wurden	-1264
kst	-1265
▁unsere	-1266
haus	-1267
ss	-1268
olg	-1269
▁Weiß	-1270
▁verh	-1271
zig	-1272
▁rau	-1273
▁Fenster	-1274
▁deiner	-1275
▁Arzt	-1276
▁einge	-1277
▁machte	-1278
ak	-1279
▁Ru	-1280
▁vert	-1281
▁zuf	-1282
hnung	-1283
▁Groß	-1284
▁Junge	-1285
▁guter	-1286
▁fal	-1287
▁bezahl	-1288
rat	-1289
scht	-1290
▁letzten	-1291
erv	-1292
land	-1293
▁tat	-1294
▁niemand	-1295
▁Den	-1296
▁Marias	-1297
▁früher	-1298
▁arbeiten	-1299
aden	-1300
rachen	-1301
▁schlie	-1302
▁Ende	-1303
▁hätten	-1304
▁hö	-1305
euer	-1306
igkeit	-1307
einander	-1308
▁Nicht	-1309
wa	-1310
▁Fern	-1311
▁möglich	-1312
▁wünschte	-1313
uer	-1314
▁musste	-1315
▁Vielleicht	-1316
▁Ch	-1317
▁beide	-1318
▁gefällt	-1319
llig	-1320
▁wenig	-1321
uhr	-1322
▁brach	-1323
▁führ	-1324
▁leid	-1325
▁währ	-1326
▁Schrei	-1327
erst	-1328
▁Glau	-1329
▁dafür	-1330
hof	-1331
irm	-1332
stellt	-1333
▁hatten	-1334
▁Stunden	-1335
prochen	-1336
▁Tat	-1337
▁Viel	-1338
ine	-1339
▁ja	-1340
eilen	-1341
▁lieber	-1342
▁geschrieben	-1343
▁br	-1344
buch	-1345
▁Bei	-1346
▁Wor	-1347
▁Bür	-1348
▁Kopf	-1349
▁Wochen	-1350
▁los	-1351
gef	-1352
▁Sein	-1353
▁dr	-1354
rieden	-1355
▁heraus	-1356
▁Kranken	-1357
▁gefallen	-1358
▁Grund	-1359
▁fl	-1360
äter	-1361
▁nehmen	-1362
▁Ide	-1363
▁vier	-1364
▁Seine	-1365
▁hörte	-1366
▁während	-1367
hlen	-1368
▁finde	-1369
▁verstehen	-1370
▁"	-1371
▁Ger	-1372
▁neuen	-1373
stellen	-1374
▁ged	-1375
▁schn	-1376
▁ihrem	-1377
llen	-1378
uche	-1379
▁Freundin	-1380
▁Essen	-1381
▁ersch	-1382
▁Nachricht	-1383
fte	-1384
ott	-1385
▁dabei	-1386
▁Fragen	-1387
fort	-1388
▁bat	-1389
▁sol	-1390
ährt	-1391
reich	-1392
▁bevor	-1393
olz	-1394
nete	-1395
ame	-1396
ßig	-1397
io	-1398
atur	-1399
▁heißt	-1400
▁Sam	-1401
▁Film	-1402
▁weit	-1403
▁Können	-1404
▁Unser	-1405
roffen	-1406
▁benut	-1407
▁Willst	-1408
▁Meinung	-1409
als	-1410
ings	-1411
unken	-1412
ock	-1413
ikan	-1414
hem	-1415
▁Mach	-1416
▁äl	-1417
▁frei	-1418
▁wegen	-1419
▁Str	-1420
▁Minuten	-1421
anken	-1422
under	-1423
▁Hier	-1424
zeug	-1425
▁kaum	-1426
▁Polizei	-1427
üssel	-1428
▁komme	-1429
▁großen	-1430
▁schwimmen	-1431
▁Spaß	-1432
hören	-1433
fangen	-1434
genommen	-1435
ko	-1436
schie	-1437
zlich	-1438
mals	-1439
alten	-1440
▁Schü	-1441
▁Glück	-1442
id	-1443
▁Satz	-1444
▁sondern	-1445
▁nächsten	-1446
▁arbeitet	-1447
▁Bo	-1448
▁mei	-1449
▁regn	-1450
zimmer	-1451
▁schreiben	-1452
▁Heute	-1453
▁heira	-1454
▁bisschen	-1455
▁mach	-1456
▁sofort	-1457
echs	-1458
inde	-1459
▁getroffen	-1460
▁einige	-1461
▁ersten	-1462
chter	-1463
etzte	-1464
▁gebe	-1465
▁drau	-1466
undert	-1467
ord	-1468
eck	-1469
reis	-1470
az	-1471
änd	-1472
▁spielt	-1473
▁Tr	-1474
isst	-1475
▁Telefon	-1476
▁bereits	-1477
▁Jeder	-1478
▁Studen	-1479
eig	-1480
inden	-1481
▁Bahn	-1482
tr	-1483
▁Schne	-1484
▁außer	-1485
örter	-1486
▁überras	-1487
▁Art	-1488
bten	-1489
ille	-1490
▁bringen	-1491
ügen	-1492
artet	-1493
▁darf	-1494
▁hättest	-1495
▁Gib	-1496
par	-1497
▁Am	-1498
▁Son	-1499
ochter	-1500
▁öff	-1501
ände	-1502
▁Gl	-1503
ruck	-1504
▁wohnt	-1505
ität	-1506
scheinlich	-1507
ehl	-1508
▁Sag	-1509
stand	-1510
▁gegeben	-1511
▁Kü	-1512
▁isst	-1513
▁Monat	-1514
▁bede	-1515
▁reich	-1516
▁ern	-1517
▁Amer	-1518
▁ließ	-1519
▁später	-1520
▁erk	-1521
▁Part	-1522
▁versuchte	-1523
orm	-1524
▁Danke	-1525
laden	-1526
▁Bild	-1527
▁Fahrrad	-1528
▁verlassen	-1529
fel	-1530
eher	-1531
ennt	-1532
rauen	-1533
▁liebt	-1534
usst	-1535
▁Mittag	-1536
▁treffen	-1537
ollar	-1538
▁Kleid	-1539
▁Liebl	-1540
weg	-1541
ufen	-1542
▁älter	-1543
▁gelesen	-1544
auer	-1545
▁allen	-1546
annte	-1547
▁jung	-1548
▁Tochter	-1549
▁Fall	-1550
▁Wissen	-1551
▁Liebe	-1552
▁weißt	-1553
▁wichtig	-1554
▁stud	-1555
▁geworden	-1556
äm	-1557
▁Vers	-1558
rt	-1559
▁alte	-1560
▁jeder	-1561
▁vielleicht	-1562
▁Kan	-1563
▁halten	-1564
omp	-1565
ka	-1566
▁erklär	-1567
▁verstehe	-1568
laub	-1569
ässt	-1570
▁lebt	-1571
▁mache	-1572
▁Dollar	-1573
▁Lebens	-1574
▁Gew	-1575
stern	-1576
ball	-1577
ätze	-1578
▁Mil	-1579
ume	-1580
▁Schul	-1581
▁Somm	-1582
raum	-1583
▁bem	-1584
▁Sorgen	-1585
affen	-1586
▁Darf	-1587
iff	-1588
hstück	-1589
▁Schüler	-1590
eind	-1591
▁Licht	-1592
ker	-1593
▁kurz	-1594
▁fragen	-1595
▁te	-1596
▁erste	-1597
vers	-1598
▁Ta	-1599
führ	-1600
▁Rom	-1601
stehen	-1602
bringen	-1603
▁Geburt	-1604
▁Wörter	-1605
geln	-1606
▁schien	-1607
▁gesprochen	-1608
mö	-1609
▁Feuer	-1610
▁Antwort	-1611
▁en	-1612
kehr	-1613
loss	-1614
ittel	-1615
erweise	-1616
▁Bahnhof	-1617
eist	-1618
andel	-1619
▁übers	-1620
▁vorbei	-1621
ute	-1622
fallen	-1623
▁fährt	-1624
gebracht	-1625
▁versucht	-1626
zogen	-1627
▁Rat	-1628
▁zwischen	-1629
onder	-1630
achsen	-1631
nehmen	-1632
▁zie	-1633
▁Haupt	-1634
▁aufzu	-1635
na	-1636
▁Garten	-1637
▁denken	-1638
▁draußen	-1639
▁Sta	-1640
▁kalt	-1641
worten	-1642
hör	-1643
▁Idee	-1644
▁hält	-1645
zus	-1646
ischer	-1647
üb	-1648
▁Baum	-1649
rün	-1650
egal	-1651
▁hielt	-1652
▁Sommer	-1653
▁Stunde	-1654
▁ro	-1655
▁tot	-1656
▁schlafen	-1657
reche	-1658
▁offen	-1659
▁richtig	-1660
andem	-1661
▁beiden	-1662
wen	-1663
▁eure	-1664
▁Unfall	-1665
▁geboren	-1666
▁trinken	-1667
▁Män	-1668
▁Fluss	-1669
▁stand	-1670
▁Gesicht	-1671
▁Dinge	-1672
▁errei	-1673
Ich	-1674
▁sehe	-1675
▁Tee	-1676
▁deinem	-1677
utz	-1678
wohl	-1679
ändig	-1680
▁kennt	-1681
▁flie	-1682
▁pro	-1683
inter	-1684
▁Viele	-1685
▁meisten	-1686
ernen	-1687
ief	-1688
rieg	-1689
▁Wür	-1690
rüf	-1691
▁Wetter	-1692
▁einzige	-1693
rieb	-1694
gaben	-1695
▁bed	-1696
ient	-1697
▁Rau	-1698
▁Hör	-1699
▁fand	-1700
▁Möchte	-1701
▁niemals	-1702
runken	-1703
▁Menge	-1704
roh	-1705
▁Ob	-1706
▁Pap	-1707
▁Pers	-1708
▁fest	-1709
▁sonst	-1710
▁Besch	-1711
dr	-1712
▁19	-1713
▁20	-1714
▁kü	-1715
auen	-1716
immel	-1717
änder	-1718
▁hoch	-1719
▁mögen	-1720
▁Lu	-1721
▁Sonne	-1722
▁Weißt	-1723
imme	-1724
unft	-1725
arbei	-1726
▁Pfer	-1727
▁unbe	-1728
ändern	-1729
▁Krankenhaus	-1730
▁Ur	-1731
▁Zw	-1732
▁Kam	-1733
▁Ange	-1734
▁Kn	-1735
▁Schlüssel	-1736
▁küs	-1737
recht	-1738
▁Recht	-1739
gew	-1740
esse	-1741
voll	-1742
zent	-1743
▁glaubt	-1744
esser	-1745
▁Park	-1746
▁Sami	-1747
▁stehen	-1748
▁Gott	-1749
▁größer	-1750
▁fiel	-1751
▁Schla	-1752
▁trägt	-1753
▁langsam	-1754
▁Abendessen	-1755
itze	-1756
ummer	-1757
▁brauchst	-1758
▁3	-1759
▁jemanden	-1760
▁neues	-1761
▁gewöhnlich	-1762
▁vö	-1763
▁wann	-1764
▁pl	-1765
ika	-1766
vier	-1767
ücht	-1768
▁falsch	-1769
erin	-1770
▁saß	-1771
auern	-1772
orben	-1773
▁Lieblings	-1774
rug	-1775
▁versuchen	-1776
üten	-1777
ette	-1778
mittag	-1779
▁machst	-1780
▁fuhr	-1781
▁Welche	-1782
▁Kla	-1783
▁Uni	-1784
▁Milch	-1785
chmal	-1786
▁Büro	-1787
indet	-1788
▁Bier	-1789
▁Tenn	-1790
anc	-1791
schw	-1792
▁Zwei	-1793
▁Schuhe	-1794
öl	-1795
▁Ne	-1796
▁Erde	-1797
raf	-1798
itzen	-1799
▁leg	-1800
kunft	-1801
old	-1802
önig	-1803
▁Jungen	-1804
reck	-1805
▁Tod	-1806
▁etwa	-1807
▁Alles	-1808
hig	-1809
anzen	-1810
▁Kein	-1811
▁Rest	-1812
▁Tennis	-1813
▁schlecht	-1814
▁überrascht	-1815
asch	-1816
so	-1817
rüfung	-1818
▁lau	-1819
▁Sonnen	-1820
▁bestimmt	-1821
zug	-1822
▁Blumen	-1823
▁Frauen	-1824
▁läch	-1825
▁Apfel	-1826
▁besuchen	-1827
emd	-1828
ähe	-1829
cker	-1830
▁acht	-1831
▁blie	-1832
▁Kuchen	-1833
ieden	-1834
▁fing	-1835
▁Montag	-1836
▁Nachbar	-1837
off	-1838
zei	-1839
▁John	-1840
▁Lasst	-1841
▁Versp	-1842
brochen	-1843
rift	-1844
gegen	-1845
itzt	-1846
stadt	-1847
▁völlig	-1848
▁heiraten	-1849
iste	-1850
▁Med	-1851
▁Bi	-1852
▁Brot	-1853
▁Rech	-1854
▁Su	-1855
flich	-1856
▁lässt	-1857
unktion	-1858
▁würdest	-1859
▁Geburtstag	-1860
umm	-1861
ider	-1862
▁Raum	-1863
▁sprach	-1864
gang	-1865
▁sechs	-1866
▁Himmel	-1867
gnis	-1868
▁Fei	-1869
▁Sel	-1870
▁Gibt	-1871
▁erle	-1872
▁Neu	-1873
etten	-1874
▁Blei	-1875
▁Herz	-1876
▁König	-1877
▁Platz	-1878
zehn	-1879
▁ant	-1880
icher	-1881
▁Stelle	-1882
rückt	-1883
▁Verb	-1884
▁teil	-1885
ift	-1886
▁Eur	-1887
▁Fot	-1888
▁Gen	-1889
▁Hotel	-1890
aur	-1891
halb	-1892
icken	-1893
onntag	-1894
▁Ihren	-1895
▁erzählt	-1896
▁gelernt	-1897
▁zufrieden	-1898
▁Jetzt	-1899
▁Ex	-1900
▁em	-1901
ängt	-1902
▁dür	-1903
ausen	-1904
▁Mill	-1905
si	-1906
halt	-1907
unger	-1908
get	-1909
▁lö	-1910
ches	-1911
▁Arm	-1912
▁trau	-1913
▁Party	-1914
schland	-1915
▁Männer	-1916
▁eigentlich	-1917
▁Rück	-1918
schlag	-1919
▁starb	-1920
▁besten	-1921
▁interessiert	-1922
▁Geheim	-1923
▁ü	-1924
ate	-1925
▁Mü	-1926
▁Haare	-1927
▁Schlaf	-1928
▁lieben	-1929
iges	-1930
▁zog	-1931
▁Seite	-1932
▁Sprachen	-1933
if	-1934
▁tä	-1935
▁Und	-1936
▁rie	-1937
▁Chin	-1938
▁neben	-1939
yp	-1940
komm	-1941
utet	-1942
▁Gem	-1943
▁ster	-1944
▁wahrscheinlich	-1945
iot	-1946
▁Dein	-1947
▁Weihn	-1948
mä	-1949
▁nächste	-1950
▁glaubten	-1951
ziehen	-1952
▁herum	-1953
▁Person	-1954
▁meines	-1955
aufgaben	-1956
▁bemer	-1957
▁Erfolg	-1958
▁seines	-1959
▁besonder	-1960
▁Deine	-1961
elte	-1962
▁Für	-1963
▁größ	-1964
▁Sache	-1965
▁Geschäft	-1966
täu	-1967
▁beant	-1968
▁Lei	-1969
▁Rad	-1970
isten	-1971
▁Soll	-1972
▁alten	-1973
▁siehst	-1974
▁stellte	-1975
▁schwierig	-1976
▁Deutschland	-1977
reten	-1978
▁trug	-1979
tem	-1980
oten	-1981
▁Far	-1982
ohlen	-1983
eder	-1984
▁frage	-1985
▁seien	-1986
▁wüten	-1987
ale	-1988
afft	-1989
▁hüb	-1990
gekommen	-1991
▁anderes	-1992
einig	-1993
▁guten	-1994
▁besteht	-1995
ppen	-1996
ormal	-1997
▁Selbst	-1998
ay	-1999
▁weniger	-2000
▁verheiratet	-2001
min	-2002
▁anders	-2003
▁hierher	-2004
▁Entscheid	-2005
ickt	-2006
setz	-2007
auber	-2008
steck	-2009
llo	-2010
▁Gefühl	-2011
ic	-2012
▁sü	-2013
stens	-2014
▁verp	-2015
▁beste	-2016
▁stolz	-2017
▁kleine	-2018
▁würden	-2019
▁Pu	-2020
▁Schiff	-2021
▁Schnee	-2022
▁Geschen	-2023
▁erinnern	-2024
äss	-2025
mann	-2026
▁Univers	-2027
▁Möchtest	-2028
▁Erd	-2029
▁eur	-2030
▁jen	-2031
▁klar	-2032
▁spreche	-2033
▁Reise	-2034
▁Hunger	-2035
▁gedacht	-2036
leisch	-2037
▁stimmt	-2038
▁kleinen	-2039
auso	-2040
▁fern	-2041
▁kauf	-2042
▁wütend	-2043
▁brachte	-2044
▁vorsicht	-2045
licher	-2046
ändert	-2047
sk	-2048
weil	-2049
▁Meer	-2050
▁gefähr	-2051
ond	-2052
▁hil	-2053
▁hol	-2054
▁genauso	-2055
▁Hausaufgaben	-2056
uter	-2057
▁begann	-2058
▁selten	-2059
▁unserer	-2060
▁Wein	-2061
▁Nachmittag	-2062
pe	-2063
legt	-2064
ritt	-2065
▁Hut	-2066
▁Lied	-2067
▁verf	-2068
▁länger	-2069
ostet	-2070
▁Seid	-2071
▁halb	-2072
▁verliebt	-2073
ühm	-2074
ehme	-2075
olgen	-2076
▁Pass	-2077
▁Fisch	-2078
▁Kanad	-2079
merzen	-2080
▁Stück	-2081
▁dreißig	-2082
▁gefr	-2083
▁irgendw	-2084
ünst	-2085
▁Sinn	-2086
▁Alter	-2087
▁Pf	-2088
isches	-2089
▁aufhören	-2090
aby	-2091
ude	-2092
▁zeigen	-2093
▁Gestern	-2094
▁untersch	-2095
ane	-2096
schu	-2097
▁Ahnung	-2098
▁Klavier	-2099
zw	-2100
piel	-2101
▁Mat	-2102
▁Bank	-2103
▁aller	-2104
undheit	-2105
▁Prüfung	-2106
zahl	-2107
▁ehr	-2108
▁Preis	-2109
▁Luft	-2110
schied	-2111
▁tragen	-2112
▁Wochenende	-2113
▁Krieg	-2114
▁freue	-2115
▁warst	-2116
▁herein	-2117
▁schöne	-2118
▁singen	-2119
▁Schwierig	-2120
erk	-2121
itik	-2122
oment	-2123
▁Hunde	-2124
▁Deutsch	-2125
▁stellen	-2126
▁Geheimnis	-2127
dest	-2128
▁Name	-2129
▁Sitz	-2130
▁ernst	-2131
▁funktion	-2132
isk	-2133
alte	-2134
lang	-2135
ötzlich	-2136
▁Könntest	-2137
urch	-2138
▁lust	-2139
▁legte	-2140
sichtlich	-2141
▁gestohlen	-2142
hef	-2143
▁Ohr	-2144
▁Schuld	-2145
▁erwartet	-2146
▁geschehen	-2147
äng	-2148
▁Frühstück	-2149
▁Comp	-2150
fahren	-2151
▁gehst	-2152
▁halte	-2153
▁schau	-2154
gerufen	-2155
möglich	-2156
▁Winter	-2157
▁alleine	-2158
hö	-2159
gabe	-2160
▁Anf	-2161
▁Kir	-2162
▁Hände	-2163
▁kommst	-2164
▁dorthin	-2165
▁gestorben	-2166
gem	-2167
zte	-2168
aurant	-2169
ßt	-2170
ase	-2171
dete	-2172
▁blau	-2173
▁empf	-2174
▁verg	-2175
▁sterben	-2176
▁bezahlen	-2177
ieg	-2178
ramm	-2179
▁Verl	-2180
▁verschw	-2181
▁Wahl	-2182
▁repar	-2183
▁setzte	-2184
▁eigenen	-2185
▁gesp	-2186
▁gewinnen	-2187
▁darum	-2188
▁berühm	-2189
org	-2190
ionen	-2191
▁Nähe	-2192
uldigen	-2193
▁verletzt	-2194
lo	-2195
ont	-2196
urm	-2197
▁Ph	-2198
ober	-2199
wohn	-2200
hundert	-2201
▁Zukunft	-2202
▁Wörterbuch	-2203
ächt	-2204
▁schwar	-2205
▁Staaten	-2206
▁Studenten	-2207
▁Glas	-2208
▁dumm	-2209
▁froh	-2210
▁wert	-2211
▁sieben	-2212
▁Fußball	-2213
äuft	-2214
dlich	-2215
▁Gefän	-2216
▁besonders	-2217
laufen	-2218
▁Sonntag	-2219
lung	-2220
▁Baby	-2221
▁Ohne	-2222
▁nerv	-2223
▁fürchte	-2224
▁erfahren	-2225
hört	-2226
▁Lage	-2227
▁Computer	-2228
▁bedeutet	-2229
form	-2230
▁Mag	-2231
▁Ord	-2232
▁wor	-2233
andelt	-2234
ichten	-2235
▁Tasse	-2236
▁Rauchen	-2237
▁gebeten	-2238
gar	-2239
mar	-2240
▁Bas	-2241
▁ert	-2242
rufen	-2243
aschen	-2244
▁Schwierigkeiten	-2245
▁Ju	-2246
unkel	-2247
ium	-2248
▁Teil	-2249
▁hört	-2250
▁Lust	-2251
▁Verg	-2252
▁kaufte	-2253
▁Gefängnis	-2254
▁schlechte	-2255
▁Gesundheit	-2256
▁Restaurant	-2257
oeb	-2258
▁Ei	-2259
haft	-2260
enden	-2261
▁hasse	-2262
standen	-2263
▁enttäu	-2264
▁Probleme	-2265
▁gegenüber	-2266
ek	-2267
▁Di	-2268
▁Vereinig	-2269
▁Tax	-2270
▁jün	-2271
▁raus	-2272
▁sage	-2273
▁Gegen	-2274
sprache	-2275
oß	-2276
aul	-2277
ino	-2278
ohnt	-2279
stes	-2280
▁ä	-2281
bes	-2282
▁ex	-2283
▁Är	-2284
▁entf	-2285
▁Europ	-2286
▁freund	-2287
▁gingen	-2288
▁verrückt	-2289
akt	-2290
ärger	-2291
ierung	-2292
▁Brille	-2293
amm	-2294
fft	-2295
öse	-2296
▁Bet	-2297
▁Lau	-2298
digen	-2299
▁stark	-2300
▁Vereinigten	-2301
üch	-2302
blick	-2303
▁Katzen	-2304
▁Sk	-2305
▁per	-2306
▁Nimm	-2307
reiben	-2308
zeitig	-2309
▁Tasche	-2310
▁bekomm	-2311
▁Geschenk	-2312
▁weh	-2313
▁Entscheidung	-2314
▁Reg	-2315
▁Trin	-2316
talien	-2317
▁Boden	-2318
▁Ferns	-2319
▁denkst	-2320
▁Kindern	-2321
äre	-2322
▁kap	-2323
▁Mund	-2324
▁nehme	-2325
▁Strand	-2326
▁5	-2327
orf	-2328
▁Hö	-2329
digt	-2330
oeba	-2331
▁Eis	-2332
inger	-2333
▁Gebäu	-2334
▁Ordnung	-2335
▁Frei	-2336
▁schm	-2337
▁Moment	-2338
▁Könnten	-2339
gr	-2340
mus	-2341
▁He	-2342
orgt	-2343
▁egal	-2344
▁Küche	-2345
▁Pferd	-2346
▁Von	-2347
era	-2348
▁Kre	-2349
raten	-2350
▁eben	-2351
▁fort	-2352
▁Schreibt	-2353
▁At	-2354
atür	-2355
eilt	-2356
▁Prä	-2357
▁end	-2358
ausend	-2359
▁auszu	-2360
▁blieb	-2361
sw	-2362
dien	-2363
achts	-2364
▁japan	-2365
▁Klasse	-2366
▁Unsere	-2367
▁befindet	-2368
▁gemein	-2369
▁lustig	-2370
▁benutzen	-2371
▁geheiratet	-2372
hek	-2373
opf	-2374
atte	-2375
emand	-2376
▁Laden	-2377
▁liest	-2378
▁Sachen	-2379
▁ändern	-2380
▁überzeu	-2381
▁gebracht	-2382
pro	-2383
fahr	-2384
▁könnt	-2385
▁wolle	-2386
▁großer	-2387
▁Flugzeug	-2388
▁gefährlich	-2389
urs	-2390
▁Woher	-2391
▁Glaubst	-2392
prä	-2393
üge	-2394
ante	-2395
▁wüs	-2396
bliot	-2397
▁Tagen	-2398
▁Worte	-2399
▁darin	-2400
▁angerufen	-2401
▁Anw	-2402
itter	-2403
wegen	-2404
▁Wald	-2405
▁erklären	-2406
▁verdient	-2407
rag	-2408
ärm	-2409
hung	-2410
anzig	-2411
▁Hoch	-2412
▁denkt	-2413
▁bitten	-2414
▁hübsch	-2415
jen	-2416
▁zer	-2417
rücke	-2418
heiten	-2419
▁Arbei	-2420
▁Schön	-2421
▁wohnen	-2422
▁gewonnen	-2423
atik	-2424
▁Sal	-2425
holen	-2426
▁Richt	-2427
▁Sätze	-2428
▁Gedanken	-2429
▁Hauptstadt	-2430
“,	-2431
▁ei	-2432
riff	-2433
▁kom	-2434
iegen	-2435
ossen	-2436
vater	-2437
örper	-2438
▁Macht	-2439
▁Tiere	-2440
▁normal	-2441
▁Fleisch	-2442
▁Freunden	-2443
▁angekommen	-2444
▁vorsichtig	-2445
öst	-2446
eile	-2447
itar	-2448
nahm	-2449
reise	-2450
▁esse	-2451
machen	-2452
bliothek	-2453
▁Tatoeba	-2454
pfen	-2455
▁Auss	-2456
▁statt	-2457
▁könnten	-2458
zi	-2459
son	-2460
ogel	-2461
acken	-2462
▁drin	-2463
▁belie	-2464
▁darfst	-2465
▁Ausland	-2466
▁versteht	-2467
▁niemanden	-2468
od	-2469
kam	-2470
ählt	-2471
▁Post	-2472
▁rein	-2473
▁allem	-2474
▁Wohnung	-2475
utt	-2476
rech	-2477
aschine	-2478
▁Stimme	-2479
▁On	-2480
raft	-2481
▁Kor	-2482
eindru	-2483
eun	-2484
▁Ro	-2485
▁zahl	-2486
▁lerne	-2487
▁langweil	-2488
ama	-2489
▁nun	-2490
▁Einz	-2491
▁also	-2492
▁Traum	-2493
▁gutes	-2494
▁sagst	-2495
▁Amerika	-2496
▁ständig	-2497
▁angefangen	-2498
ffer	-2499
unst	-2500
▁wem	-2501
hause	-2502
leben	-2503
▁zwar	-2504
▁Tages	-2505
▁bleibt	-2506
▁laufen	-2507
▁regnen	-2508
▁schrieb	-2509
▁Angelegen	-2510
▁Bä	-2511
leich	-2512
▁gehol	-2513
▁arbeite	-2514
▁Ben	-2515
▁Jack	-2516
▁Schn	-2517
▁regnet	-2518
▁suchen	-2519
▁Gebäude	-2520
30	-2521
▁Sü	-2522
▁jede	-2523
▁welche	-2524
▁leisten	-2525
▁geschafft	-2526
▁Erw	-2527
▁Not	-2528
nchen	-2529
siden	-2530
▁Eich	-2531
steckt	-2532
▁Möglich	-2533
▁gefragt	-2534
ph	-2535
ance	-2536
▁abge	-2537
▁fehl	-2538
▁Gitar	-2539
▁fühle	-2540
▁ruhig	-2541
▁niemandem	-2542
wagen	-2543
▁nett	-2544
azieren	-2545
▁jünger	-2546
▁trinkt	-2547
▁voller	-2548
ym	-2549
▁anzu	-2550
ahrung	-2551
eister	-2552
▁fällt	-2553
▁beantworten	-2554
pft	-2555
ügt	-2556
ahre	-2557
änen	-2558
▁wär	-2559
endet	-2560
▁kamen	-2561
▁Messer	-2562
eren	-2563
irma	-2564
lage	-2565
▁The	-2566
echsel	-2567
▁strei	-2568
▁Bibliothek	-2569
▁eingeladen	-2570
arm	-2571
▁Nur	-2572
ienen	-2573
▁könne	-2574
▁schlief	-2575
ah	-2576
ehm	-2577
▁ko	-2578
▁süß	-2579
utzen	-2580
▁lieb	-2581
denken	-2582
perant	-2583
▁still	-2584
▁betrunken	-2585
du	-2586
eten	-2587
olle	-2588
▁deut	-2589
mittel	-2590
richst	-2591
▁schme	-2592
▁liegen	-2593
▁Schreibtisch	-2594
iet	-2595
itu	-2596
▁Co	-2597
ützen	-2598
▁Ruhe	-2599
▁Lassen	-2600
▁Bescheid	-2601
▁Esperant	-2602
▁Mo	-2603
▁Hel	-2604
zeich	-2605
▁Kont	-2606
▁bringt	-2607
▁vielen	-2608
▁wunder	-2609
arbeitet	-2610
▁bezahlt	-2611
▁schaffen	-2612
▁Foto	-2613
▁abzu	-2614
▁Schau	-2615
▁erlau	-2616
▁nimmt	-2617
▁besucht	-2618
▁geholfen	-2619
glück	-2620
▁Aber	-2621
▁Chef	-2622
▁Heim	-2623
▁spazieren	-2624
rotz	-2625
▁Beg	-2626
▁Taxi	-2627
▁Ziel	-2628
▁lief	-2629
andeln	-2630
▁gelie	-2631
▁letzter	-2632
▁gefahren	-2633
▁passieren	-2634
▁miteinander	-2635
sy	-2636
ans	-2637
cke	-2638
ehlt	-2639
▁Kino	-2640
▁Onkel	-2641
▁denen	-2642
▁lösen	-2643
▁anrufen	-2644
▁möchtest	-2645
▁Unterricht	-2646
orn	-2647
▁kn	-2648
ativ	-2649
eller	-2650
▁Dorf	-2651
▁Eier	-2652
▁tust	-2653
lehrer	-2654
liches	-2655
▁Firma	-2656
▁einander	-2657
▁irgendwo	-2658
üg	-2659
zut	-2660
orge	-2661
eitet	-2662
▁Berg	-2663
üchtig	-2664
▁lernt	-2665
▁Zeitung	-2666
▁interessant	-2667
hält	-2668
▁Hät	-2669
▁tue	-2670
▁Zahn	-2671
▁euer	-2672
gelernt	-2673
▁weinen	-2674
▁Präsiden	-2675
▁genommen	-2676
▁-	-2677
rakt	-2678
▁Pfl	-2679
▁Vogel	-2680
▁Keiner	-2681
▁findet	-2682
▁kaputt	-2683
▁meinte	-2684
▁wüsste	-2685
▁schreibt	-2686
▁Ort	-2687
▁Tok	-2688
undet	-2689
▁Wind	-2690
▁selt	-2691
▁traf	-2692
▁bekam	-2693
▁läuft	-2694
▁Gesetz	-2695
▁kostet	-2696
hörnchen	-2697
stellung	-2698
ult	-2699
▁wach	-2700
▁Freude	-2701
▁Th	-2702
dung	-2703
ieht	-2704
sinn	-2705
▁Best	-2706
▁Blut	-2707
▁hung	-2708
▁erzählen	-2709
000	-2710
uen	-2711
raut	-2712
gefähr	-2713
▁allzu	-2714
▁einzu	-2715
▁dürfen	-2716
▁leiden	-2717
▁Politik	-2718
fr	-2719
▁Mühe	-2720
raucht	-2721
▁dahin	-2722
▁passt	-2723
▁Urlaub	-2724
▁endlich	-2725
▁enttäuscht	-2726
eigt	-2727
▁Dar	-2728
ondon	-2729
▁Span	-2730
▁eher	-2731
▁Blick	-2732
▁Kommen	-2733
▁nervös	-2734
▁geschlossen	-2735
..	-2736
rän	-2737
äuf	-2738
karte	-2739
▁tief	-2740
▁London	-2741
▁schlug	-2742
▁dagegen	-2743
▁verstanden	-2744
▁kennengelernt	-2745
erg	-2746
ese	-2747
▁Schm	-2748
▁Feier	-2749
▁konnten	-2750
▁öffnete	-2751
▁Amerikan	-2752
olf	-2753
▁Hü	-2754
▁Ir	-2755
schn	-2756
ständ	-2757
▁rief	-2758
▁Jemand	-2759
▁Mantel	-2760
▁Nichts	-2761
▁Italien	-2762
▁unseren	-2763
▁Esperanto	-2764
▁übersetzen	-2765
app	-2766
erikan	-2767
▁erreichen	-2768
ellen	-2769
▁Ball	-2770
jenige	-2771
stelle	-2772
▁Sport	-2773
▁wider	-2774
▁Mittagessen	-2775
▁Wissenschaft	-2776
bo	-2777
alen	-2778
jekt	-2779
▁Ker	-2780
▁erg	-2781
anten	-2782
mmern	-2783
▁Hemd	-2784
▁bloß	-2785
▁Herrn	-2786
▁jedem	-2787
schrift	-2788
zusehen	-2789
ituation	-2790
▁Student	-2791
▁verlieren	-2792
ink	-2793
pfer	-2794
▁hab	-2795
▁Ster	-2796
▁Farbe	-2797
▁Ihrer	-2798
▁Paris	-2799
▁Chance	-2800
▁bekannt	-2801
▁Übersetz	-2802
▁Versprechen	-2803
▁Ma	-2804
inen	-2805
▁Brü	-2806
mutter	-2807
unehmen	-2808
▁keiner	-2809
▁schreck	-2810
▁Großvater	-2811
▁Universität	-2812
▁Ja	-2813
▁Lay	-2814
▁Kamera	-2815
▁ziehen	-2816
▁öffnen	-2817
▁brauchte	-2818
▁verkaufen	-2819
▁funktioniert	-2820
ilder	-2821
▁böse	-2822
lernen	-2823
▁Natur	-2824
▁Tränen	-2825
▁Kanadier	-2826
▁beeindru	-2827
▁Eichhörnchen	-2828
stem	-2829
ällig	-2830
▁Hoff	-2831
schluss	-2832
▁traurig	-2833
▁Nachbarn	-2834
▁Fernsehen	-2835
ub	-2836
olge	-2837
zert	-2838
▁Okt	-2839
▁ans	-2840
▁aufs	-2841
▁neun	-2842
▁jemals	-2843
▁kümmer	-2844
▁Straßen	-2845
▁schläft	-2846
▁französisch	-2847
hafen	-2848
▁heim	-2849
▁oben	-2850
▁jedes	-2851
▁teuer	-2852
▁anfangen	-2853
▁Situation	-2854
nt	-2855
bald	-2856
ennst	-2857
▁Anfang	-2858
tell	-2859
▁Mot	-2860
▁höre	-2861
▁zeig	-2862
gebnis	-2863
ierten	-2864
▁Kunst	-2865
antwort	-2866
▁Einige	-2867
gestellt	-2868
chem	-2869
▁eins	-2870
▁Roman	-2871
▁Äpfel	-2872
▁Flughafen	-2873
▁pf	-2874
ließ	-2875
▁Erk	-2876
▁Frank	-2877
▁Inter	-2878
▁Gefahr	-2879
▁erinnere	-2880
üll	-2881
▁Tu	-2882
eite	-2883
▁Auge	-2884
▁Brie	-2885
▁müsst	-2886
▁warte	-2887
auspiel	-2888
ächlich	-2889
lichkeit	-2890
▁Versuch	-2891
▁hungrig	-2892
▁verkauft	-2893
▁plötzlich	-2894
▁unmöglich	-2895
ften	-2896
rücken	-2897
▁verwir	-2898
ia	-2899
innt	-2900
ksam	-2901
ötig	-2902
iesen	-2903
▁Rede	-2904
▁Them	-2905
▁Koffer	-2906
ard	-2907
iter	-2908
üsst	-2909
▁201	-2910
ickte	-2911
▁manchmal	-2912
abt	-2913
▁Bis	-2914
▁Pat	-2915
▁See	-2916
▁hinzu	-2917
▁Rücken	-2918
▁freundlich	-2919
ögel	-2920
▁half	-2921
▁Insel	-2922
▁unver	-2923
▁fühlte	-2924
▁größte	-2925
▁setzen	-2926
▁Oktober	-2927
▁Taschen	-2928
▁wollten	-2929
arr	-2930
deut	-2931
▁Zucker	-2932
▁großes	-2933
▁tanzen	-2934
▁Gitarre	-2935
änden	-2936
▁Mond	-2937
▁laut	-2938
gesehen	-2939
▁Bericht	-2940
▁schneller	-2941
▁Angelegenheit	-2942
“.	-2943
ima	-2944
▁Layla	-2945
▁ihres	-2946
steckte	-2947
schmerzen	-2948
▁vertrauen	-2949
uf	-2950
kten	-2951
▁fahre	-2952
▁Körper	-2953
▁dauern	-2954
▁gewohnt	-2955
▁gearbeitet	-2956
lern	-2957
▁Dem	-2958
ament	-2959
schte	-2960
▁hilft	-2961
▁magst	-2962
▁fallen	-2963
gegangen	-2964
▁ungefähr	-2965
we	-2966
▁Seit	-2967
▁bege	-2968
▁Erdbe	-2969
▁führt	-2970
▁Aufgabe	-2971
▁großart	-2972
ip	-2973
oss	-2974
ikel	-2975
▁Ken	-2976
▁dan	-2977
▁las	-2978
▁Tier	-2979
▁engl	-2980
▁nahe	-2981
▁Hallo	-2982
▁kümmern	-2983
▁seltsam	-2984
zer	-2985
isse	-2986
omas	-2987
zentr	-2988
▁hervor	-2989
▁benutzt	-2990
ffentlich	-2991
lin	-2992
wür	-2993
ehst	-2994
▁Met	-2995
▁Vert	-2996
achtet	-2997
▁hasst	-2998
▁stieg	-2999
▁Verkehr	-3000
▁betrach	-3001
▁Unterschied	-3002
▁entschuldigen	-3003
fa	-3004
gnet	-3005
hmen	-3006
satz	-3007
▁Ehr	-3008
kohol	-3009
ätzen	-3010
▁Eind	-3011
▁Frühl	-3012
▁wohne	-3013
▁verlor	-3014
▁Konzert	-3015
▁geküsst	-3016
▁studiert	-3017
."	-3018
▁Ter	-3019
▁Dank	-3020
sprach	-3021
▁sahen	-3022
▁schen	-3023
▁Papier	-3024
▁Klassen	-3025
▁amerikan	-3026
▁gleichen	-3027
bet	-3028
äus	-3029
▁Do	-3030
▁de	-3031
▁tau	-3032
▁Führ	-3033
▁Nein	-3034
▁Prin	-3035
▁dick	-3036
▁echt	-3037
▁zuge	-3038
kaufen	-3039
merksam	-3040
▁Stimmt	-3041
▁Thomas	-3042
▁Gefühle	-3043
▁gewusst	-3044
▁erledigen	-3045
ome	-3046
▁Ku	-3047
▁aß	-3048
fekt	-3049
weit	-3050
▁Des	-3051
▁Job	-3052
eball	-3053
schaf	-3054
▁Dach	-3055
▁Finger	-3056
▁Kirche	-3057
▁Sicher	-3058
sächlich	-3059
▁Manchmal	-3060
▁Fernseher	-3061
▁Weihnachten	-3062
iko	-3063
umt	-3064
▁nä	-3065
wesen	-3066
telligen	-3067
▁ehrlich	-3068
▁Hoffnung	-3069
▁studieren	-3070
del	-3071
▁Kä	-3072
aren	-3073
echt	-3074
ähne	-3075
druck	-3076
▁Zahl	-3077
▁warf	-3078
finden	-3079
ärgert	-3080
▁fehlt	-3081
▁sitzt	-3082
▁kochen	-3083
▁gelassen	-3084
▁Le	-3085
weis	-3086
▁lag	-3087
▁Vögel	-3088
▁küssen	-3089
zung	-3090
▁Kom	-3091
▁käm	-3092
grund	-3093
▁Durch	-3094
üchtern	-3095
▁Schauspiel	-3096
▁entschieden	-3097
▁äu	-3098
▁Beh	-3099
lefon	-3100
arbeit	-3101
▁Könnt	-3102
▁Radio	-3103
atürlich	-3104
▁Eindruck	-3105
▁ch	-3106
ocht	-3107
iegel	-3108
▁Stern	-3109
▁Besuch	-3110
▁zeigte	-3111
▁Absicht	-3112
▁erzählte	-3113
▁gebrochen	-3114
fä	-3115
irn	-3116
zept	-3117
atten	-3118
▁Stuhl	-3119
▁wären	-3120
▁nennen	-3121
▁gesucht	-3122
▁gespielt	-3123
▁ö	-3124
▁10	-3125
bild	-3126
ötet	-3127
▁übr	-3128
euten	-3129
▁Netz	-3130
▁Reis	-3131
▁hinaus	-3132
▁rannte	-3133
▁sitzen	-3134
▁letztes	-3135
▁Ele	-3136
▁Kil	-3137
▁New	-3138
▁Typ	-3139
order	-3140
▁Holz	-3141
lieben	-3142
wendig	-3143
▁Autos	-3144
▁Schok	-3145
▁solle	-3146
▁unserem	-3147
ail	-3148
blei	-3149
▁Sold	-3150
▁Medik	-3151
▁wollt	-3152
▁verspä	-3153
▁Rechner	-3154
▁glaubte	-3155
▁solltet	-3156
▁Kleidung	-3157
▁Erfahrung	-3158
elig	-3159
▁geg	-3160
nahme	-3161
▁Anwalt	-3162
ellschaft	-3163
▁entfernt	-3164
▁vorstellen	-3165
egt	-3166
▁Dr	-3167
▁beob	-3168
▁hart	-3169
rochen	-3170
▁Angeb	-3171
▁Baseball	-3172
▁verpasst	-3173
▁Japanisch	-3174
▁Frankreich	-3175
Nein	-3176
izin	-3177
will	-3178
ünkt	-3179
haben	-3180
kommt	-3181
ließen	-3182
▁Stein	-3183
▁Brücke	-3184
▁Wollen	-3185
▁glaubst	-3186
▁welchem	-3187
ment	-3188
▁arm	-3189
▁Dien	-3190
▁Kart	-3191
▁Lesen	-3192
ünstler	-3193
▁einsam	-3194
▁wartet	-3195
▁werdet	-3196
▁Treffen	-3197
▁schönes	-3198
▁zwanzig	-3199
▁reparieren	-3200
▁rechtzeitig	-3201
▁Bau	-3202
ringe	-3203
tschaft	-3204
▁Manche	-3205
▁dessen	-3206
▁nieder	-3207
▁Möchten	-3208
▁möchten	-3209
Das	-3210
esp	-3211
unk	-3212
üse	-3213
fers	-3214
teil	-3215
ührt	-3216
▁Piz	-3217
▁Tem	-3218
▁rot	-3219
▁Gold	-3220
▁grün	-3221
dresse	-3222
schrank	-3223
▁Erzähl	-3224
▁Vergiss	-3225
▁besorgt	-3226
▁kleiner	-3227
▁Entschuldig	-3228
öd	-3229
▁Em	-3230
fonn	-3231
reut	-3232
▁Vol	-3233
▁kon	-3234
dacht	-3235
licht	-3236
punkt	-3237
▁Drei	-3238
▁vern	-3239
▁Thema	-3240
▁fleiß	-3241
zunehmen	-3242
▁Gelegen	-3243
▁Schokol	-3244
▁Telefonn	-3245
▁erwarten	-3246
▁Vorschlag	-3247
aff	-3248
olgt	-3249
▁unbed	-3250
▁wohin	-3251
▁Machen	-3252
▁folgen	-3253
▁Welches	-3254
▁nachdem	-3255
▁jemandem	-3256
▁schlechter	-3257
xt	-3258
aup	-3259
gelt	-3260
▁lebe	-3261
▁zust	-3262
▁Erinn	-3263
▁entsp	-3264
reundet	-3265
▁Regensch	-3266
▁geschlafen	-3267
mel	-3268
▁Ruf	-3269
▁dank	-3270
▁Kiste	-3271
▁heiße	-3272
▁wicht	-3273
▁Europa	-3274
▁Schirm	-3275
▁beglei	-3276
▁spielte	-3277
▁Ergebnis	-3278
▁entlassen	-3279
▁Sicherheit	-3280
▁langweilig	-3281
ide	-3282
ieß	-3283
bahn	-3284
ochte	-3285
ruppe	-3286
▁Lärm	-3287
▁Ober	-3288
▁Sand	-3289
▁Sofa	-3290
estern	-3291
▁Schwei	-3292
▁schloss	-3293
za	-3294
ärt	-3295
bung	-3296
eige	-3297
alent	-3298
ister	-3299
▁Warst	-3300
▁redet	-3301
▁Angebot	-3302
▁Flasche	-3303
▁wartete	-3304
▁unbedingt	-3305
zur	-3306
affe	-3307
hnte	-3308
olog	-3309
weif	-3310
▁Lös	-3311
▁Nase	-3312
▁Gehen	-3313
ationen	-3314
▁Gemüse	-3315
▁solche	-3316
▁überall	-3317
▁geschickt	-3318
kauf	-3319
▁Chr	-3320
ießen	-3321
▁Sagen	-3322
▁weder	-3323
▁Brüder	-3324
▁behaup	-3325
▁leihen	-3326
▁Sitzung	-3327
▁mehrere	-3328
geschlagen	-3329
ager	-3330
wick	-3331
▁Kra	-3332
▁Brau	-3333
▁Geht	-3334
▁Russ	-3335
▁Wand	-3336
▁wein	-3337
▁Geben	-3338
▁entde	-3339
▁Mathem	-3340
▁sauber	-3341
▁Frühling	-3342
▁nächstes	-3343
▁Krankheit	-3344
▁Großmutter	-3345
▁Telefonnummer	-3346
bs	-3347
Was	-3348
▁Li	-3349
urcht	-3350
▁Karte	-3351
▁Motor	-3352
schaften	-3353
▁Beispiel	-3354
▁Mathematik	-3355
pen	-3356
ehrt	-3357
ammen	-3358
▁häuf	-3359
▁lebte	-3360
▁verbr	-3361
▁Jugend	-3362
▁Obwohl	-3363
▁aufgehört	-3364
▁Gelegenheit	-3365
ies	-3366
pel	-3367
▁Tre	-3368
detwas	-3369
reifen	-3370
▁benöt	-3371
▁verab	-3372
▁Intern	-3373
▁Schluss	-3374
gendetwas	-3375
.30	-3376
glie	-3377
▁Bob	-3378
▁spr	-3379
ieten	-3380
ismus	-3381
▁Witz	-3382
▁trat	-3383
▁verz	-3384
etzten	-3385
indest	-3386
▁Zähne	-3387
▁sucht	-3388
▁dunkel	-3389
▁gesund	-3390
▁hinein	-3391
▁kannte	-3392
gelassen	-3393
schuldig	-3394
ünktlich	-3395
▁entscheiden	-3396
▁at	-3397
ergie	-3398
▁Dumm	-3399
▁Weil	-3400
▁Liste	-3401
▁Magst	-3402
▁Mittel	-3403
▁fliegen	-3404
▁hundert	-3405
▁könntest	-3406
▁zufällig	-3407
▁Amerikaner	-3408
▁befreundet	-3409
ma	-3410
eien	-3411
▁Kek	-3412
▁warm	-3413
esisch	-3414
▁Erklär	-3415
▁Arbeits	-3416
▁verließ	-3417
▁derjenige	-3418
äme	-3419
▁Na	-3420
häng	-3421
▁Bel	-3422
▁Ern	-3423
endung	-3424
ielten	-3425
▁Inform	-3426
▁vorher	-3427
▁Alkohol	-3428
▁Artikel	-3429
▁zweimal	-3430
▁herunter	-3431
▁schüchtern	-3432
▁unterhalten	-3433
▁Trä	-3434
ensch	-3435
▁toll	-3436
▁Wohin	-3437
▁junge	-3438
▁bemerkte	-3439
▁pünktlich	-3440
are	-3441
gte	-3442
zess	-3443
▁Mut	-3444
ition	-3445
ument	-3446
ütter	-3447
▁klug	-3448
▁leer	-3449
indung	-3450
▁China	-3451
▁Ihrem	-3452
▁Weise	-3453
▁äußer	-3454
▁lachen	-3455
▁schaute	-3456
▁schmeckt	-3457
▁offensichtlich	-3458
ron	-3459
stet	-3460
gramm	-3461
▁zähl	-3462
▁Kommt	-3463
▁Suppe	-3464
▁danach	-3465
▁klingt	-3466
▁kosten	-3467
▁trinke	-3468
▁gewartet	-3469
mit	-3470
äck	-3471
▁kr	-3472
ause	-3473
läss	-3474
merz	-3475
▁Zum	-3476
auert	-3477
eufel	-3478
sache	-3479
▁Muse	-3480
▁Salz	-3481
setzen	-3482
brechen	-3483
▁Sänger	-3484
▁gehabt	-3485
▁getötet	-3486
▁Polizist	-3487
präch	-3488
▁Läch	-3489
▁Stud	-3490
▁Volk	-3491
▁bill	-3492
▁trank	-3493
▁Kennst	-3494
▁abgesch	-3495
▁Hochzeit	-3496
▁hingehen	-3497
▁getrunken	-3498
▁versprochen	-3499
asen	-3500
▁Sek	-3501
▁reg	-3502
▁Mama	-3503
▁Obst	-3504
▁lese	-3505
▁nötig	-3506
▁schul	-3507
▁Glauben	-3508
▁bewusst	-3509
▁kleines	-3510
▁schöner	-3511
▁scheinen	-3512
riv	-3513
uck	-3514
aben	-3515
band	-3516
▁Mik	-3517
▁ung	-3518
▁Marys	-3519
▁Jahres	-3520
▁Leuten	-3521
▁antwor	-3522
▁küsste	-3523
▁zuerst	-3524
bereitet	-3525
▁Mannschaft	-3526
ed	-3527
▁Fa	-3528
▁Ky	-3529
ktiv	-3530
▁Fel	-3531
▁Feind	-3532
▁minde	-3533
▁weiger	-3534
▁anderer	-3535
▁verlang	-3536
▁verbringen	-3537
ys	-3538
samm	-3539
▁Hol	-3540
▁Kap	-3541
▁Wen	-3542
▁jed	-3543
▁Bein	-3544
▁zuvor	-3545
▁Schach	-3546
▁aufgew	-3547
▁mindestens	-3548
seit	-3549
utzt	-3550
▁kor	-3551
platz	-3552
▁auss	-3553
▁pers	-3554
▁Geist	-3555
▁Pizza	-3556
bleiben	-3557
▁Lösung	-3558
▁eifers	-3559
▁spiele	-3560
▁Regierung	-3561
▁Verhalten	-3562
▁Gesellschaft	-3563
▁Entschuldigung	-3564
ian	-3565
ork	-3566
▁Lö	-3567
gnor	-3568
werk	-3569
rifft	-3570
ängst	-3571
▁Näch	-3572
▁Währ	-3573
▁stär	-3574
annten	-3575
▁Waren	-3576
▁führen	-3577
▁England	-3578
▁welcher	-3579
▁Lehrerin	-3580
▁gestellt	-3581
▁Millionen	-3582
▁Augenblick	-3583
▁Schwestern	-3584
▁irgendetwas	-3585
▁verschieden	-3586
spr	-3587
▁tö	-3588
ären	-3589
▁Bed	-3590
ierst	-3591
▁Paar	-3592
▁Wohn	-3593
▁dran	-3594
weisen	-3595
▁Tokio	-3596
▁stimm	-3597
▁Teufel	-3598
▁führte	-3599
▁schwarz	-3600
▁zuhause	-3601
▁Tut	-3602
unfall	-3603
▁rufen	-3604
stecken	-3605
▁Denkst	-3606
▁Monate	-3607
▁hältst	-3608
▁rauchen	-3609
▁schuldig	-3610
▁Nachrichten	-3611
▁beeindruckt	-3612
▁anf	-3613
▁Kühl	-3614
▁unge	-3615
▁Armen	-3616
▁Witze	-3617
▁übrig	-3618
▁Erkält	-3619
▁Regeln	-3620
▁erfolg	-3621
▁sollst	-3622
igkeiten	-3623
▁gleiche	-3624
▁Planeten	-3625
▁Rechnung	-3626
▁Sprechen	-3627
▁richtige	-3628
▁intelligen	-3629
äne	-3630
▁Ak	-3631
▁De	-3632
▁gl	-3633
▁Gra	-3634
▁tro	-3635
asste	-3636
hlich	-3637
▁unten	-3638
▁Bilder	-3639
▁persön	-3640
▁Adresse	-3641
verstanden	-3642
▁vergangen	-3643
▁Bef	-3644
▁Wol	-3645
espekt	-3646
▁Warte	-3647
▁hängt	-3648
▁trotz	-3649
reichen	-3650
▁Herzen	-3651
▁heißen	-3652
▁Kartoff	-3653
▁Weihnachts	-3654
▁Gä	-3655
▁Dam	-3656
▁Häl	-3657
uchst	-3658
▁Sturm	-3659
▁zerst	-3660
▁gelang	-3661
▁kennst	-3662
▁Schrift	-3663
▁dreimal	-3664
▁Regenschirm	-3665
▁eifersüchtig	-3666
▁c	-3667
ure	-3668
▁Get	-3669
▁Nie	-3670
rüben	-3671
▁rufe	-3672
▁alter	-3673
spieler	-3674
▁Geschw	-3675
▁jedoch	-3676
▁schönen	-3677
▁eingesch	-3678
▁verändert	-3679
▁überzeugt	-3680
heim	-3681
obil	-3682
vert	-3683
recher	-3684
▁Ohren	-3685
▁kompl	-3686
peratur	-3687
ziehung	-3688
▁Nehmen	-3689
▁aufger	-3690
▁beliebt	-3691
▁Internet	-3692
▁Erkältung	-3693
▁Präsident	-3694
▁verärgert	-3695
▁Medikament	-3696
fre	-3697
▁Et	-3698
▁Lü	-3699
lebt	-3700
uren	-3701
▁Grö	-3702
elche	-3703
▁Auch	-3704
öffnet	-3705
▁davor	-3706
▁Früher	-3707
▁Sterne	-3708
▁mensch	-3709
▁Frieden	-3710
▁Lächeln	-3711
▁verbracht	-3712
▁mitgebracht	-3713
oph	-3714
▁30	-3715
▁Fü	-3716
ecke	-3717
▁Grün	-3718
▁drüben	-3719
▁Monaten	-3720
▁Zweifel	-3721
▁erhalten	-3722
▁lächelte	-3723
▁sprichst	-3724
▁unschuldig	-3725
▁vollkommen	-3726
rik	-3727
wir	-3728
orie	-3729
ünft	-3730
▁erm	-3731
inken	-3732
seite	-3733
richtet	-3734
▁Bürger	-3735
▁wenige	-3736
schließen	-3737
err	-3738
▁Arme	-3739
▁Bring	-3740
▁Bleist	-3741
▁Briefe	-3742
▁Während	-3743
▁versuche	-3744
▁beschlossen	-3745
▁unterscheiden	-3746
oo	-3747
aun	-3748
igte	-3749
stüt	-3750
▁dest	-3751
eichen	-3752
▁suche	-3753
richten	-3754
▁Fische	-3755
▁Gegend	-3756
▁Museum	-3757
▁langen	-3758
▁verurs	-3759
▁berühmt	-3760
▁gewählt	-3761
▁schwier	-3762
ied	-3763
▁grü	-3764
▁ums	-3765
▁Cous	-3766
passen	-3767
▁Eines	-3768
▁solchen	-3769
▁verraten	-3770
▁Vergangen	-3771
▁schließen	-3772
▁wiedersehen	-3773
man	-3774
zin	-3775
geht	-3776
gner	-3777
öpft	-3778
▁Zus	-3779
altet	-3780
scher	-3781
▁Golf	-3782
▁Sieh	-3783
schrei	-3784
▁Beine	-3785
▁Keine	-3786
▁Sprich	-3787
▁Medizin	-3788
▁bekommt	-3789
▁gefangen	-3790
▁Interesse	-3791
▁gemeinsam	-3792
tritt	-3793
▁Vier	-3794
▁Wird	-3795
▁Super	-3796
▁Wirst	-3797
▁desto	-3798
▁Könnte	-3799
▁waschen	-3800
▁Künstler	-3801
▁Erklärung	-3802
▁japanische	-3803
Wie	-3804
sol	-3805
öpf	-3806
inks	-3807
▁Hin	-3808
▁mer	-3809
ischt	-3810
markt	-3811
▁herr	-3812
▁Laune	-3813
höflich	-3814
▁lautet	-3815
▁täglich	-3816
▁Wirklich	-3817
▁bestehen	-3818
▁Übersetzung	-3819
▁irgendwelche	-3820
Ja	-3821
fst	-3822
uchs	-3823
sagen	-3824
▁Dame	-3825
▁Jane	-3826
achtel	-3827
bieren	-3828
▁Bäume	-3829
▁angel	-3830
▁Lernen	-3831
▁suchte	-3832
▁Einzige	-3833
▁erinnert	-3834
▁tr	-3835
anzt	-3836
arzt	-3837
igar	-3838
iker	-3839
älte	-3840
▁Zie	-3841
▁erh	-3842
▁Lang	-3843
▁Vort	-3844
▁erwä	-3845
▁eigene	-3846
▁fehlen	-3847
▁müsste	-3848
▁wussten	-3849
▁einkaufen	-3850
▁übersetzt	-3851
trag	-3852
▁Rot	-3853
eitag	-3854
▁Dann	-3855
▁grau	-3856
▁vorh	-3857
eitung	-3858
▁Sorge	-3859
▁Bestes	-3860
▁häufig	-3861
scheinend	-3862
▁Kühlschrank	-3863
▁tatsächlich	-3864
opp	-3865
geld	-3866
üsse	-3867
▁Tor	-3868
▁kur	-3869
▁par	-3870
alter	-3871
ölker	-3872
▁Bill	-3873
▁Form	-3874
▁Habe	-3875
▁heut	-3876
▁Fremd	-3877
▁Zigar	-3878
▁ignor	-3879
▁Führer	-3880
▁Nummer	-3881
▁Treppe	-3882
▁Vaters	-3883
▁geschn	-3884
▁liebte	-3885
▁reisen	-3886
▁Ansicht	-3887
▁Kleider	-3888
▁Prozent	-3889
▁perfekt	-3890
▁gehalten	-3891
▁geändert	-3892
len	-3893
elbe	-3894
▁Zeu	-3895
▁ann	-3896
▁Kraw	-3897
▁Käse	-3898
▁bein	-3899
▁faul	-3900
▁zuzu	-3901
selben	-3902
▁Pause	-3903
▁Wieso	-3904
▁holen	-3905
▁näher	-3906
▁gefiel	-3907
▁retten	-3908
▁weinte	-3909
▁Überras	-3910
▁versprach	-3911
wärt	-3912
ßend	-3913
stete	-3914
▁Jedes	-3915
▁fängt	-3916
echseln	-3917
gemacht	-3918
▁Schwar	-3919
▁mochte	-3920
▁gelogen	-3921
▁Spanisch	-3922
gewö	-3923
▁eil	-3924
▁höch	-3925
riffen	-3926
▁Stell	-3927
▁neuer	-3928
▁Wieder	-3929
▁Mitglie	-3930
▁Würdest	-3931
▁morgens	-3932
▁Verbrechen	-3933
do	-3934
stra	-3935
▁nüt	-3936
azier	-3937
▁amüs	-3938
▁miss	-3939
iziert	-3940
▁Verst	-3941
▁euren	-3942
istisch	-3943
▁danken	-3944
▁gewöhnt	-3945
▁ähnlich	-3946
▁verboten	-3947
▁verwirrt	-3948
▁versteckt	-3949
▁normalerweise	-3950
ual	-3951
▁Kar	-3952
gelte	-3953
▁nein	-3954
leiche	-3955
wortet	-3956
▁Termin	-3957
▁Wunder	-3958
▁Schachtel	-3959
▁erschöpft	-3960
▁Schokolade	-3961
▁umgebracht	-3962
ling	-3963
urst	-3964
▁mel	-3965
rogen	-3966
schlä	-3967
▁Klima	-3968
▁müsse	-3969
waschen	-3970
▁Bedeut	-3971
▁Karten	-3972
▁liebst	-3973
▁eigenes	-3974
▁gehören	-3975
▁geliebt	-3976
▁gezogen	-3977
▁Gefallen	-3978
▁Gespräch	-3979
▁Soldaten	-3980
▁beschloss	-3981
▁Vergangenheit	-3982
spl	-3983
ätz	-3984
üte	-3985
▁Sa	-3986
gern	-3987
wert	-3988
▁Bar	-3989
▁not	-3990
nisse	-3991
stron	-3992
äusch	-3993
▁Hals	-3994
▁Prof	-3995
liegen	-3996
▁Anzug	-3997
▁Regel	-3998
▁übert	-3999
▁Hälfte	-4000
▁fangen	-4001
▁stellt	-4002
▁Projekt	-4003
▁größten	-4004
▁Maschine	-4005
▁liebsten	-4006
unterricht	-4007
far	-4008
ite	-4009
ölf	-4010
▁Gar	-4011
▁erl	-4012
▁unw	-4013
wasser	-4014
▁Stock	-4015
▁lügen	-4016
▁erlaubt	-4017
glücklich	-4018
▁arbeitete	-4019
▁Möglichkeit	-4020
▁Kr	-4021
wand	-4022
▁Dan	-4023
eiter	-4024
▁Bade	-4025
▁Boot	-4026
führen	-4027
irgend	-4028
wohner	-4029
▁Beste	-4030
▁Handt	-4031
▁Geduld	-4032
▁Herbst	-4033
▁Lachen	-4034
▁fleißig	-4035
▁genannt	-4036
▁Krawatte	-4037
▁Schreiben	-4038
▁Schönheit	-4039
▁unhöflich	-4040
▁Überrasch	-4041
▁geschlagen	-4042
wie	-4043
▁We	-4044
ktor	-4045
▁Dok	-4046
▁Gep	-4047
▁Nun	-4048
ingst	-4049
▁hell	-4050
reisen	-4051
▁Würden	-4052
▁dankbar	-4053
▁fressen	-4054
▁behalten	-4055
▁geöffnet	-4056
▁verbrach	-4057
▁irgendwas	-4058
▁Muttersprache	-4059
üh	-4060
ült	-4061
▁ak	-4062
▁he	-4063
enne	-4064
üllt	-4065
▁tre	-4066
ehrte	-4067
mögen	-4068
▁Vide	-4069
▁lehn	-4070
völker	-4071
▁ganzes	-4072
▁sobald	-4073
▁Welchen	-4074
▁besitzt	-4075
▁aufhalten	-4076
▁geblieben	-4077
gal	-4078
▁Hu	-4079
aufe	-4080
▁ähn	-4081
elten	-4082
ieber	-4083
stren	-4084
äuser	-4085
▁beru	-4086
▁bereu	-4087
▁gebaut	-4088
▁hättet	-4089
▁lachte	-4090
▁sprang	-4091
▁Freitag	-4092
▁ertragen	-4093
▁Chinesisch	-4094
haf	-4095
üre	-4096
▁ew	-4097
blik	-4098
sein	-4099
anger	-4100
ängen	-4101
▁Last	-4102
▁Sagt	-4103
▁Verf	-4104
▁rote	-4105
ichtet	-4106
▁Hinter	-4107
▁Gefällt	-4108
▁Nachdem	-4109
▁Schmerz	-4110
▁höflich	-4111
▁stärker	-4112
▁Jahrhundert	-4113
▁einverstanden	-4114
bb	-4115
ßte	-4116
gung	-4117
iete	-4118
▁Fest	-4119
▁Gute	-4120
▁Loch	-4121
▁Miss	-4122
▁meint	-4123
schnitt	-4124
▁direkt	-4125
▁Verkehrs	-4126
▁erreicht	-4127
▁schreibe	-4128
▁behandelt	-4129
ahe	-4130
dit	-4131
ile	-4132
▁Fä	-4133
▁Bro	-4134
▁Gut	-4135
▁Tro	-4136
▁ehe	-4137
ograf	-4138
▁Test	-4139
▁Halte	-4140
prechen	-4141
ständig	-4142
zwungen	-4143
▁Geträn	-4144
▁Steuer	-4145
▁freuen	-4146
▁unters	-4147
▁entlang	-4148
▁stimmte	-4149
▁vertraut	-4150
▁großartig	-4151
▁verantwort	-4152
sf	-4153
kon	-4154
oßen	-4155
▁20.	-4156
antas	-4157
äufer	-4158
▁Halt	-4159
▁Muss	-4160
▁Text	-4161
▁stür	-4162
▁sogar	-4163
▁damals	-4164
▁passen	-4165
▁Spiegel	-4166
▁umgehen	-4167
▁welches	-4168
▁wünsche	-4169
▁Schulter	-4170
▁irgendwie	-4171
▁Wirklichkeit	-4172
▁möglicherweise	-4173
ago	-4174
▁el	-4175
▁Ton	-4176
abrik	-4177
bruch	-4178
schön	-4179
äsche	-4180
▁disk	-4181
▁klin	-4182
abhäng	-4183
gierig	-4184
▁Eigen	-4185
▁Gäste	-4186
▁Rolle	-4187
▁singt	-4188
▁stren	-4189
▁Gepäck	-4190
▁Schlag	-4191
▁dauert	-4192
▁wählen	-4193
zukommen	-4194
▁beginnt	-4195
ji	-4196
ark	-4197
ehlen	-4198
ettet	-4199
örder	-4200
▁2.30	-4201
▁Mode	-4202
▁Priv	-4203
▁Wert	-4204
schule	-4205
üglich	-4206
▁Pferde	-4207
▁Teller	-4208
▁ausges	-4209
▁erster	-4210
▁nachts	-4211
▁sowohl	-4212
▁bemerkt	-4213
▁Bleistift	-4214
▁angelogen	-4215
▁bestanden	-4216
▁beigebracht	-4217
▁Wissenschaftler	-4218
to	-4219
ckte	-4220
unsch	-4221
▁Stau	-4222
▁roten	-4223
▁schlä	-4224
▁Zauber	-4225
▁betrat	-4226
▁reicht	-4227
▁Japaner	-4228
▁unrecht	-4229
▁ankommen	-4230
▁überzeugen	-4231
▁aufgewachsen	-4232
Wo	-4233
bus	-4234
ymp	-4235
äche	-4236
▁Ris	-4237
eißen	-4238
▁Dieb	-4239
▁Nerv	-4240
isiert	-4241
ologie	-4242
▁Einer	-4243
▁Kennt	-4244
▁Zwill	-4245
▁nennt	-4246
▁Fahren	-4247
▁geraten	-4248
▁geschah	-4249
▁kümmert	-4250
▁ausgehen	-4251
▁Schmerzen	-4252
oto	-4253
ilde	-4254
lauf	-4255
▁Uns	-4256
▁hob	-4257
eserv	-4258
falls	-4259
fluss	-4260
führt	-4261
reden	-4262
▁Char	-4263
▁Fort	-4264
▁Koch	-4265
▁Port	-4266
ordert	-4267
▁Marie	-4268
▁Pläne	-4269
▁dauer	-4270
▁indem	-4271
spielen	-4272
▁ansehen	-4273
▁äußerst	-4274
▁Erdbeben	-4275
▁fließend	-4276
▁Universum	-4277
▁beibringen	-4278
amp	-4279
urg	-4280
anne	-4281
wegs	-4282
▁Frag	-4283
▁Haut	-4284
▁Papa	-4285
führer	-4286
system	-4287
▁angen	-4288
▁hinge	-4289
▁zwölf	-4290
▁schade	-4291
ständnis	-4292
zeichnet	-4293
▁Spazier	-4294
▁beinahe	-4295
▁nirgend	-4296
▁vermisst	-4297
▁Bedeutung	-4298
▁antworten	-4299
ath	-4300
▁US	-4301
agte	-4302
änge	-4303
▁Bem	-4304
▁Mel	-4305
akter	-4306
▁Mehr	-4307
▁wähl	-4308
leidet	-4309
uchten	-4310
zessin	-4311
▁Knopf	-4312
▁Reihe	-4313
▁total	-4314
▁Astron	-4315
▁Christ	-4316
▁zahlen	-4317
▁zählen	-4318
schlagen	-4319
▁erklärt	-4320
zubringen	-4321
▁Geschäfts	-4322
▁verabschie	-4323
▁schrecklich	-4324
rain	-4325
▁pol	-4326
ehren	-4327
assung	-4328
wissen	-4329
▁Ideen	-4330
▁Immer	-4331
▁Wegen	-4332
▁jener	-4333
▁links	-4334
▁saßen	-4335
▁Besser	-4336
▁Reisen	-4337
▁fühlen	-4338
▁Schloss	-4339
▁Theorie	-4340
▁beeilen	-4341
▁machten	-4342
▁Arbeiter	-4343
▁falschen	-4344
ilt	-4345
▁15	-4346
▁Hei	-4347
raben	-4348
▁rede	-4349
▁samm	-4350
ienten	-4351
▁Mauer	-4352
▁worum	-4353
▁zieht	-4354
▁Ärger	-4355
▁Seiten	-4356
▁meinst	-4357
▁Million	-4358
▁Vertrag	-4359
▁Wichtig	-4360
▁erfreut	-4361
▁Freiheit	-4362
▁beginnen	-4363
▁zurückge	-4364
▁neugierig	-4365
merksamkeit	-4366
▁schlechten	-4367
▁entschlossen	-4368
▁Ad	-4369
▁Gu	-4370
flug	-4371
ibst	-4372
zial	-4373
▁Kauf	-4374
▁Metho	-4375
▁Weile	-4376
▁danke	-4377
▁deren	-4378
▁stehe	-4379
antasie	-4380
zeichen	-4381
▁Kanada	-4382
▁ebenso	-4383
▁nachge	-4384
▁schrie	-4385
▁handelt	-4386
▁mussten	-4387
▁weigerte	-4388
▁frühstück	-4389
▁gezwungen	-4390
▁vermissen	-4391
▁Prinzessin	-4392
▁Temperatur	-4393
▁9	-4394
sal	-4395
▁Oh	-4396
▁mo	-4397
eier	-4398
inne	-4399
▁mut	-4400
halte	-4401
igung	-4402
teten	-4403
ährst	-4404
▁Noch	-4405
▁köst	-4406
gesagt	-4407
▁Außer	-4408
▁Kekse	-4409
▁Punkt	-4410
▁erkäl	-4411
▁helfe	-4412
▁lasse	-4413
▁leise	-4414
ässlich	-4415
▁Lieder	-4416
▁Wolken	-4417
▁akzept	-4418
▁hassen	-4419
▁bezeich	-4420
▁unglaub	-4421
▁Zusammen	-4422
▁aufgeben	-4423
▁erfolgreich	-4424
▁Freundschaft	-4425
ku	-4426
ive	-4427
fern	-4428
itel	-4429
jähr	-4430
▁Wem	-4431
▁Wus	-4432
boden	-4433
▁Mahl	-4434
▁gere	-4435
▁krie	-4436
▁lass	-4437
gnügen	-4438
llover	-4439
▁Jacke	-4440
▁Gehalt	-4441
▁Weinen	-4442
▁jungen	-4443
▁Schritt	-4444
▁bewegen	-4445
▁solange	-4446
▁weitere	-4447
▁erkennen	-4448
▁schicken	-4449
▁schlimmer	-4450
▁Aufmerksamkeit	-4451
ow	-4452
ool	-4453
ruf	-4454
▁Sy	-4455
▁gr	-4456
▁rä	-4457
▁Ehe	-4458
▁Fein	-4459
▁chin	-4460
endete	-4461
ometer	-4462
schuhe	-4463
schung	-4464
würdig	-4465
▁Mobil	-4466
▁Produ	-4467
▁Staat	-4468
▁daher	-4469
▁Dunkel	-4470
▁deines	-4471
▁wärest	-4472
arbeiten	-4473
▁streiten	-4474
▁natürlich	-4475
ial	-4476
üss	-4477
beln	-4478
eide	-4479
hand	-4480
▁App	-4481
immst	-4482
stück	-4483
▁Lüge	-4484
▁Tour	-4485
rückte	-4486
▁Durst	-4487
▁Fotos	-4488
▁Würde	-4489
▁blind	-4490
stellte	-4491
zugehen	-4492
▁Minute	-4493
▁Gericht	-4494
▁bekomme	-4495
▁steckte	-4496
▁Richtung	-4497
▁besuchte	-4498
▁entdeckt	-4499
▁leichter	-4500
▁schätzen	-4501
▁vergeben	-4502
gewöhnlich	-4503
▁Schwimmen	-4504
▁verwendet	-4505
▁verantwortlich	-4506
Tom	-4507
War	-4508
amt	-4509
▁Pr	-4510
bare	-4511
baum	-4512
frei	-4513
▁Elef	-4514
freund	-4515
▁Eisen	-4516
▁Klein	-4517
▁Markt	-4518
▁Stift	-4519
▁Tante	-4520
schauen	-4521
steller	-4522
▁furcht	-4523
bekommen	-4524
ließlich	-4525
▁Trinken	-4526
▁Welcher	-4527
▁bezweif	-4528
▁Geräusch	-4529
▁Kindheit	-4530
▁Personen	-4531
▁begegnet	-4532
▁verdienen	-4533
▁zustimmen	-4534
▁vorbereitet	-4535
▁Führerschein	-4536
irr	-4537
lex	-4538
prü	-4539
holt	-4540
welt	-4541
▁200	-4542
▁Ban	-4543
▁Jul	-4544
rolle	-4545
stein	-4546
▁Ehem	-4547
▁Trau	-4548
▁hoff	-4549
▁uner	-4550
werden	-4551
▁Beruf	-4552
▁Filme	-4553
▁Waffe	-4554
▁Irgend	-4555
▁Privat	-4556
▁sonder	-4557
▁Theater	-4558
▁Zeichen	-4559
▁angesch	-4560
schwester	-4561
▁gebacken	-4562
▁schwimmt	-4563
▁trotzdem	-4564
▁Plötzlich	-4565
▁wunderschön	-4566
...	-4567
▁ta	-4568
anen	-4569
jahr	-4570
wein	-4571
äumt	-4572
▁Hor	-4573
▁Jim	-4574
▁Frem	-4575
▁Kerl	-4576
▁Phil	-4577
▁Autor	-4578
▁Gehst	-4579
▁bauen	-4580
▁fühlt	-4581
▁vorge	-4582
telefon	-4583
▁Preise	-4584
▁Streit	-4585
▁Spaziergang	-4586
▁Überraschung	-4587
ets	-4588
met	-4589
stu	-4590
zum	-4591
▁Tö	-4592
rekt	-4593
stür	-4594
▁Bad	-4595
▁Dat	-4596
▁Lin	-4597
▁Nar	-4598
chtes	-4599
uelle	-4600
▁Grie	-4601
▁Wäre	-4602
uldige	-4603
zutage	-4604
▁Blume	-4605
▁Exper	-4606
▁Liter	-4607
▁Meter	-4608
▁Sehen	-4609
▁abend	-4610
▁Bauern	-4611
▁Berlin	-4612
▁Butter	-4613
▁Gruppe	-4614
▁Siehst	-4615
▁einsch	-4616
▁lauter	-4617
▁Armband	-4618
▁Gedicht	-4619
▁hattest	-4620
▁Pullover	-4621
▁erfunden	-4622
▁geschieht	-4623
▁Supermarkt	-4624
▁versteckte	-4625
▁anscheinend	-4626
▁Schlafzimmer	-4627
enz	-4628
rim	-4629
▁Is	-4630
eidet	-4631
einst	-4632
mäßig	-4633
ßlich	-4634
üssen	-4635
▁täte	-4636
ichter	-4637
▁Guten	-4638
▁Kampf	-4639
▁Wisst	-4640
ächtnis	-4641
▁Landes	-4642
▁Lügner	-4643
▁Nerven	-4644
▁Zufall	-4645
▁ausger	-4646
▁bleibe	-4647
▁schwei	-4648
▁Gleiche	-4649
▁einigen	-4650
▁Pflanzen	-4651
▁Zahnarzt	-4652
▁erkannte	-4653
▁gerettet	-4654
▁hinunter	-4655
▁Mobiltelefon	-4656
▁französische	-4657
neut	-4658
sych	-4659
▁100	-4660
bewer	-4661
egnet	-4662
▁Denk	-4663
▁Hobb	-4664
▁Nord	-4665
▁gilt	-4666
▁prakt	-4667
▁ziehe	-4668
▁Häuser	-4669
▁Letzte	-4670
▁Socken	-4671
▁lehnte	-4672
▁schaut	-4673
▁selber	-4674
▁Königin	-4675
▁zweiten	-4676
▁heiratete	-4677
▁schwanger	-4678
▁antwortete	-4679
▁nachdenken	-4680
▁Kopfschmerzen	-4681
sb	-4682
isa	-4683
rab	-4684
▁se	-4685
Mail	-4686
umte	-4687
▁Tun	-4688
krieg	-4689
utzig	-4690
▁Hose	-4691
▁Kuss	-4692
▁Müll	-4693
▁Tode	-4694
▁krit	-4695
▁lügt	-4696
▁ries	-4697
utlich	-4698
▁Genie	-4699
▁Handy	-4700
▁Hügel	-4701
▁Relig	-4702
▁Wollt	-4703
▁legen	-4704
▁schla	-4705
achtung	-4706
mählich	-4707
▁Doktor	-4708
▁Kredit	-4709
▁diskut	-4710
maschine	-4711
▁Schwimm	-4712
▁dauerte	-4713
▁respekt	-4714
völkerung	-4715
▁Briefmar	-4716
▁Tatsache	-4717
▁aussieht	-4718
▁schneien	-4719
▁Politiker	-4720
".	-4721
▁Lo	-4722
ehte	-4723
▁Bew	-4724
▁Mün	-4725
▁Per	-4726
▁Pil	-4727
Warum	-4728
samen	-4729
▁sorg	-4730
sachen	-4731
▁Bleib	-4732
▁Wasch	-4733
laubnis	-4734
▁Einzel	-4735
▁Händen	-4736
▁Schick	-4737
▁Zeiten	-4738
▁lächeln	-4739
▁Beziehung	-4740
▁Vergnügen	-4741
▁englische	-4742
▁Muttersprach	-4743
▁interessante	-4744
▁zurückkommen	-4745
ämt	-4746
ehle	-4747
▁Sau	-4748
laubt	-4749
zeigt	-4750
▁Gebt	-4751
▁Einen	-4752
▁Rosen	-4753
▁Scher	-4754
▁Seele	-4755
▁wisst	-4756
▁Fahrer	-4757
▁Kunden	-4758
▁Träume	-4759
▁erneut	-4760
▁schlau	-4761
sammlung	-4762
▁Schreib	-4763
▁reichen	-4764
▁sagtest	-4765
ternehmen	-4766
▁Eintritt	-4767
▁einzigen	-4768
▁verspäten	-4769
▁Dunkelheit	-4770
▁abgenommen	-4771
▁absichtlich	-4772
ahrscheinlich	-4773
ebo	-4774
ole	-4775
ret	-4776
▁Id	-4777
▁Dir	-4778
▁Fast	-4779
▁Krie	-4780
▁Toil	-4781
▁Zent	-4782
▁kont	-4783
▁riet	-4784
reiten	-4785
▁Trink	-4786
▁angeb	-4787
▁exist	-4788
▁sauer	-4789
▁schüt	-4790
meister	-4791
▁Gewalt	-4792
▁lernte	-4793
aussehen	-4794
▁Endlich	-4795
▁Gewicht	-4796
▁Hättest	-4797
▁Samstag	-4798
▁Spielen	-4799
▁zurecht	-4800
schlüssel	-4801
▁repariert	-4802
▁Gedächtnis	-4803
▁Wirtschaft	-4804
▁Schauspieler	-4805
▁gä	-4806
ackt	-4807
asil	-4808
ehnt	-4809
hang	-4810
kopf	-4811
onna	-4812
▁For	-4813
▁Kol	-4814
eisen	-4815
ppich	-4816
ätter	-4817
▁2013	-4818
▁Kaum	-4819
▁hilf	-4820
digung	-4821
gleich	-4822
kuchen	-4823
nungen	-4824
wenden	-4825
▁Milli	-4826
▁Seien	-4827
▁Suche	-4828
▁gesam	-4829
echselt	-4830
▁Denken	-4831
▁leider	-4832
▁Studium	-4833
▁regnete	-4834
▁steigen	-4835
▁tausend	-4836
▁aufgrund	-4837
▁fünfzehn	-4838
▁Erlaubnis	-4839
▁schneiden	-4840
▁Armbanduhr	-4841
▁vermutlich	-4842
▁unglücklich	-4843
▁Entschuldigen	-4844
üm	-4845
Die	-4846
hle	-4847
kay	-4848
obt	-4849
ose	-4850
▁we	-4851
ammt	-4852
saka	-4853
▁Ach	-4854
▁Ind	-4855
▁erb	-4856
legte	-4857
nahmen	-4858
▁absol	-4859
▁freut	-4860
▁übern	-4861
▁Fabrik	-4862
▁Fieber	-4863
▁stimme	-4864
▁zweite	-4865
ettbewer	-4866
▁Ehemann	-4867
▁Findest	-4868
▁Schlimm	-4869
▁begonnen	-4870
▁erledigt	-4871
▁geglaubt	-4872
▁aufgeregt	-4873
▁gebraucht	-4874
▁gewaschen	-4875
▁notwendig	-4876
ky	-4877
hir	-4878
cebo	-4879
usch	-4880
▁ras	-4881
macht	-4882
▁Ausl	-4883
▁Egal	-4884
▁Fach	-4885
▁Gras	-4886
▁Verd	-4887
▁blöd	-4888
▁fürs	-4889
▁sech	-4890
▁Neues	-4891
▁zeigt	-4892
ahnsinn	-4893
leichen	-4894
▁Glaubt	-4895
▁Nieder	-4896
▁Ländern	-4897
▁drinnen	-4898
▁geredet	-4899
▁vorüber	-4900
▁beweisen	-4901
▁deswegen	-4902
▁schenkte	-4903
▁Antworten	-4904
▁Patienten	-4905
▁Vertrauen	-4906
▁schmutzig	-4907
▁umbringen	-4908
▁unterrichtet	-4909
one	-4910
äst	-4911
fter	-4912
plan	-4913
spro	-4914
ühen	-4915
▁Bot	-4916
▁Sil	-4917
▁Sol	-4918
fahrt	-4919
iment	-4920
ritte	-4921
▁Gast	-4922
▁ewig	-4923
brille	-4924
inchen	-4925
reiche	-4926
wesend	-4927
▁Beweg	-4928
▁Teich	-4929
▁Trotz	-4930
▁halbe	-4931
▁kaufe	-4932
▁Schild	-4933
▁Schutz	-4934
▁bringe	-4935
▁ergibt	-4936
▁gelebt	-4937
▁zumute	-4938
wohnheit	-4939
▁Kontakt	-4940
▁gezeigt	-4941
▁schlimm	-4942
schreiben	-4943
▁nützlich	-4944
▁wolltest	-4945
▁Kartoffeln	-4946
▁aufzustehen	-4947
▁gutaussehen	-4948
▁nachgedacht	-4949
uß	-4950
mack	-4951
omat	-4952
omit	-4953
▁Zoo	-4954
▁leu	-4955
▁log	-4956
ehnen	-4957
kehrt	-4958
▁Bask	-4959
▁Inse	-4960
▁sang	-4961
treten	-4962
zeiten	-4963
▁Mathe	-4964
▁blaue	-4965
▁einst	-4966
rauchen	-4967
▁Heimat	-4968
▁Lippen	-4969
▁gelöst	-4970
▁scharf	-4971
▁Gerücht	-4972
▁Methode	-4973
▁bestand	-4974
▁erwarte	-4975
▁vertrau	-4976
▁Tagebuch	-4977
▁bestellt	-4978
▁erklärte	-4979
▁geregnet	-4980
▁verständ	-4981
▁Kaninchen	-4982
▁langsamer	-4983
▁Verbindung	-4984
▁verbrachte	-4985
▁unglaublich	-4986
▁eingeschlafen	-4987
▁interessieren	-4988
▁ra	-4989
ösen	-4990
▁Hon	-4991
▁dün	-4992
biert	-4993
erien	-4994
▁Lehr	-4995
▁Male	-4996
▁Mars	-4997
▁Zaun	-4998
▁Hitze	-4999
▁beträ	-5000
▁angeln	-5001
▁obwohl	-5002
▁Energie	-5003
▁hielten	-5004
▁rechten	-5005
zustellen	-5006
▁annehmen	-5007
▁geliehen	-5008
▁verliebte	-5009
▁schließlich	-5010
Du	-5011
ime	-5012
use	-5013
ven	-5014
▁Nä	-5015
▁Pe	-5016
andt	-5017
umor	-5018
▁Ihm	-5019
▁att	-5020
▁fot	-5021
linge	-5022
onner	-5023
reibt	-5024
▁Bart	-5025
▁Erst	-5026
▁Mark	-5027
▁Städ	-5028
▁dopp	-5029
▁merk	-5030
cebook	-5031
lässig	-5032
▁Folge	-5033
▁Krebs	-5034
▁Strom	-5035
▁hörst	-5036
▁Nation	-5037
▁geschw	-5038
▁verhaf	-5039
▁Teppich	-5040
▁entwick	-5041
▁telefon	-5042
▁verdien	-5043
▁aussehen	-5044
▁köstlich	-5045
▁verlangt	-5046
ordentlich	-5047
ram	-5048
äger	-5049
▁Dür	-5050
▁Krä	-5051
▁kür	-5052
komme	-5053
▁Acht	-5054
▁Werk	-5055
▁satt	-5056
▁unzu	-5057
kehren	-5058
werfen	-5059
▁Jungs	-5060
▁Regal	-5061
▁anzur	-5062
▁begrü	-5063
▁Buches	-5064
▁Leider	-5065
▁Wunsch	-5066
▁Wäsche	-5067
▁chines	-5068
▁Orangen	-5069
▁enthält	-5070
▁Dokument	-5071
▁beschwer	-5072
▁erwischt	-5073
▁gekostet	-5074
▁schickte	-5075
▁sprachen	-5076
▁begleiten	-5077
▁Geschichten	-5078
▁Neuigkeiten	-5079
▁intelligent	-5080
▁Klassenzimmer	-5081
urf	-5082
▁fä	-5083
hren	-5084
▁Jun	-5085
atsch	-5086
durch	-5087
stest	-5088
wärts	-5089
▁Bord	-5090
bücher	-5091
ladung	-5092
richen	-5093
spruch	-5094
▁Kraft	-5095
▁abgel	-5096
▁altes	-5097
▁töten	-5098
drücken	-5099
▁Liebes	-5100
▁Vielen	-5101
▁hinten	-5102
▁lernst	-5103
▁Fortsch	-5104
▁Pflicht	-5105
▁nochmal	-5106
▁geduldig	-5107
▁zerstört	-5108
▁Unterstüt	-5109
▁irgendein	-5110
▁verwenden	-5111
▁aufgestanden	-5112
▁Muttersprachler	-5113
fin	-5114
hel	-5115
urr	-5116
öre	-5117
▁rü	-5118
mith	-5119
▁Sus	-5120
annen	-5121
essor	-5122
rauch	-5123
swert	-5124
▁Disk	-5125
▁Füße	-5126
▁Verk	-5127
▁mitt	-5128
indern	-5129
karten	-5130
ritten	-5131
▁gehor	-5132
▁höher	-5133
▁nackt	-5134
▁wovon	-5135
▁überw	-5136
▁Gehirn	-5137
▁Gleich	-5138
▁nahmen	-5139
▁starke	-5140
▁Komment	-5141
▁Verspät	-5142
▁Viertel	-5143
▁bessere	-5144
▁falsche	-5145
▁fünfzig	-5146
▁gesetzt	-5147
▁Richtige	-5148
▁Russland	-5149
▁Schatten	-5150
▁Verstand	-5151
▁erwachsen	-5152
▁mitnehmen	-5153
▁unterwegs	-5154
▁aufmerksam	-5155
▁ausgegangen	-5156
uem	-5157
äte	-5158
eißt	-5159
erne	-5160
fält	-5161
iver	-5162
brach	-5163
fälle	-5164
▁Laut	-5165
▁fall	-5166
becken	-5167
ferenz	-5168
▁Etwas	-5169
▁Größe	-5170
▁Kapit	-5171
▁Smith	-5172
▁eurer	-5173
▁kocht	-5174
▁verga	-5175
▁abends	-5176
▁beherr	-5177
▁fuhren	-5178
▁sorgen	-5179
▁voraus	-5180
▁Mittern	-5181
▁Schaden	-5182
▁wachsen	-5183
▁dahinter	-5184
▁spielten	-5185
▁vermisse	-5186
▁Abschluss	-5187
▁verletzen	-5188
▁Verantwort	-5189
▁Verspätung	-5190
▁entschuldig	-5191
▁wiederzusehen	-5192
▁Schauspielerin	-5193
ce	-5194
Sie	-5195
san	-5196
▁12	-5197
▁Po	-5198
ampe	-5199
arnt	-5200
ator	-5201
gnen	-5202
schm	-5203
wart	-5204
▁Hal	-5205
▁Tau	-5206
namen	-5207
okrat	-5208
teste	-5209
▁Kurz	-5210
▁Mich	-5211
▁wohn	-5212
echnet	-5213
▁inner	-5214
▁stets	-5215
▁zeich	-5216
andelte	-5217
▁Besitz	-5218
▁Brasil	-5219
▁Cousin	-5220
▁Worten	-5221
▁hinauf	-5222
▁mitten	-5223
▁netter	-5224
▁Spieler	-5225
▁gerufen	-5226
▁Facebook	-5227
▁Versuche	-5228
▁scheinst	-5229
▁schlagen	-5230
▁aufpassen	-5231
▁verhaftet	-5232
▁beschützen	-5233
▁persönlich	-5234
▁zurückgekommen	-5235
ise	-5236
mut	-5237
ring	-5238
ünde	-5239
▁Iss	-5240
▁Mär	-5241
▁Süd	-5242
besch	-5243
eucht	-5244
ieben	-5245
ildet	-5246
prech	-5247
volle	-5248
▁Beim	-5249
▁Ecke	-5250
▁Kult	-5251
▁Maus	-5252
▁Mike	-5253
▁Oper	-5254
▁Voll	-5255
chenkt	-5256
▁Schei	-5257
▁starr	-5258
▁bestät	-5259
▁rechts	-5260
▁bedeckt	-5261
▁komisch	-5262
▁stimmen	-5263
▁Besonder	-5264
▁Familien	-5265
▁Arbeitspl	-5266
▁passierte	-5267
▁auseinander	-5268
▁festgenommen	-5269
les	-5270
uar	-5271
urn	-5272
leid	-5273
nern	-5274
omen	-5275
roll	-5276
slos	-5277
ütze	-5278
▁Fle	-5279
▁Kal	-5280
ätsel	-5281
▁Chic	-5282
▁Früh	-5283
▁Sage	-5284
▁Setz	-5285
▁Vors	-5286
▁umge	-5287
essern	-5288
willig	-5289
▁Ander	-5290
▁Gener	-5291
▁Nebel	-5292
▁Reden	-5293
▁Türen	-5294
▁knapp	-5295
▁Kommst	-5296
▁kehrte	-5297
▁riecht	-5298
▁wäscht	-5299
▁erhielt	-5300
▁worüber	-5301
▁Schulden	-5302
▁ausgesch	-5303
▁begangen	-5304
▁Vergessen	-5305
▁entschied	-5306
▁gegenseit	-5307
▁überlegen	-5308
▁Unterstützung	-5309
▁amerikanischen	-5310
ons	-5311
reu	-5312
rop	-5313
▁Ol	-5314
▁Ve	-5315
anis	-5316
mord	-5317
▁Afr	-5318
▁Bin	-5319
▁Por	-5320
▁ech	-5321
▁irr	-5322
atein	-5323
baren	-5324
ilden	-5325
ipfel	-5326
ottes	-5327
weder	-5328
▁Ganz	-5329
▁Kell	-5330
▁Ring	-5331
▁Zeig	-5332
▁käme	-5333
▁nutz	-5334
▁tanz	-5335
blikum	-5336
immung	-5337
▁Mitte	-5338
▁solch	-5339
▁Ärzte	-5340
glichen	-5341
ünschen	-5342
▁Philos	-5343
▁Risiko	-5344
▁Wessen	-5345
▁schaff	-5346
▁Langsam	-5347
▁findest	-5348
▁schneit	-5349
▁Besprech	-5350
▁Mitglied	-5351
▁Religion	-5352
▁Sprichst	-5353
▁schönste	-5354
▁Erwachsen	-5355
▁Spielzeug	-5356
▁anzurufen	-5357
▁aufstehen	-5358
▁Polizisten	-5359
▁allmählich	-5360
▁aufgegeben	-5361
▁Mitternacht	-5362
▁hergestellt	-5363
▁Informationen	-5364
fil	-5365
ote	-5366
esch	-5367
oben	-5368
onen	-5369
ptim	-5370
▁Leg	-5371
▁gei	-5372
▁gib	-5373
▁Fuji	-5374
▁Grad	-5375
▁Heil	-5376
▁Umst	-5377
▁teur	-5378
etball	-5379
▁Hören	-5380
▁eilig	-5381
▁wärst	-5382
schläge	-5383
▁Feinde	-5384
▁Grunde	-5385
▁Kennen	-5386
▁hörten	-5387
▁keinem	-5388
▁langer	-5389
zulernen	-5390
▁Fernseh	-5391
▁höchste	-5392
▁kämpfen	-5393
▁unseres	-5394
▁Programm	-5395
▁Publikum	-5396
▁erkältet	-5397
▁gebissen	-5398
▁hässlich	-5399
▁Einladung	-5400
▁richtigen	-5401
▁verstehst	-5402
▁Basketball	-5403
▁beobachtet	-5404
▁gestrichen	-5405
▁verschwunden	-5406
ov	-5407
bew	-5408
esk	-5409
ull	-5410
elle	-5411
saft	-5412
▁Har	-5413
▁Tan	-5414
attet	-5415
aucht	-5416
onach	-5417
opfte	-5418
üllte	-5419
▁Anne	-5420
▁hieß	-5421
▁Elekt	-5422
▁Miete	-5423
▁Todes	-5424
▁ärger	-5425
ausende	-5426
▁Allgem	-5427
▁Donner	-5428
▁Hauses	-5429
▁arbeit	-5430
▁teilte	-5431
sprachen	-5432
▁Chicago	-5433
▁Erinner	-5434
▁beenden	-5435
▁deshalb	-5436
▁gewarnt	-5437
▁gewinnt	-5438
indigkeit	-5439
▁Liebling	-5440
▁bestraft	-5441
▁geschenkt	-5442
▁Präsidenten	-5443
▁Unternehmen	-5444
bä	-5445
hi	-5446
abe	-5447
▁Sö	-5448
▁är	-5449
abel	-5450
port	-5451
uden	-5452
wehr	-5453
ämen	-5454
▁Apr	-5455
▁Bek	-5456
▁Zit	-5457
achst	-5458
ffent	-5459
rucht	-5460
weile	-5461
üllen	-5462
▁Atem	-5463
▁Dort	-5464
▁Rock	-5465
▁Tanz	-5466
▁Zieh	-5467
▁hohe	-5468
zeihen	-5469
üttern	-5470
▁Bauch	-5471
▁Bären	-5472
▁Druck	-5473
▁Kälte	-5474
▁hohen	-5475
▁kauft	-5476
absicht	-5477
▁Länder	-5478
▁berühr	-5479
▁fassen	-5480
▁gewann	-5481
▁vergaß	-5482
▁wohnte	-5483
gefahren	-5484
▁Töchter	-5485
▁attrakt	-5486
▁sonntag	-5487
▁Gefangen	-5488
▁Vermögen	-5489
▁wichtige	-5490
▁Kilometer	-5491
▁klingelte	-5492
▁verbesser	-5493
▁wichtiger	-5494
▁angenommen	-5495
▁besprechen	-5496
▁verspreche	-5497
▁öffentlich	-5498
▁Geheimnisse	-5499
▁kennenzulernen	-5500
Es	-5501
av	-5502
emm	-5503
aust	-5504
ging	-5505
inkt	-5506
pfte	-5507
uell	-5508
äten	-5509
▁Ham	-5510
▁Los	-5511
▁mon	-5512
auten	-5513
euert	-5514
higen	-5515
lecht	-5516
stoff	-5517
ischte	-5518
▁Hobby	-5519
▁Neben	-5520
griffen	-5521
▁Ferien	-5522
▁Gottes	-5523
▁Sobald	-5524
▁Warten	-5525
lehrerin	-5526
▁Deshalb	-5527
▁Dichter	-5528
▁Könntet	-5529
▁handeln	-5530
▁schauen	-5531
▁vierzig	-5532
▁Freizeit	-5533
▁Schlange	-5534
▁anziehen	-5535
▁dreizehn	-5536
▁fotograf	-5537
▁sonntags	-5538
▁Elefanten	-5539
▁aufzuhören	-5540
▁teilnehmen	-5541
▁wenigstens	-5542
▁funktionieren	-5543
ens	-5544
brot	-5545
ehmt	-5546
erte	-5547
iten	-5548
länd	-5549
trem	-5550
▁000	-5551
▁Mor	-5552
▁bot	-5553
chtet	-5554
olgte	-5555
▁Bald	-5556
▁Gren	-5557
▁Hühn	-5558
▁Ofen	-5559
▁wart	-5560
erlich	-5561
ferien	-5562
leihen	-5563
▁Humor	-5564
▁Magen	-5565
▁holte	-5566
▁mutig	-5567
ungslos	-5568
▁Riesen	-5569
▁gering	-5570
▁schief	-5571
▁steckt	-5572
▁trauen	-5573
▁verurt	-5574
▁werfen	-5575
▁blieben	-5576
▁hübsche	-5577
▁lachten	-5578
▁Insekten	-5579
▁bewunder	-5580
▁Deutschen	-5581
▁wiederholen	-5582
▁Entschuldige	-5583
▁Fremdsprache	-5584
uk	-5585
up	-5586
weh	-5587
Bahn	-5588
angs	-5589
fert	-5590
wurf	-5591
▁Gal	-5592
▁eng	-5593
▁flü	-5594
getar	-5595
ietet	-5596
leite	-5597
zeuge	-5598
▁Also	-5599
▁Knie	-5600
▁Seil	-5601
▁Team	-5602
fläche	-5603
▁Berge	-5604
▁Dafür	-5605
▁Hätte	-5606
▁anges	-5607
▁misst	-5608
▁weiße	-5609
▁Gemein	-5610
▁hoffen	-5611
zwischen	-5612
▁Anfänger	-5613
▁Arbeiten	-5614
▁bereitet	-5615
▁erlauben	-5616
▁scheiden	-5617
▁vernünft	-5618
▁Phantasie	-5619
▁behauptet	-5620
▁praktisch	-5621
▁schwarzen	-5622
▁verpassen	-5623
▁verbessern	-5624
▁Französischen	-5625
▁amerikanische	-5626
yo	-5627
:30	-5628
hob	-5629
ipp	-5630
oge	-5631
▁13	-5632
deck	-5633
lass	-5634
älde	-5635
▁pfl	-5636
rafen	-5637
▁Diam	-5638
▁Euro	-5639
▁gäbe	-5640
▁heft	-5641
▁pein	-5642
anlage	-5643
▁Salat	-5644
▁Söhne	-5645
▁Wofür	-5646
fleisch	-5647
▁Indien	-5648
▁Meeres	-5649
▁Romane	-5650
▁durchs	-5651
▁geheim	-5652
▁ältere	-5653
sprechen	-5654
zumachen	-5655
▁Kellner	-5656
▁trocken	-5657
▁Motorrad	-5658
▁dasselbe	-5659
▁konzentr	-5660
▁schenken	-5661
▁ausmachen	-5662
▁entkommen	-5663
▁verursacht	-5664
▁gleichzeitig	-5665
▁kennenlernen	-5666
▁abgeschlossen	-5667
▁Schriftsteller	-5668
▁tu	-5669
▁zö	-5670
eise	-5671
▁Gas	-5672
▁Mas	-5673
▁ohn	-5674
ackte	-5675
ehler	-5676
▁Arch	-5677
▁Verw	-5678
▁getr	-5679
▁hole	-5680
eignet	-5681
fahrer	-5682
▁Engel	-5683
▁Stand	-5684
▁polit	-5685
▁weint	-5686
isieren	-5687
zwanzig	-5688
▁Apfels	-5689
▁Kochen	-5690
▁Soweit	-5691
▁runter	-5692
▁Milliar	-5693
▁Worüber	-5694
▁Aussicht	-5695
▁bedeuten	-5696
▁schützen	-5697
schwendung	-5698
▁erreichte	-5699
▁willkommen	-5700
▁Information	-5701
ahm	-5702
beu	-5703
pha	-5704
eckt	-5705
ffiz	-5706
ickn	-5707
igin	-5708
roht	-5709
▁Hex	-5710
atter	-5711
getan	-5712
▁Ehef	-5713
▁Juni	-5714
▁Sieg	-5715
▁Wolf	-5716
▁Zeug	-5717
riften	-5718
▁Genau	-5719
▁Kyoto	-5720
▁betrü	-5721
▁ermor	-5722
▁günst	-5723
▁kurze	-5724
▁meins	-5725
▁zählt	-5726
tausend	-5727
▁Normal	-5728
▁fragst	-5729
▁pleite	-5730
▁soweit	-5731
usstsein	-5732
▁Schweiz	-5733
▁Verkauf	-5734
▁schlafe	-5735
▁schwach	-5736
▁standen	-5737
ettbewerb	-5738
probieren	-5739
▁Zwischen	-5740
▁dringend	-5741
▁schreien	-5742
ungszimmer	-5743
▁Ausländer	-5744
▁Fahrkarte	-5745
▁Geschmack	-5746
▁Lastwagen	-5747
▁sonderlich	-5748
▁Freundinnen	-5749
▁Zeitschrift	-5750
▁hervorragen	-5751
kan	-5752
▁Pan	-5753
blich	-5754
otten	-5755
▁Eing	-5756
▁Wart	-5757
▁zeit	-5758
▁April	-5759
▁antun	-5760
▁falls	-5761
eidigen	-5762
eistert	-5763
frieden	-5764
gerecht	-5765
▁Drogen	-5766
▁Garage	-5767
▁Geruch	-5768
▁Reicht	-5769
▁Schatz	-5770
▁schuld	-5771
▁Patient	-5772
▁Spanien	-5773
▁Stellen	-5774
▁doppelt	-5775
▁geweint	-5776
▁starken	-5777
▁Schlafen	-5778
▁bemerken	-5779
▁besorgen	-5780
▁entgegen	-5781
▁sorgfält	-5782
▁wechseln	-5783
▁Engländer	-5784
▁Konferenz	-5785
▁Professor	-5786
▁mitkommen	-5787
▁Besonderes	-5788
▁Selbstmord	-5789
▁Wohnzimmer	-5790
▁Bevölkerung	-5791
▁verschiedene	-5792
▁Verkehrsunfall	-5793
▁Ew	-5794
▁Än	-5795
ingu	-5796
swür	-5797
viel	-5798
▁Kop	-5799
▁fei	-5800
▁wid	-5801
ember	-5802
fügen	-5803
rimin	-5804
sport	-5805
stuhl	-5806
▁Abst	-5807
▁Kreu	-5808
▁Mord	-5809
▁taub	-5810
lehnen	-5811
▁Blatt	-5812
▁Kugel	-5813
▁Opfer	-5814
▁Rasen	-5815
▁Schwe	-5816
▁anget	-5817
▁jenem	-5818
▁verir	-5819
achtete	-5820
ätzchen	-5821
▁Akzent	-5822
▁Europä	-5823
▁Mannes	-5824
▁Planet	-5825
▁Willen	-5826
▁gewalt	-5827
▁raucht	-5828
bereiten	-5829
▁Ehefrau	-5830
▁derzeit	-5831
▁verschl	-5832
▁Deswegen	-5833
▁Wusstest	-5834
▁zurückzu	-5835
▁Charakter	-5836
▁angesehen	-5837
▁anzusehen	-5838
▁beabsicht	-5839
▁überleben	-5840
▁Menschheit	-5841
▁Briefmarken	-5842
▁kompliziert	-5843
verschwendung	-5844
afe	-5845
enk	-5846
iken	-5847
llte	-5848
reit	-5849
verb	-5850
ätzt	-5851
▁USA	-5852
▁elf	-5853
hafte	-5854
hörer	-5855
isser	-5856
offen	-5857
▁Stat	-5858
▁Türk	-5859
▁Weck	-5860
▁nass	-5861
▁ober	-5862
▁okay	-5863
▁stir	-5864
▁welt	-5865
▁Anruf	-5866
▁Ferne	-5867
▁Gutes	-5868
▁Legen	-5869
▁Mikro	-5870
▁Möbel	-5871
▁Wider	-5872
▁belei	-5873
▁lacht	-5874
▁sowie	-5875
▁verkn	-5876
steigen	-5877
trunken	-5878
▁Dienst	-5879
▁Geldes	-5880
▁Rennen	-5881
▁Werden	-5882
▁aussch	-5883
▁frisch	-5884
▁streng	-5885
▁trifft	-5886
▁Möchtet	-5887
▁Vegetar	-5888
▁neulich	-5889
▁stunden	-5890
▁zufolge	-5891
schriften	-5892
▁Aussehen	-5893
▁fürchtet	-5894
▁getrennt	-5895
▁gewöhnen	-5896
▁Natürlich	-5897
▁behandeln	-5898
▁deutschen	-5899
▁Schlimmste	-5900
▁Lebensmittel	-5901
▁beeindrucken	-5902
▁herausfinden	-5903
ül	-5904
ene	-5905
ina	-5906
.000	-5907
allt	-5908
dopt	-5909
kamer	-5910
sonst	-5911
wasch	-5912
▁Juli	-5913
▁Lauf	-5914
▁Verm	-5915
altete	-5916
▁Blitz	-5917
▁Puppe	-5918
▁wette	-5919
▁Latein	-5920
▁Leiter	-5921
▁Schuss	-5922
▁bester	-5923
▁linken	-5924
▁reserv	-5925
▁ähnelt	-5926
gefunden	-5927
▁Blätter	-5928
▁Einkauf	-5929
▁Unrecht	-5930
▁dritten	-5931
▁drückte	-5932
▁füttern	-5933
▁anwesend	-5934
▁berühmte	-5935
ungsmittel	-5936
▁Erdbeeren	-5937
▁benötigen	-5938
▁vermeiden	-5939
▁Handschuhe	-5940
▁lächerlich	-5941
▁Besprechung	-5942
▁Schließlich	-5943
ffentlichkeit	-5944
▁vorsichtiger	-5945
yn	-5946
▁CD	-5947
last	-5948
osph	-5949
saus	-5950
uppe	-5951
üger	-5952
ühle	-5953
üste	-5954
▁Grü	-5955
▁Jan	-5956
▁tät	-5957
neten	-5958
▁Eile	-5959
▁Gehe	-5960
▁Held	-5961
▁Mitt	-5962
▁Roll	-5963
▁gepf	-5964
üchern	-5965
▁Decke	-5966
▁Falls	-5967
▁Peter	-5968
▁Zweck	-5969
▁eurem	-5970
▁klass	-5971
▁natür	-5972
haltung	-5973
prüfung	-5974
swürdig	-5975
▁Küchen	-5976
▁Mörder	-5977
▁derart	-5978
▁drehte	-5979
▁leiser	-5980
▁nachzu	-5981
▁parken	-5982
▁rennen	-5983
▁Meister	-5984
▁Musiker	-5985
▁Produkt	-5986
▁Schwarz	-5987
▁Zustand	-5988
▁absolut	-5989
▁drücken	-5990
▁gerecht	-5991
▁verbrei	-5992
▁verlobt	-5993
▁gesungen	-5994
mannschaft	-5995
undzwanzig	-5996
▁bezweifle	-5997
▁Vegetarier	-5998
▁irgendwann	-5999
▁Geschwister	-6000
▁japanischen	-6001
▁Sitzungszimmer	-6002
grö	-6003
▁üb	-6004
alle	-6005
stig	-6006
such	-6007
▁Jup	-6008
▁Mos	-6009
▁Sum	-6010
chtig	-6011
elekt	-6012
farbe	-6013
▁Huhn	-6014
▁Paul	-6015
▁Skla	-6016
▁Stär	-6017
▁Türe	-6018
▁heil	-6019
▁rück	-6020
gruppe	-6021
morgen	-6022
nissen	-6023
onnaie	-6024
unkeln	-6025
üttert	-6026
▁Osaka	-6027
▁begab	-6028
▁trage	-6029
▁wisse	-6030
▁öfter	-6031
züglich	-6032
▁Diesen	-6033
▁Kommun	-6034
▁Laufen	-6035
▁Portem	-6036
▁Voraus	-6037
▁junger	-6038
▁merken	-6039
▁Jupiter	-6040
▁korrekt	-6041
▁schätze	-6042
▁umsonst	-6043
▁versich	-6044
▁welchen	-6045
▁überaus	-6046
▁betrifft	-6047
▁wünschen	-6048
▁Kontrolle	-6049
▁Versuchen	-6050
▁auswendig	-6051
▁Zigaretten	-6052
▁begeistert	-6053
▁erschossen	-6054
▁schlechtes	-6055
▁Portemonnaie	-6056
▁Sonnensystem	-6057
St	-6058
gei	-6059
ips	-6060
oko	-6061
▁11	-6062
appt	-6063
hahn	-6064
hirt	-6065
onnt	-6066
sack	-6067
örte	-6068
▁Det	-6069
▁Exp	-6070
▁Heu	-6071
▁Maß	-6072
▁Org	-6073
▁Rob	-6074
▁Zur	-6075
klagt	-6076
ültig	-6077
▁Hilf	-6078
▁Weis	-6079
▁reag	-6080
▁rech	-6081
worfen	-6082
▁Beide	-6083
▁Stirn	-6084
▁Teile	-6085
▁Ungar	-6086
▁Wesen	-6087
▁abger	-6088
▁gaben	-6089
▁gibst	-6090
gegeben	-6091
gesetzt	-6092
zentrum	-6093
▁Erwart	-6094
▁Farben	-6095
▁Meilen	-6096
▁Portug	-6097
▁Sprach	-6098
▁Waffen	-6099
▁ausgel	-6100
▁gewiss	-6101
▁sparen	-6102
▁treffe	-6103
▁weitem	-6104
gefallen	-6105
▁Bringen	-6106
▁Diskuss	-6107
▁bereuen	-6108
▁grausam	-6109
▁schafft	-6110
antwortet	-6111
▁Dienstag	-6112
▁Russisch	-6113
▁abgesagt	-6114
▁deutsche	-6115
▁ermordet	-6116
▁schließt	-6117
▁abgelehnt	-6118
▁Willkommen	-6119
▁interessan	-6120
▁verbessert	-6121
▁Vorstellung	-6122
▁gegenseitig	-6123
▁stundenlang	-6124
▁hinterlassen	-6125
▁Schwimmbecken	-6126
▁Verantwortung	-6127
Un	-6128
wn	-6129
äs	-6130
ice	-6131
ieb	-6132
rrt	-6133
▁50	-6134
dent	-6135
name	-6136
sanw	-6137
uckt	-6138
zieh	-6139
zten	-6140
▁Tel	-6141
▁tie	-6142
losen	-6143
regen	-6144
umbus	-6145
▁Ther	-6146
bergen	-6147
recken	-6148
▁Psych	-6149
▁Zunge	-6150
▁ankam	-6151
▁elekt	-6152
▁erwar	-6153
▁heran	-6154
▁lohnt	-6155
▁vorne	-6156
▁wuchs	-6157
▁zweit	-6158
▁Sekret	-6159
▁lebten	-6160
▁Gemälde	-6161
▁anderem	-6162
▁nebenan	-6163
▁reichte	-6164
weisungen	-6165
▁Weltraum	-6166
▁einladen	-6167
▁schwarze	-6168
▁vergisst	-6169
▁verliert	-6170
▁Philosoph	-6171
▁Schlangen	-6172
▁ausleihen	-6173
▁ausstehen	-6174
▁furchtbar	-6175
▁vollständig	-6176
▁verschwinden	-6177
▁zurückgekehrt	-6178
▁Entscheidungen	-6179
duz	-6180
rum	-6181
sur	-6182
▁Go	-6183
bert	-6184
ones	-6185
raße	-6186
verl	-6187
ügel	-6188
▁Pak	-6189
▁Pop	-6190
▁abw	-6191
andte	-6192
aszin	-6193
orfen	-6194
▁Empf	-6195
▁verö	-6196
lungen	-6197
umente	-6198
▁Alger	-6199
▁Idiot	-6200
▁Rufen	-6201
▁Video	-6202
▁ginge	-6203
▁herab	-6204
▁umarm	-6205
astisch	-6206
osphäre	-6207
▁Hunden	-6208
▁Marika	-6209
▁Meinst	-6210
▁Persön	-6211
▁Reifen	-6212
▁Rätsel	-6213
▁billig	-6214
▁langes	-6215
▁leidet	-6216
▁nimmst	-6217
▁teilen	-6218
▁verges	-6219
▁wecken	-6220
▁überle	-6221
▁Letzten	-6222
▁beendet	-6223
▁überein	-6224
ternation	-6225
verlässig	-6226
▁Demokrat	-6227
▁Toilette	-6228
▁geworfen	-6229
▁Brasilien	-6230
▁Feuerwehr	-6231
▁Gegenteil	-6232
▁verzeihen	-6233
geschrieben	-6234
▁Eintrittsk	-6235
▁erscheinen	-6236
▁gebrauchen	-6237
▁verstecken	-6238
▁unternehmen	-6239
▁Arbeitsplatz	-6240
pu	-6241
ton	-6242
uad	-6243
wai	-6244
zün	-6245
▁Wh	-6246
▁ph	-6247
▁Äg	-6248
etze	-6249
part	-6250
tags	-6251
unkl	-6252
▁Oze	-6253
▁Pok	-6254
▁Wal	-6255
▁Wut	-6256
▁sen	-6257
appar	-6258
ative	-6259
iefel	-6260
▁Emil	-6261
▁Lies	-6262
▁Wohl	-6263
▁aufw	-6264
▁flog	-6265
ruppen	-6266
uellen	-6267
zahlen	-6268
▁Gramm	-6269
▁Jeden	-6270
▁Notiz	-6271
▁Tokyo	-6272
▁gelei	-6273
▁ledig	-6274
▁Johann	-6275
▁Kerzen	-6276
▁Umwelt	-6277
▁fährst	-6278
▁klüger	-6279
arbeiter	-6280
▁Abwesen	-6281
▁Getränk	-6282
▁Heimweg	-6283
▁Spinnen	-6284
▁begehen	-6285
▁geführt	-6286
▁kletter	-6287
▁meinten	-6288
▁Ausdruck	-6289
▁Geschirr	-6290
▁Gewissen	-6291
▁peinlich	-6292
▁unabhäng	-6293
▁verstand	-6294
geschichte	-6295
▁Rechtsanw	-6296
▁Schweigen	-6297
▁Touristen	-6298
▁Vorsitzen	-6299
▁Zwillinge	-6300
▁beschwert	-6301
▁geschossen	-6302
▁schwierige	-6303
▁geschnitten	-6304
▁liegenlassen	-6305
bau	-6306
idt	-6307
ins	-6308
▁km	-6309
frig	-6310
gier	-6311
post	-6312
▁300	-6313
▁Del	-6314
▁gep	-6315
▁hau	-6316
▁win	-6317
anzug	-6318
heben	-6319
ocken	-6320
ähren	-6321
▁Fass	-6322
▁Hört	-6323
▁kühl	-6324
▁sieb	-6325
▁sinn	-6326
dienst	-6327
▁Betty	-6328
▁Franz	-6329
▁Hawai	-6330
▁Honig	-6331
▁Schuh	-6332
▁befür	-6333
▁behil	-6334
▁dunkl	-6335
▁traur	-6336
▁Aufzug	-6337
▁Folgen	-6338
▁Glaube	-6339
▁Meiner	-6340
▁belieb	-6341
▁extrem	-6342
▁faszin	-6343
▁forder	-6344
▁redest	-6345
▁tätest	-6346
▁unterh	-6347
leichter	-6348
zusetzen	-6349
▁Abwasch	-6350
▁Begriff	-6351
▁Entwick	-6352
▁Jackson	-6353
▁Rotwein	-6354
▁Schmidt	-6355
▁gekannt	-6356
▁gemeint	-6357
▁geweckt	-6358
▁kriegen	-6359
▁schlage	-6360
▁träumte	-6361
▁umgeben	-6362
ßigkeiten	-6363
▁Nächstes	-6364
▁Tausende	-6365
▁einziges	-6366
▁geschäft	-6367
▁wusstest	-6368
▁Gegenwart	-6369
▁Ruhestand	-6370
▁Schicksal	-6371
▁Schmetter	-6372
▁Schultern	-6373
▁attraktiv	-6374
▁streichen	-6375
▁Diskussion	-6376
▁Handtasche	-6377
▁Milliarden	-6378
▁verurteilt	-6379
▁Klassenkamer	-6380
▁hereinkommen	-6381
co	-6382
ve	-6383
eis	-6384
for	-6385
mäß	-6386
züg	-6387
▁25	-6388
▁Bü	-6389
bern	-6390
echn	-6391
ular	-6392
ysik	-6393
▁Ang	-6394
▁Fro	-6395
▁Hey	-6396
▁Kuh	-6397
▁Wes	-6398
▁wes	-6399
andid	-6400
derne	-6401
digte	-6402
lesen	-6403
mmert	-6404
ücken	-6405
ügung	-6406
▁Diät	-6407
▁Füll	-6408
▁Jede	-6409
▁Lekt	-6410
▁bade	-6411
▁rund	-6412
▁russ	-6413
▁stra	-6414
eilung	-6415
kommst	-6416
schutz	-6417
▁Fahrt	-6418
▁fragt	-6419
ualität	-6420
weifelt	-6421
▁Brieft	-6422
▁Talent	-6423
▁bitter	-6424
▁fliegt	-6425
▁packte	-6426
▁selben	-6427
▁stelle	-6428
▁zugest	-6429
zuteilen	-6430
▁Drachen	-6431
▁Vorteil	-6432
▁klopfte	-6433
▁leichte	-6434
▁schnitt	-6435
▁schulde	-6436
▁schwere	-6437
▁überprü	-6438
▁Ausnahme	-6439
▁Flaschen	-6440
▁Versehen	-6441
▁gelaufen	-6442
▁Einkommen	-6443
▁angezogen	-6444
▁verbergen	-6445
▁Badezimmer	-6446
▁behilflich	-6447
▁betrachtet	-6448
▁zerbrochen	-6449
▁überfahren	-6450
▁Abwesenheit	-6451
▁Süßigkeiten	-6452
▁hingegangen	-6453
▁Sonnenbrille	-6454
▁gutaussehend	-6455
ix	-6456
Sch	-6457
bür	-6458
rog	-6459
sah	-6460
▁Rö	-6461
ankt	-6462
aute	-6463
lied	-6464
rien	-6465
swer	-6466
▁frö	-6467
bogen	-6468
genie	-6469
icket	-6470
illen	-6471
preis	-6472
setzt	-6473
öffel	-6474
▁Flie	-6475
▁Wozu	-6476
▁gelb	-6477
▁lock	-6478
erisch	-6479
gebung	-6480
▁Bezug	-6481
▁Brust	-6482
▁Ernte	-6483
▁Feigl	-6484
▁Laufe	-6485
▁Löwen	-6486
▁Mache	-6487
▁Reich	-6488
▁Verab	-6489
▁adopt	-6490
▁aktiv	-6491
bildung	-6492
▁Furcht	-6493
▁Gebiet	-6494
▁Halten	-6495
▁Japans	-6496
▁Kissen	-6497
▁Kosten	-6498
▁Kultur	-6499
▁beteil	-6500
▁geirrt	-6501
▁halben	-6502
▁keines	-6503
▁wonach	-6504
▁Männern	-6505
▁angetan	-6506
▁brechen	-6507
▁erwähnt	-6508
▁verirrt	-6509
▁Algerien	-6510
▁Einfluss	-6511
▁Griechen	-6512
▁Schülern	-6513
▁weiteren	-6514
▁überlegt	-6515
▁Beachtung	-6516
▁Erinnerst	-6517
▁Zeitpunkt	-6518
▁außerhalb	-6519
▁einfacher	-6520
▁ernsthaft	-6521
▁nirgendwo	-6522
▁verlaufen	-6523
▁bezeichnet	-6524
▁Allgemeinen	-6525
▁Italienisch	-6526
▁Wiedersehen	-6527
▁aufgefallen	-6528
▁beantwortet	-6529
▁hierbleiben	-6530
▁mitzuteilen	-6531
▁schwieriger	-6532
▁unterschied	-6533
▁Sommerferien	-6534
▁ungewöhnlich	-6535
▁vorgeschlagen	-6536
da	-6537
kor	-6538
frau	-6539
utze	-6540
vent	-6541
äser	-6542
▁Jes	-6543
▁Nor	-6544
▁Pal	-6545
▁klu	-6546
▁str	-6547
hoben	-6548
ichts	-6549
kraft	-6550
musik	-6551
stalt	-6552
▁Fris	-6553
▁Fünf	-6554
▁brit	-6555
▁dunk	-6556
▁fett	-6557
ettete	-6558
etzung	-6559
garten	-6560
räumen	-6561
wetter	-6562
▁Brand	-6563
▁Techn	-6564
▁blass	-6565
▁kalte	-6566
▁stieß	-6567
▁wirkt	-6568
erstoff	-6569
geschen	-6570
▁Detail	-6571
▁Dusche	-6572
▁Hawaii	-6573
▁Schafe	-6574
▁tapfer	-6575
schicken	-6576
▁Dunkeln	-6577
▁Kapitän	-6578
▁Zuhause	-6579
▁belogen	-6580
▁erkannt	-6581
▁gelegen	-6582
▁Gebrauch	-6583
▁Vorsicht	-6584
▁befolgen	-6585
▁bereiten	-6586
▁fürchten	-6587
▁zulassen	-6588
▁Kartoffel	-6589
▁Literatur	-6590
▁Studentin	-6591
▁arbeitest	-6592
▁Ergebnisse	-6593
▁irgendeine	-6594
▁merkwürdig	-6595
▁sorgfältig	-6596
▁verschwand	-6597
▁zugenommen	-6598
▁Bewusstsein	-6599
▁betrachtete	-6600
▁geantwortet	-6601
▁internation	-6602
▁verabschieden	-6603
cy	-6604
bek	-6605
hei	-6606
kes	-6607
umi	-6608
▁Bu	-6609
▁Op	-6610
ieße	-6611
ießt	-6612
ifte	-6613
lade	-6614
▁199	-6615
▁Ann	-6616
▁Sha	-6617
▁Auft	-6618
▁Nick	-6619
▁brei	-6620
▁halt	-6621
▁ruft	-6622
▁Ägyp	-6623
kasten	-6624
phabet	-6625
tragen	-6626
▁Enkel	-6627
▁Falle	-6628
▁Haust	-6629
▁Hosen	-6630
▁Hölle	-6631
▁Lande	-6632
▁Rauch	-6633
▁Sicht	-6634
▁Staub	-6635
▁drauf	-6636
▁mächt	-6637
▁namen	-6638
ompeten	-6639
▁Afrika	-6640
▁Benzin	-6641
▁Frucht	-6642
▁Keller	-6643
▁Kritik	-6644
▁Monats	-6645
▁Soldat	-6646
▁Zahlen	-6647
▁achten	-6648
▁blauen	-6649
▁fingen	-6650
▁korrig	-6651
minister	-6652
▁Verschw	-6653
▁Interess	-6654
▁Weisheit	-6655
▁angenehm	-6656
▁befinden	-6657
▁benötigt	-6658
▁hübsches	-6659
▁Geschenke	-6660
▁Nachtisch	-6661
▁Neuigkeit	-6662
▁Operation	-6663
▁Zeitungen	-6664
▁bestellen	-6665
▁erfordert	-6666
▁schaltete	-6667
▁Sauerstoff	-6668
▁Anweisungen	-6669
▁Möglichkeiten	-6670
In	-6671
ax	-6672
bur	-6673
fig	-6674
por	-6675
rav	-6676
amer	-6677
ppel	-6678
unru	-6679
▁Car	-6680
frage	-6681
istor	-6682
lasse	-6683
räumt	-6684
▁Arab	-6685
▁Band	-6686
▁Kühe	-6687
▁übel	-6688
alität	-6689
ächter	-6690
▁Bevor	-6691
▁Lügen	-6692
▁Tiger	-6693
▁folgt	-6694
▁regel	-6695
▁reist	-6696
▁vorzu	-6697
▁wiegt	-6698
higkeit	-6699
änglich	-6700
▁Buchst	-6701
▁Dürfte	-6702
▁Enttäu	-6703
▁Heirat	-6704
▁Regens	-6705
▁Spiele	-6706
▁endete	-6707
▁folgte	-6708
▁hinweg	-6709
▁schnar	-6710
▁warnen	-6711
▁worauf	-6712
▁überre	-6713
verständ	-6714
▁Fliegen	-6715
▁Sterben	-6716
▁Unglück	-6717
▁beträgt	-6718
▁gefasst	-6719
▁großzüg	-6720
▁größere	-6721
▁italien	-6722
▁schaffe	-6723
▁bedanken	-6724
▁begraben	-6725
▁einziger	-6726
▁entweder	-6727
▁Untersuch	-6728
▁Weltkrieg	-6729
▁berühmter	-6730
verständnis	-6731
▁ausgezeich	-6732
▁anschließen	-6733
▁überraschen	-6734
▁überraschte	-6735
▁Mu	-6736
afel	-6737
icke	-6738
kind	-6739
pass	-6740
wich	-6741
öpfe	-6742
ücke	-6743
gisch	-6744
seits	-6745
thalt	-6746
zahlt	-6747
▁Heut	-6748
▁Nahr	-6749
▁cool	-6750
▁serv	-6751
▁üben	-6752
tember	-6753
▁Affen	-6754
▁Arsch	-6755
▁Panik	-6756
▁berei	-6757
apparat	-6758
ockiert	-6759
▁Damals	-6760
▁Leiden	-6761
▁Machst	-6762
▁Origin	-6763
▁Städte	-6764
▁System	-6765
▁Verzei	-6766
▁beschä	-6767
▁gelegt	-6768
▁stirbt	-6769
▁zitter	-6770
rühstück	-6771
▁frische	-6772
▁pflegte	-6773
▁verfügt	-6774
untergang	-6775
▁aufricht	-6776
▁bekannte	-6777
▁schwerer	-6778
▁Verstehst	-6779
▁beleidigt	-6780
▁gekleidet	-6781
▁innerhalb	-6782
▁jederzeit	-6783
▁wunderbar	-6784
▁arbeitslos	-6785
▁enttäuschen	-6786
▁menschlichen	-6787
▁verschlossen	-6788
▁Normalerweise	-6789
▁unterschreiben	-6790
sl	-6791
hes	-6792
ird	-6793
rem	-6794
▁Fe	-6795
▁or	-6796
▁su	-6797
dige	-6798
itiv	-6799
spir	-6800
ztin	-6801
ütte	-6802
▁Arg	-6803
▁Fal	-6804
▁Gei	-6805
▁Sat	-6806
▁Web	-6807
▁rut	-6808
Shirt	-6809
eifen	-6810
ologe	-6811
ussen	-6812
▁Eure	-6813
▁Jung	-6814
▁Kilo	-6815
▁Knei	-6816
▁Letz	-6817
▁Pist	-6818
▁Verz	-6819
▁anst	-6820
▁gefl	-6821
▁naiv	-6822
▁riss	-6823
▁ruin	-6824
▁sieh	-6825
beutel	-6826
stande	-6827
utzung	-6828
▁Armee	-6829
▁Damit	-6830
▁Daten	-6831
▁Repar	-6832
▁Wange	-6833
▁angew	-6834
▁steck	-6835
▁unent	-6836
▁woher	-6837
alender	-6838
äuschen	-6839
▁Beweis	-6840
▁Nachts	-6841
▁finanz	-6842
▁nannte	-6843
▁wirkte	-6844
urteilen	-6845
▁Aufsatz	-6846
▁Bananen	-6847
▁Früchte	-6848
▁Nahrung	-6849
▁Stiefel	-6850
▁Streich	-6851
▁bevorzu	-6852
▁bleibst	-6853
▁träumen	-6854
▁Schweine	-6855
▁Veränder	-6856
▁eingehen	-6857
▁Botschaft	-6858
▁geleistet	-6859
▁gerechnet	-6860
▁weiterhin	-6861
▁dreihundert	-6862
▁Fortschritte	-6863
lig	-6864
lub	-6865
mon	-6866
aubt	-6867
aunt	-6868
bart	-6869
gste	-6870
laut	-6871
nach	-6872
ombe	-6873
onie	-6874
ziel	-6875
▁Fin	-6876
▁Göt	-6877
▁Kür	-6878
▁Oma	-6879
▁Ren	-6880
▁Sym	-6881
▁Tän	-6882
eilte	-6883
maßen	-6884
ueren	-6885
▁Atom	-6886
▁Feld	-6887
▁Rett	-6888
▁dünn	-6889
▁jene	-6890
astrop	-6891
ettern	-6892
ierter	-6893
▁Hafen	-6894
▁Lager	-6895
▁Mögen	-6896
▁Schaf	-6897
▁dumme	-6898
▁täten	-6899
▁verge	-6900
▁überf	-6901
führung	-6902
mächtig	-6903
reibung	-6904
▁Bäumen	-6905
▁Partei	-6906
▁Scherz	-6907
▁Sollte	-6908
▁Strafe	-6909
▁Zeigen	-6910
▁Zitron	-6911
▁brennt	-6912
▁geriet	-6913
▁ließen	-6914
▁weißen	-6915
▁würdet	-6916
▁Ingenie	-6917
▁Sekunde	-6918
▁einiges	-6919
rühstückt	-6920
▁Abschied	-6921
▁Deutsche	-6922
▁Problems	-6923
▁nirgends	-6924
▁empfehlen	-6925
▁Autounfall	-6926
▁Englischen	-6927
▁auszugehen	-6928
▁diskutieren	-6929
▁vergangenen	-6930
▁interessiere	-6931
▁wiederkommen	-6932
▁ausgezeichnet	-6933
ai	-6934
kn	-6935
jet	-6936
kus	-6937
mes	-6938
▁Sä	-6939
adel	-6940
eiße	-6941
mete	-6942
▁Tar	-6943
▁prä	-6944
▁zut	-6945
blade	-6946
▁Koll	-6947
▁Korb	-6948
▁Rate	-6949
▁Rose	-6950
▁Vase	-6951
▁Woll	-6952
▁möge	-6953
rinken	-6954
▁Aufen	-6955
▁Ernst	-6956
▁Höhle	-6957
▁Kompl	-6958
▁grund	-6959
▁perfe	-6960
▁unerw	-6961
▁Gipfel	-6962
▁Gründe	-6963
▁Unsinn	-6964
▁Verein	-6965
▁bereue	-6966
▁daraus	-6967
▁namens	-6968
▁schoss	-6969
▁talent	-6970
▁wachte	-6971
mosphäre	-6972
▁Bildung	-6973
▁Gedanke	-6974
▁Verlust	-6975
▁durstig	-6976
sausdruck	-6977
▁Bushalte	-6978
▁Dummheit	-6979
▁Dummkopf	-6980
▁Feigling	-6981
▁Getränke	-6982
▁Sängerin	-6983
▁dieselbe	-6984
▁geträumt	-6985
▁konntest	-6986
▁Verfügung	-6987
▁Verkäufer	-6988
▁bestellte	-6989
▁bestätigen	-6990
▁aufgenommen	-6991
▁untersuchen	-6992
▁verschieben	-6993
▁verständlich	-6994
▁Fremdsprachen	-6995
▁Waschmaschine	-6996
▁Wahrscheinlich	-6997
col	-6998
krä	-6999
krö	-7000
lem	-7001
tät	-7002
vol	-7003
öch	-7004
▁Sh	-7005
Hast	-7006
ancy	-7007
drei	-7008
erei	-7009
fest	-7010
inos	-7011
kaid	-7012
sich	-7013
zend	-7014
ärin	-7015
ühlt	-7016
ürzt	-7017
▁Fla	-7018
▁Ski	-7019
▁Spe	-7020
▁akt	-7021
▁lud	-7022
▁rom	-7023
▁san	-7024
alist	-7025
bchen	-7026
kespe	-7027
letzt	-7028
olden	-7029
ruhen	-7030
schei	-7031
unnen	-7032
ängte	-7033
▁2:30	-7034
▁Alte	-7035
▁Ding	-7036
▁Euer	-7037
▁Fing	-7038
▁Trei	-7039
▁Wirf	-7040
▁gepl	-7041
▁risk	-7042
undern	-7043
▁Geige	-7044
▁griff	-7045
▁unged	-7046
▁verbl	-7047
▁Geschä	-7048
▁Nutzen	-7049
▁beunru	-7050
▁bewegt	-7051
▁redete	-7052
▁strich	-7053
▁suchst	-7054
▁teurer	-7055
▁vieles	-7056
getragen	-7057
▁Ehrlich	-7058
▁Respekt	-7059
▁Schwert	-7060
▁Verwand	-7061
▁ausgest	-7062
▁benutze	-7063
▁gekonnt	-7064
▁kostete	-7065
sterreich	-7066
unterhalt	-7067
▁Shakespe	-7068
▁betreten	-7069
▁billiger	-7070
▁probiert	-7071
▁diejenige	-7072
▁gestiegen	-7073
▁schmecken	-7074
▁verbringt	-7075
▁Heutzutage	-7076
▁anzunehmen	-7077
▁ausgegeben	-7078
▁angegriffen	-7079
▁menschliche	-7080
▁verzweifelt	-7081
▁Angewohnheit	-7082
▁gefrühstückt	-7083
▁Angelegenheiten	-7084
▁Lebensunterhalt	-7085
kür	-7086
▁eh	-7087
ifun	-7088
lant	-7089
wjet	-7090
▁Mex	-7091
▁Wur	-7092
▁kün	-7093
artig	-7094
gerät	-7095
gress	-7096
ittet	-7097
press	-7098
reckt	-7099
weilt	-7100
▁Höhe	-7101
▁Inst	-7102
▁Tony	-7103
▁Turm	-7104
▁errö	-7105
▁frie	-7106
▁irrt	-7107
itäten	-7108
mangel	-7109
▁Frise	-7110
▁Poker	-7111
▁beför	-7112
▁beweg	-7113
▁gestr	-7114
▁hofft	-7115
▁irrst	-7116
▁rotes	-7117
▁setzt	-7118
▁wagen	-7119
▁wahre	-7120
▁Bemerk	-7121
▁Dingen	-7122
▁Flücht	-7123
▁Silber	-7124
▁Taifun	-7125
▁Tassen	-7126
▁einzig	-7127
▁fehlte	-7128
▁höchst	-7129
▁reiste	-7130
▁schäme	-7131
▁steigt	-7132
▁vorhat	-7133
▁wohnst	-7134
▁ändert	-7135
bewohner	-7136
▁Ankunft	-7137
▁blickte	-7138
▁gekocht	-7139
▁wechsel	-7140
▁zugeben	-7141
anisation	-7142
▁Gedichte	-7143
▁Handtuch	-7144
▁Kolumbus	-7145
▁Reichtum	-7146
▁Verdächt	-7147
▁deutlich	-7148
▁erstaunt	-7149
▁herrscht	-7150
▁misstrau	-7151
▁studiere	-7152
▁vertraue	-7153
▁Glücklich	-7154
▁fleißiger	-7155
▁Kanadierin	-7156
▁allergisch	-7157
▁aufzugeben	-7158
▁beschweren	-7159
▁ignorieren	-7160
▁inzwischen	-7161
▁ungeduldig	-7162
▁Rechtsanwalt	-7163
▁ausgesprochen	-7164
▁Bushaltestelle	-7165
abl	-7166
kün	-7167
tin	-7168
tre	-7169
Aber	-7170
ahrt	-7171
groß	-7172
higt	-7173
irus	-7174
ison	-7175
ivil	-7176
offt	-7177
oler	-7178
oter	-7179
rise	-7180
uert	-7181
▁Ast	-7182
▁typ	-7183
einfl	-7184
ektor	-7185
essel	-7186
itann	-7187
izont	-7188
▁Chem	-7189
▁Erei	-7190
▁Zwie	-7191
▁arme	-7192
▁aßen	-7193
▁spür	-7194
▁weht	-7195
eidung	-7196
▁Bibel	-7197
▁Braun	-7198
▁Eimer	-7199
▁Emily	-7200
▁Nancy	-7201
▁Olymp	-7202
▁Paket	-7203
▁Pfund	-7204
▁Sogar	-7205
▁Stief	-7206
▁Ziele	-7207
▁veran	-7208
▁weise	-7209
geteilt	-7210
leitung	-7211
▁Befehl	-7212
▁Bienen	-7213
▁George	-7214
▁Herren	-7215
▁Müssen	-7216
▁Satzes	-7217
▁Sollen	-7218
▁hoffte	-7219
▁hängen	-7220
▁modern	-7221
▁verrie	-7222
▁wächst	-7223
itannien	-7224
stellten	-7225
▁Anblick	-7226
▁Beweise	-7227
▁Büchern	-7228
▁Eingang	-7229
▁Geister	-7230
▁Lektion	-7231
▁Pistole	-7232
▁Schwanz	-7233
▁abholen	-7234
▁anstren	-7235
▁möchtet	-7236
▁rettete	-7237
▁Arabisch	-7238
▁Benehmen	-7239
▁Besseres	-7240
▁gefeuert	-7241
▁gelungen	-7242
▁angeboten	-7243
▁derselben	-7244
▁veröffent	-7245
▁Demokratie	-7246
▁geschaffen	-7247
▁verhindern	-7248
▁Erwartungen	-7249
▁Handschrift	-7250
▁Schokoladen	-7251
▁Versammlung	-7252
▁frühstücken	-7253
▁voneinander	-7254
▁zurückkehren	-7255
▁Bürgermeister	-7256
▁unterscheidet	-7257
ya	-7258
ana	-7259
hil	-7260
dach	-7261
iene	-7262
rate	-7263
▁Akt	-7264
▁Hub	-7265
▁Pul	-7266
▁bar	-7267
▁gro	-7268
▁ill	-7269
▁ind	-7270
▁unn	-7271
brief	-7272
deckt	-7273
eckte	-7274
haber	-7275
igens	-7276
uerte	-7277
ution	-7278
▁Erdn	-7279
▁Finn	-7280
▁Hexe	-7281
▁abst	-7282
▁erhö	-7283
▁frem	-7284
annter	-7285
drücke	-7286
eigung	-7287
höhung	-7288
kungen	-7289
schild	-7290
sfeier	-7291
▁Armut	-7292
▁Darum	-7293
▁Datei	-7294
▁Erste	-7295
▁Jesus	-7296
▁Mater	-7297
▁Offen	-7298
▁Ozean	-7299
▁Schal	-7300
▁Schle	-7301
▁Stich	-7302
▁Summe	-7303
▁dürft	-7304
▁jenes	-7305
▁rasch	-7306
▁reise	-7307
▁Übung	-7308
setzung	-7309
▁Dutzen	-7310
▁Klappe	-7311
▁Krimin	-7312
▁Meinen	-7313
▁Setzen	-7314
▁Wecker	-7315
▁befand	-7316
▁echter	-7317
▁erfuhr	-7318
▁geschm	-7319
▁liefen	-7320
▁nutzen	-7321
▁schmer	-7322
▁stören	-7323
▁weißes	-7324
▁Grenzen	-7325
▁Mitleid	-7326
▁Nächste	-7327
▁Richter	-7328
▁nachden	-7329
▁sprecht	-7330
▁starben	-7331
▁trinkst	-7332
▁zuhören	-7333
▁Ägypten	-7334
▁älteren	-7335
▁Bewegung	-7336
▁Kätzchen	-7337
▁Sandwich	-7338
▁Schweden	-7339
▁Vorhaben	-7340
▁abnehmen	-7341
▁achtzehn	-7342
▁besseren	-7343
▁einfache	-7344
▁schweren	-7345
▁verlässt	-7346
▁Vergleich	-7347
▁überreden	-7348
▁Sekretärin	-7349
▁heutzutage	-7350
▁vernünftig	-7351
▁überlassen	-7352
▁glücklicher	-7353
▁unterrichten	-7354
▁wissenschaft	-7355
▁Autoschlüssel	-7356
▁Nahrungsmittel	-7357
▁Weihnachtsmann	-7358
▁Sonnenuntergang	-7359
ako	-7360
ikt	-7361
iol	-7362
feld	-7363
iden	-7364
ienn	-7365
kung	-7366
malt	-7367
orte	-7368
serv	-7369
▁Bal	-7370
▁Spr	-7371
▁Vul	-7372
▁kla	-7373
eskop	-7374
eting	-7375
ierer	-7376
perrt	-7377
reist	-7378
reuen	-7379
scheu	-7380
ältst	-7381
üssig	-7382
▁Grab	-7383
▁Halb	-7384
▁Kore	-7385
▁Kurs	-7386
▁Samm	-7387
▁irre	-7388
▁lieh	-7389
▁rosa	-7390
gänger	-7391
ustrie	-7392
ympath	-7393
▁Schon	-7394
▁Unsch	-7395
▁Wunde	-7396
▁enden	-7397
▁stört	-7398
▁taten	-7399
▁unbek	-7400
▁Änder	-7401
▁Fangen	-7402
▁Kirsch	-7403
▁Sozial	-7404
▁gucken	-7405
▁langem	-7406
▁putzen	-7407
▁willen	-7408
▁Bleiben	-7409
▁Entdeck	-7410
▁Knochen	-7411
▁Krieges	-7412
▁Morgens	-7413
▁Ursache	-7414
▁erfüllt	-7415
▁schnapp	-7416
▁Vorstell	-7417
▁Zeitlang	-7418
▁ablehnen	-7419
▁ausruhen	-7420
▁forderte	-7421
▁geeignet	-7422
▁genießen	-7423
▁kümmerte	-7424
▁verkehrt	-7425
▁wertvoll	-7426
▁Einwohner	-7427
▁Zigarette	-7428
▁bereitete	-7429
▁gehorchen	-7430
▁kletterte	-7431
▁verspätet	-7432
▁Mahlzeiten	-7433
▁ausreichen	-7434
▁behauptete	-7435
▁beschuldig	-7436
▁betrachten	-7437
▁ordentlich	-7438
▁Französische	-7439
▁unterhielten	-7440
▁herausgefunden	-7441
▁veröffentlicht	-7442
gab	-7443
hlt	-7444
opä	-7445
pol	-7446
äub	-7447
acke	-7448
aner	-7449
arin	-7450
inte	-7451
reif	-7452
rufe	-7453
schü	-7454
▁Dis	-7455
▁Hok	-7456
▁May	-7457
▁and	-7458
▁zit	-7459
ahrer	-7460
bente	-7461
eligi	-7462
indig	-7463
ügend	-7464
▁Dass	-7465
▁Erwä	-7466
▁Fang	-7467
▁Klau	-7468
▁Leib	-7469
▁Stil	-7470
▁Tabl	-7471
▁Vern	-7472
erchen	-7473
messen	-7474
schten	-7475
ündete	-7476
▁Nehmt	-7477
▁Noten	-7478
▁Prinz	-7479
▁Stoff	-7480
▁Süden	-7481
▁Tafel	-7482
▁Taten	-7483
▁Union	-7484
▁führe	-7485
▁harte	-7486
▁optim	-7487
▁super	-7488
▁wegge	-7489
▁zöger	-7490
reicher	-7491
samkeit	-7492
▁Anzahl	-7493
▁Atlant	-7494
▁Explos	-7495
▁Mangel	-7496
▁Passag	-7497
▁Rezept	-7498
▁Stücke	-7499
▁Verlob	-7500
▁bittet	-7501
▁fanden	-7502
▁gemalt	-7503
▁melden	-7504
▁religi	-7505
▁stammt	-7506
▁Ärztin	-7507
▁Cousine	-7508
▁Fingern	-7509
▁Hokkaid	-7510
▁Roboter	-7511
▁Verabre	-7512
▁flüster	-7513
▁gelacht	-7514
▁irgendj	-7515
▁starrte	-7516
▁verwirr	-7517
▁wünscht	-7518
▁zwingen	-7519
schreiber	-7520
▁heutigen	-7521
▁kontroll	-7522
▁versehen	-7523
▁warteten	-7524
▁Umständen	-7525
▁hinterher	-7526
▁probieren	-7527
▁verbunden	-7528
▁englischen	-7529
▁mitgeteilt	-7530
▁ohnmächtig	-7531
▁Kreditkarte	-7532
▁vorgestellt	-7533
▁Einzelheiten	-7534
▁misstrauisch	-7535
ja	-7536
vo	-7537
agd	-7538
hte	-7539
ita	-7540
mte	-7541
ppt	-7542
agge	-7543
berg	-7544
bier	-7545
burg	-7546
enkt	-7547
etit	-7548
ocke	-7549
osen	-7550
raph	-7551
▁Fir	-7552
▁Hir	-7553
▁Mai	-7554
▁San	-7555
▁Vis	-7556
▁zug	-7557
abend	-7558
nungs	-7559
passt	-7560
telte	-7561
ächst	-7562
▁Auff	-7563
▁Blau	-7564
▁Blöd	-7565
▁Bund	-7566
▁Gift	-7567
▁Keks	-7568
▁Lind	-7569
▁Mosk	-7570
▁Pech	-7571
▁Pian	-7572
▁Ruck	-7573
▁Wege	-7574
▁Wähl	-7575
▁wies	-7576
▁zerr	-7577
burger	-7578
lament	-7579
richte	-7580
ründet	-7581
wendet	-7582
▁Bemüh	-7583
▁Innen	-7584
▁Jeans	-7585
▁Lange	-7586
▁Pickn	-7587
▁geden	-7588
▁tanzt	-7589
gewicht	-7590
leidete	-7591
mädchen	-7592
problem	-7593
▁Batter	-7594
▁Rechte	-7595
▁Speise	-7596
▁Stehen	-7597
▁Ticket	-7598
▁bellen	-7599
▁bilden	-7600
▁bricht	-7601
▁elektr	-7602
▁erstes	-7603
▁kurzen	-7604
▁mieten	-7605
▁romant	-7606
▁schwul	-7607
▁trafen	-7608
▁verein	-7609
vermögen	-7610
▁Flusses	-7611
▁Friseur	-7612
▁abgeben	-7613
▁moderne	-7614
▁montags	-7615
▁sammeln	-7616
▁schlich	-7617
▁stecken	-7618
▁stürzte	-7619
▁ersetzen	-7620
▁genügend	-7621
▁heiratet	-7622
▁hingegen	-7623
▁Englische	-7624
▁Gebraucht	-7625
▁Nachnamen	-7626
▁Reparatur	-7627
▁Schwimmer	-7628
▁erwartete	-7629
▁schweigen	-7630
▁schönsten	-7631
▁ungerecht	-7632
▁verknallt	-7633
▁Apfelsinen	-7634
▁Experiment	-7635
▁Universums	-7636
▁langweilen	-7637
▁kaputtgemacht	-7638
sg	-7639
arb	-7640
geh	-7641
ola	-7642
ped	-7643
tro	-7644
▁La	-7645
▁Rä	-7646
▁Sc	-7647
▁hu	-7648
ffne	-7649
gest	-7650
ikal	-7651
lose	-7652
vard	-7653
▁Alb	-7654
▁Kur	-7655
▁Säu	-7656
▁fär	-7657
▁kre	-7658
▁sto	-7659
apier	-7660
aumen	-7661
emann	-7662
geber	-7663
olmet	-7664
rugen	-7665
räger	-7666
worte	-7667
älter	-7668
▁Anal	-7669
▁Gang	-7670
▁Gerü	-7671
▁Löwe	-7672
▁Merk	-7673
▁März	-7674
▁Narr	-7675
▁Sing	-7676
▁Skif	-7677
▁Terr	-7678
▁rühr	-7679
bstahl	-7680
ickelt	-7681
ollege	-7682
testen	-7683
uatsch	-7684
▁Arten	-7685
▁Aussp	-7686
▁Beeil	-7687
▁Fuchs	-7688
▁Nagel	-7689
▁Zehen	-7690
▁ansch	-7691
▁breit	-7692
▁dicht	-7693
▁dreht	-7694
▁schar	-7695
▁Beding	-7696
▁Flügel	-7697
▁Füller	-7698
▁Gläser	-7699
▁Januar	-7700
▁Kneipe	-7701
▁Mordes	-7702
▁Physik	-7703
▁Scheck	-7704
▁Schrau	-7705
▁Stühle	-7706
▁Wellen	-7707
▁bisher	-7708
▁hasste	-7709
▁lehren	-7710
▁treten	-7711
etztlich	-7712
ängstigt	-7713
▁Achtung	-7714
▁Fehlern	-7715
▁Fremden	-7716
▁Sternen	-7717
▁Tomaten	-7718
▁Vertrau	-7719
▁Vorfall	-7720
▁bedroht	-7721
▁bringst	-7722
▁dachten	-7723
▁verkauf	-7724
geblieben	-7725
▁Fußboden	-7726
▁Schlacht	-7727
▁Verdacht	-7728
▁Wahnsinn	-7729
▁benehmen	-7730
▁betrogen	-7731
▁heimlich	-7732
▁weggehen	-7733
▁Explosion	-7734
▁Familienn	-7735
▁Grammatik	-7736
▁Scheidung	-7737
▁denselben	-7738
▁entfernen	-7739
▁enthalten	-7740
▁existiert	-7741
▁ignoriert	-7742
▁lediglich	-7743
▁mitteilen	-7744
▁verbrannt	-7745
▁Aufenthalt	-7746
▁Bemühungen	-7747
▁Geldbeutel	-7748
▁Verzeihung	-7749
▁bescheiden	-7750
▁kennenlern	-7751
▁klassische	-7752
▁mitbringen	-7753
▁schockiert	-7754
▁Brieftasche	-7755
▁beherrschen	-7756
▁Unterhaltung	-7757
▁verschwenden	-7758
beg	-7759
tür	-7760
▁Ap	-7761
▁ur	-7762
eits	-7763
elen	-7764
hige	-7765
vest	-7766
▁500	-7767
▁Les	-7768
▁Wär	-7769
▁med	-7770
bäume	-7771
lampe	-7772
szeit	-7773
unkte	-7774
▁Isst	-7775
▁Kate	-7776
▁Sack	-7777
▁Szen	-7778
▁baut	-7779
▁biss	-7780
▁ward	-7781
andern	-7782
bereit	-7783
gelegt	-7784
habend	-7785
regend	-7786
uadrat	-7787
▁Endes	-7788
▁Faust	-7789
▁Kreuz	-7790
▁Küste	-7791
▁Leist	-7792
▁rüber	-7793
▁schäd	-7794
brecher	-7795
osition	-7796
stützen	-7797
▁Gewehr	-7798
▁Hätten	-7799
▁Norden	-7800
▁Schere	-7801
▁Stärke	-7802
▁Videos	-7803
▁erlebt	-7804
▁europä	-7805
▁füllte	-7806
▁inform	-7807
aschinen	-7808
▁Appetit	-7809
▁Heimweh	-7810
▁Schauen	-7811
▁Schwein	-7812
▁Zentime	-7813
▁aufhört	-7814
▁dennoch	-7815
▁dunklen	-7816
▁kümmere	-7817
▁schreit	-7818
ahnsinnig	-7819
vertrauen	-7820
▁Aufnahme	-7821
▁Original	-7822
▁amüsiert	-7823
▁beliebte	-7824
▁benötige	-7825
▁Geschäfte	-7826
▁Nickerchen	-7827
▁beobachten	-7828
▁wohlhabend	-7829
▁zubereitet	-7830
▁Shakespeare	-7831
▁akzeptieren	-7832
▁Griechenland	-7833
▁Möglicherweise	-7834
▁Geschwindigkeit	-7835
Wir	-7836
ari	-7837
tau	-7838
vis	-7839
▁Uk	-7840
▁bü	-7841
▁fa	-7842
▁fe	-7843
▁lü	-7844
anad	-7845
hett	-7846
holz	-7847
kurs	-7848
sage	-7849
▁Arz	-7850
▁Dez	-7851
▁Fak	-7852
▁Hab	-7853
▁Sen	-7854
▁Zut	-7855
▁dep	-7856
▁feu	-7857
ettel	-7858
ettes	-7859
rohte	-7860
schuh	-7861
sätze	-7862
▁Alpt	-7863
▁Ehre	-7864
▁Karr	-7865
▁Schä	-7866
▁Zelt	-7867
▁Züge	-7868
▁grat	-7869
▁oper	-7870
chtete	-7871
nitten	-7872
stunde	-7873
▁Erden	-7874
▁Gabel	-7875
▁Liisa	-7876
▁Sonst	-7877
▁Spion	-7878
▁bedau	-7879
▁erhob	-7880
▁gelau	-7881
▁zwang	-7882
dreißig	-7883
etwegen	-7884
geführt	-7885
▁Glücks	-7886
▁Hammer	-7887
▁Löffel	-7888
▁Mexiko	-7889
▁Orange	-7890
▁Teilen	-7891
▁Türkei	-7892
▁Zuerst	-7893
▁backen	-7894
▁beißen	-7895
▁freien	-7896
▁golden	-7897
▁meiste	-7898
▁verfüg	-7899
▁wenden	-7900
allergie	-7901
benteuer	-7902
schlafen	-7903
▁Anwesen	-7904
▁Befehle	-7905
▁Darüber	-7906
▁Schnell	-7907
▁beeinfl	-7908
▁besuche	-7909
▁ergeben	-7910
▁erwider	-7911
▁gehofft	-7912
▁gesamte	-7913
▁klingen	-7914
▁nutzlos	-7915
▁schwieg	-7916
▁zuletzt	-7917
▁Brauchst	-7918
▁Bücherei	-7919
▁Dezember	-7920
▁Einbruch	-7921
▁Ereignis	-7922
▁Funktion	-7923
▁Hinsicht	-7924
▁Umgebung	-7925
▁begannen	-7926
▁genossen	-7927
▁hübscher	-7928
▁schaffte	-7929
▁seltsame	-7930
▁verdächt	-7931
▁verwandt	-7932
▁Fahrstuhl	-7933
▁Kommentar	-7934
▁bezüglich	-7935
▁flüsterte	-7936
▁gestochen	-7937
▁schläfrig	-7938
▁verletzte	-7939
▁Atmosphäre	-7940
▁Aussprache	-7941
▁Mitglieder	-7942
▁Ehrlichkeit	-7943
▁Fotoapparat	-7944
▁Klimaanlage	-7945
▁Philosophie	-7946
▁widerstehen	-7947
▁Untersuchung	-7948
▁optimistisch	-7949
▁weitermachen	-7950
▁unzuverlässig	-7951
▁Gebrauchtwagen	-7952
!"	-7953
sä	-7954
eta	-7955
kur	-7956
nte	-7957
reg	-7958
res	-7959
örm	-7960
film	-7961
otiv	-7962
rede	-7963
▁Amt	-7964
▁Aug	-7965
▁Süß	-7966
folge	-7967
organ	-7968
renzt	-7969
stung	-7970
öscht	-7971
▁Beit	-7972
▁Denn	-7973
▁Einw	-7974
▁Faul	-7975
▁Tsch	-7976
▁Wach	-7977
▁West	-7978
▁Wild	-7979
▁bemü	-7980
▁hing	-7981
▁stur	-7982
orenen	-7983
tasche	-7984
wandel	-7985
ämlich	-7986
▁Angel	-7987
▁Bühne	-7988
▁Damen	-7989
▁Jones	-7990
▁Münze	-7991
▁geist	-7992
▁kanad	-7993
▁klang	-7994
▁missb	-7995
▁preis	-7996
▁umher	-7997
mittags	-7998
räglich	-7999
stunden	-8000
▁Bäcker	-8001
▁Feiert	-8002
▁Großbr	-8003
▁Handel	-8004
▁Hühner	-8005
▁Schott	-8006
▁Tempel	-8007
▁Valent	-8008
▁bietet	-8009
▁blühen	-8010
▁daheim	-8011
▁deprim	-8012
▁eingeb	-8013
▁feiern	-8014
▁fütter	-8015
▁histor	-8016
▁schaue	-8017
▁trugen	-8018
▁trägst	-8019
▁vergeb	-8020
▁wandte	-8021
▁wasche	-8022
▁öffnet	-8023
▁überfl	-8024
▁üblich	-8025
zuhalten	-8026
▁Anstren	-8027
▁Betrieb	-8028
▁Brunnen	-8029
▁Harvard	-8030
▁Lichter	-8031
▁Mission	-8032
▁Neugier	-8033
▁Schalte	-8034
▁Schlips	-8035
▁Trinkst	-8036
▁achtzig	-8037
▁geklaut	-8038
▁kontakt	-8039
▁lächelt	-8040
▁reicher	-8041
▁Berliner	-8042
▁Besitzer	-8043
▁Horizont	-8044
▁Picknick	-8045
▁Sekunden	-8046
▁bekommst	-8047
▁kürzlich	-8048
▁sechzehn	-8049
▁zugehört	-8050
▁Parlament	-8051
▁aushalten	-8052
▁keinerlei	-8053
▁Erwachsene	-8054
▁Geschlecht	-8055
▁Verfassung	-8056
▁Zentimeter	-8057
▁aufrichtig	-8058
▁ausdrücken	-8059
▁beschädigt	-8060
▁hinzufügen	-8061
▁regelmäßig	-8062
▁verstorben	-8063
▁wahnsinnig	-8064
verständlich	-8065
wissenschaft	-8066
▁Entwicklung	-8067
▁Olympischen	-8068
▁Verständnis	-8069
▁eingestellt	-8070
▁irgendeinen	-8071
▁geschäftlich	-8072
▁Persönlichkeit	-8073
ln	-8074
äß	-8075
▁0	-8076
bed	-8077
bol	-8078
ego	-8079
ona	-8080
sta	-8081
krie	-8082
llos	-8083
odie	-8084
ollt	-8085
opft	-8086
▁195	-8087
▁Ass	-8088
▁Bud	-8089
▁Dän	-8090
▁Heb	-8091
▁Hen	-8092
▁Ill	-8093
▁Mer	-8094
▁Sex	-8095
▁aut	-8096
▁hei	-8097
▁läu	-8098
▁tör	-8099
ancen	-8100
endes	-8101
iforn	-8102
istin	-8103
itzte	-8104
nisch	-8105
parkt	-8106
steig	-8107
▁Brem	-8108
▁Gere	-8109
▁Kohl	-8110
▁Mist	-8111
▁Zehn	-8112
▁einf	-8113
▁erbl	-8114
▁erkl	-8115
▁legt	-8116
▁seht	-8117
▁span	-8118
▁vorn	-8119
forder	-8120
geschw	-8121
haften	-8122
ington	-8123
schiff	-8124
▁Akten	-8125
▁dicke	-8126
▁lagen	-8127
▁niedr	-8128
▁stahl	-8129
▁wusch	-8130
itation	-8131
scheibe	-8132
zusagen	-8133
▁Einmal	-8134
▁Felsen	-8135
▁Flagge	-8136
▁Gewinn	-8137
▁Kindes	-8138
▁Scheun	-8139
▁Schock	-8140
▁bieten	-8141
▁ehrgei	-8142
▁erhält	-8143
▁wahren	-8144
eidigung	-8145
geschenk	-8146
radition	-8147
▁Ausflug	-8148
▁Letztes	-8149
▁Meeting	-8150
▁Seitdem	-8151
▁gemocht	-8152
▁geparkt	-8153
▁gestand	-8154
▁illegal	-8155
▁schmutz	-8156
▁seitdem	-8157
▁Ewigkeit	-8158
▁Rucksack	-8159
▁Unschuld	-8160
▁abhalten	-8161
▁ernähren	-8162
▁erschien	-8163
▁fröhlich	-8164
▁schießen	-8165
▁schnelle	-8166
▁unsicher	-8167
▁Bauernhof	-8168
▁Christoph	-8169
▁Schublade	-8170
▁Skifahren	-8171
▁Zwillings	-8172
▁abgereist	-8173
▁befördert	-8174
▁begleitet	-8175
▁fernsehen	-8176
▁Eigentlich	-8177
▁Oberschule	-8178
▁sicherlich	-8179
▁vergeblich	-8180
▁versuchten	-8181
▁verwickelt	-8182
▁beschreiben	-8183
▁entsprechen	-8184
▁entschuldigt	-8185
▁nachzudenken	-8186
▁konzentrieren	-8187
▁versehentlich	-8188
▁Großbritannien	-8189
ca	-8190
ua	-8191
Von	-8192
ags	-8193
aka	-8194
han	-8195
iat	-8196
mod	-8197
our	-8198
ürf	-8199
▁Äu	-8200
anze	-8201
coln	-8202
ebru	-8203
fang	-8204
imon	-8205
inke	-8206
wald	-8207
woch	-8208
▁Res	-8209
▁krä	-8210
fähig	-8211
holte	-8212
hörst	-8213
ruder	-8214
werke	-8215
▁Frie	-8216
▁Komp	-8217
▁Lieb	-8218
▁Pomm	-8219
▁Spag	-8220
leiter	-8221
nummer	-8222
ändler	-8223
▁Adler	-8224
▁Außen	-8225
▁Osten	-8226
▁Pilot	-8227
▁Wüste	-8228
▁braun	-8229
▁dürfe	-8230
▁fange	-8231
▁Äußer	-8232
amerika	-8233
eignete	-8234
ichtete	-8235
verkehr	-8236
▁Antrag	-8237
▁Haaren	-8238
▁Haltet	-8239
▁Holmes	-8240
▁Minder	-8241
▁Modell	-8242
▁Wortes	-8243
▁ausgeb	-8244
▁bedarf	-8245
▁dunkle	-8246
▁erbaut	-8247
▁hilfst	-8248
▁verblü	-8249
handlung	-8250
rechnung	-8251
▁Dutzend	-8252
▁Hattest	-8253
▁Lincoln	-8254
▁Schrank	-8255
▁dadurch	-8256
▁daneben	-8257
▁erfährt	-8258
▁gefolgt	-8259
▁gelaunt	-8260
▁rasiert	-8261
▁Überall	-8262
eindruckt	-8263
▁Aufgrund	-8264
▁Einstein	-8265
▁Erwägung	-8266
▁National	-8267
▁Spaghett	-8268
▁erwachte	-8269
▁gesamten	-8270
antastisch	-8271
freundlich	-8272
▁Abendbrot	-8273
▁Katastrop	-8274
▁amüsieren	-8275
▁brauchten	-8276
▁erwiderte	-8277
▁gegründet	-8278
▁geschneit	-8279
▁schliefen	-8280
▁unterstüt	-8281
▁Überleben	-8282
▁Autofahren	-8283
▁Buchstaben	-8284
▁Entdeckung	-8285
▁Entschluss	-8286
▁Erinnerung	-8287
▁Gewohnheit	-8288
▁Landschaft	-8289
▁Ratschläge	-8290
▁aufgeräumt	-8291
▁entspannen	-8292
▁verschoben	-8293
▁verzichten	-8294
▁zahlreiche	-8295
▁übernehmen	-8296
▁Verabredung	-8297
▁stattfinden	-8298
▁Jahrhunderts	-8299
▁unterstützen	-8300
▁fotografieren	-8301
▁verschiedenen	-8302
▁hierhergekommen	-8303
sh	-8304
ada	-8305
ara	-8306
bot	-8307
seh	-8308
öte	-8309
atze	-8310
bank	-8311
eife	-8312
iens	-8313
igur	-8314
izen	-8315
lein	-8316
▁Bon	-8317
▁Hof	-8318
▁Tal	-8319
▁Tex	-8320
▁blö	-8321
▁ego	-8322
Spiel	-8323
asser	-8324
inkel	-8325
ippen	-8326
menge	-8327
ostüm	-8328
rustr	-8329
räter	-8330
utete	-8331
ühlen	-8332
▁Gent	-8333
▁Mäus	-8334
▁Saft	-8335
▁Tank	-8336
▁eint	-8337
▁komp	-8338
▁mass	-8339
ebruar	-8340
elativ	-8341
ennung	-8342
kosten	-8343
publik	-8344
ümmert	-8345
▁Ampel	-8346
▁Instr	-8347
▁Linda	-8348
▁Titel	-8349
▁Wolke	-8350
▁Womit	-8351
▁Wände	-8352
▁einig	-8353
▁löste	-8354
▁sicht	-8355
▁singe	-8356
erseits	-8357
ikation	-8358
jenigen	-8359
sterben	-8360
verschm	-8361
viertel	-8362
▁August	-8363
▁Behand	-8364
▁Darauf	-8365
▁Frisur	-8366
▁Hotels	-8367
▁Markku	-8368
▁Plätze	-8369
▁Pommes	-8370
▁Posten	-8371
▁Spitze	-8372
▁Stille	-8373
▁Tanzen	-8374
▁angeht	-8375
▁aufgeb	-8376
▁fließt	-8377
▁nahezu	-8378
▁pflück	-8379
▁treibt	-8380
▁wärmer	-8381
▁Europas	-8382
▁Februar	-8383
▁Schreck	-8384
▁Spricht	-8385
▁Vorhang	-8386
▁ergriff	-8387
▁gefehlt	-8388
▁jüngere	-8389
▁stehlen	-8390
▁stoppen	-8391
▁versamm	-8392
leichtert	-8393
▁Freundes	-8394
▁Karriere	-8395
▁Mahlzeit	-8396
▁Unwissen	-8397
▁Valentin	-8398
▁Werkzeug	-8399
▁anhalten	-8400
▁besitzen	-8401
▁springen	-8402
▁überlebt	-8403
unddreißig	-8404
▁Tatsachen	-8405
▁bewundere	-8406
▁großzügig	-8407
▁ärgerlich	-8408
▁Wettbewerb	-8409
▁abgefahren	-8410
▁freiwillig	-8411
▁großartige	-8412
▁unabhängig	-8413
▁Haltestelle	-8414
▁chinesische	-8415
▁erleichtert	-8416
▁unzufrieden	-8417
▁verwechselt	-8418
▁schreckliche	-8419
▁interessanter	-8420
▁Kugelschreiber	-8421
je	-8422
chn	-8423
ump	-8424
ura	-8425
zip	-8426
ämm	-8427
▁Py	-8428
kord	-8429
mach	-8430
plod	-8431
tert	-8432
▁Caf	-8433
▁Log	-8434
▁Lux	-8435
▁Pir	-8436
▁Sem	-8437
▁ruf	-8438
▁zus	-8439
eiger	-8440
eldet	-8441
ielte	-8442
iland	-8443
leman	-8444
ollen	-8445
▁Deck	-8446
▁Maße	-8447
▁Trag	-8448
▁Wash	-8449
▁klat	-8450
atisch	-8451
eltern	-8452
gefühl	-8453
hängig	-8454
iellen	-8455
ograph	-8456
präche	-8457
strafe	-8458
stände	-8459
sweise	-8460
wörter	-8461
▁Denkt	-8462
▁Gehör	-8463
▁Rache	-8464
▁Zivil	-8465
▁echte	-8466
▁gemüt	-8467
▁haupt	-8468
▁jenen	-8469
▁lande	-8470
▁trock	-8471
▁unert	-8472
▁unvor	-8473
gericht	-8474
schüler	-8475
underte	-8476
▁Beinen	-8477
▁Fakten	-8478
▁Finden	-8479
▁Heraus	-8480
▁Leiche	-8481
▁Sowjet	-8482
▁Wagens	-8483
▁aufgef	-8484
▁dankte	-8485
▁dritte	-8486
▁erholt	-8487
▁freute	-8488
▁lecker	-8489
▁stritt	-8490
▁träume	-8491
eindruck	-8492
schieden	-8493
ücksicht	-8494
▁Gesetze	-8495
▁Kapitel	-8496
▁Kirchen	-8497
▁Partner	-8498
▁Verhält	-8499
▁bestimm	-8500
▁küssten	-8501
▁riechen	-8502
▁riesige	-8503
▁setzten	-8504
▁solcher	-8505
gewichtig	-8506
▁Anspruch	-8507
▁Kollegen	-8508
▁Taschent	-8509
▁Umschlag	-8510
▁Verräter	-8511
▁entgehen	-8512
▁getreten	-8513
▁perfekte	-8514
▁traurige	-8515
▁Diamanten	-8516
▁Gentleman	-8517
▁Medikamen	-8518
▁Millionär	-8519
▁aussuchen	-8520
▁begreifen	-8521
▁erinnerst	-8522
▁erinnerte	-8523
▁kostenlos	-8524
▁verhalten	-8525
▁Passagiere	-8526
▁Rechnungen	-8527
▁einstellen	-8528
▁gescheiter	-8529
▁hinzugehen	-8530
▁Einstellung	-8531
▁Taschenlampe	-8532
▁Vorsitzenden	-8533
▁Nachbarschaft	-8534
▁Sonnensystems	-8535
▁französischen	-8536
▁Freundlichkeit	-8537
kr	-8538
kw	-8539
Ist	-8540
die	-8541
euf	-8542
tun	-8543
▁1,	-8544
▁21	-8545
anda	-8546
enus	-8547
igem	-8548
inat	-8549
onne	-8550
▁Abt	-8551
▁Kle	-8552
▁Urt	-8553
▁beu	-8554
▁sex	-8555
aturn	-8556
atzen	-8557
ehmer	-8558
gläub	-8559
lügen	-8560
obert	-8561
pften	-8562
räche	-8563
räume	-8564
schul	-8565
örung	-8566
▁Lern	-8567
▁Lohn	-8568
▁Raus	-8569
▁Such	-8570
▁bekl	-8571
▁erhe	-8572
▁goss	-8573
▁reif	-8574
▁sonn	-8575
▁sozi	-8576
anders	-8577
aurier	-8578
größte	-8579
halter	-8580
irsich	-8581
omaten	-8582
raußen	-8583
▁Bauer	-8584
▁Brown	-8585
▁Daran	-8586
▁Fähig	-8587
▁Hörst	-8588
▁Maler	-8589
▁Plast	-8590
▁Weder	-8591
▁Woran	-8592
▁anger	-8593
▁beten	-8594
▁defin	-8595
▁heben	-8596
▁schlu	-8597
▁stock	-8598
▁train	-8599
▁verpf	-8600
▁änder	-8601
izieren	-8602
schicht	-8603
▁Berges	-8604
▁Bundes	-8605
▁Daumen	-8606
▁Flucht	-8607
▁Münzen	-8608
▁Saturn	-8609
▁Vorles	-8610
▁Worauf	-8611
▁dummen	-8612
▁fühlst	-8613
▁haltet	-8614
▁kalten	-8615
▁kurzem	-8616
▁körper	-8617
▁merkte	-8618
▁moment	-8619
▁vergif	-8620
gleichen	-8621
volution	-8622
ämtliche	-8623
ätestens	-8624
▁Abstand	-8625
▁Ausgang	-8626
▁Schulen	-8627
▁Sendung	-8628
▁besetzt	-8629
▁protest	-8630
▁schlägt	-8631
▁tauchte	-8632
▁Autobahn	-8633
▁Besucher	-8634
▁Einkaufs	-8635
▁bewahren	-8636
▁geflogen	-8637
▁serviert	-8638
▁Abenteuer	-8639
▁Fähigkeit	-8640
▁Parkplatz	-8641
▁Schildkrö	-8642
▁behaupten	-8643
▁bewundern	-8644
▁entdeckte	-8645
▁erscheint	-8646
▁gewachsen	-8647
▁hingelegt	-8648
▁umzugehen	-8649
▁versuchst	-8650
▁zuzugeben	-8651
▁Videospiel	-8652
▁Washington	-8653
▁aufbrechen	-8654
▁beeindruck	-8655
▁reserviert	-8656
▁vorgestern	-8657
▁übermorgen	-8658
▁Fähigkeiten	-8659
▁Mittelpunkt	-8660
▁verteidigen	-8661
▁Straßenseite	-8662
▁Valentinstag	-8663
▁öffentlichen	-8664
▁Tennisspieler	-8665
▁durcheinander	-8666
▁übergewichtig	-8667
▁Eintrittskarte	-8668
▁Geschäftsführer	-8669
Er	-8670
Mar	-8671
fle	-8672
osh	-8673
pfe	-8674
top	-8675
▁As	-8676
▁Ed	-8677
crem	-8678
gibt	-8679
ikas	-8680
mond	-8681
phin	-8682
rebs	-8683
ware	-8684
▁...	-8685
▁Alt	-8686
▁Box	-8687
▁Ess	-8688
▁Kei	-8689
▁Sep	-8690
▁heu	-8691
▁jog	-8692
▁kal	-8693
▁trö	-8694
▁umk	-8695
▁zun	-8696
andet	-8697
angst	-8698
decke	-8699
diger	-8700
emark	-8701
ffnen	-8702
halle	-8703
ielle	-8704
itekt	-8705
perte	-8706
spart	-8707
ächen	-8708
ärmen	-8709
ünden	-8710
▁Betr	-8711
▁Eins	-8712
▁Ente	-8713
▁Säug	-8714
▁gift	-8715
▁grie	-8716
▁jahr	-8717
▁real	-8718
▁sähe	-8719
▁trag	-8720
▁witz	-8721
anfall	-8722
drückt	-8723
etisch	-8724
ierend	-8725
▁Dinos	-8726
▁Hütte	-8727
▁Journ	-8728
▁Kerze	-8729
▁Motiv	-8730
▁Mütze	-8731
▁Taxif	-8732
▁Train	-8733
▁arrog	-8734
▁atmen	-8735
▁baten	-8736
▁irren	-8737
▁koche	-8738
▁nette	-8739
▁schob	-8740
▁zahlt	-8741
ansport	-8742
erkannt	-8743
urteile	-8744
▁Firmen	-8745
▁Fliege	-8746
▁Griech	-8747
▁Kandid	-8748
▁Korrig	-8749
▁Schein	-8750
▁Schlie	-8751
▁Tanaka	-8752
▁Zeilen	-8753
▁explod	-8754
▁frisst	-8755
▁grünen	-8756
▁heftig	-8757
▁rechte	-8758
etzungen	-8759
icherung	-8760
▁Diamant	-8761
▁Entfern	-8762
▁Fremder	-8763
▁Melodie	-8764
▁Postamt	-8765
▁Schließ	-8766
▁Sprecht	-8767
▁belügen	-8768
▁einiger	-8769
▁könntet	-8770
▁mittler	-8771
▁umarmte	-8772
▁vermute	-8773
▁weitaus	-8774
▁älterer	-8775
serhöhung	-8776
▁Außerird	-8777
▁Brauchen	-8778
▁Kaliforn	-8779
▁Passwort	-8780
▁Teleskop	-8781
▁Zwiebeln	-8782
▁abhängig	-8783
▁brachten	-8784
▁fürchter	-8785
▁gelöscht	-8786
▁getragen	-8787
▁herauszu	-8788
▁imstande	-8789
▁momentan	-8790
▁schmerzt	-8791
▁siebzehn	-8792
▁versäumt	-8793
wohnheiten	-8794
▁Dachboden	-8795
▁Hamburger	-8796
▁Ingenieur	-8797
▁Problemen	-8798
▁angeklagt	-8799
▁besuchten	-8800
▁beteiligt	-8801
▁verlangte	-8802
▁verändern	-8803
▁übergeben	-8804
▁Intelligen	-8805
▁Verbrecher	-8806
▁Versuchung	-8807
▁Wichtigste	-8808
▁deprimiert	-8809
▁kritisiert	-8810
▁Astronauten	-8811
▁Restaurants	-8812
▁versprechen	-8813
▁unbeeindruckt	-8814
▁Gehaltserhöhung	-8815
",	-8816
2.	-8817
mt	-8818
Ach	-8819
ake	-8820
ami	-8821
ign	-8822
rax	-8823
uko	-8824
ule	-8825
ünd	-8826
Bist	-8827
eres	-8828
fünf	-8829
hose	-8830
imen	-8831
itam	-8832
klei	-8833
stre	-8834
uitt	-8835
wach	-8836
örse	-8837
öser	-8838
▁And	-8839
▁Anh	-8840
▁Gri	-8841
▁Han	-8842
▁Opa	-8843
▁Ser	-8844
▁Tät	-8845
▁pos	-8846
▁spu	-8847
▁übt	-8848
agten	-8849
bares	-8850
ianer	-8851
istan	-8852
lungs	-8853
reide	-8854
äumen	-8855
▁Beer	-8856
▁Böse	-8857
▁Club	-8858
▁Drin	-8859
▁Klin	-8860
▁Lebe	-8861
▁Mehl	-8862
▁Reiß	-8863
▁Steu	-8864
▁Tüte	-8865
▁Wale	-8866
▁glän	-8867
▁läng	-8868
▁prof	-8869
anisch	-8870
hängen	-8871
kräfte	-8872
liehen	-8873
messer	-8874
reckte	-8875
schrau	-8876
straße	-8877
▁Alice	-8878
▁Georg	-8879
▁Helen	-8880
▁Jäger	-8881
▁Kunde	-8882
▁Leder	-8883
▁Nüsse	-8884
▁Papst	-8885
▁Passt	-8886
▁Statt	-8887
▁Typen	-8888
▁Venus	-8889
▁angef	-8890
▁bewöl	-8891
▁glatt	-8892
▁rennt	-8893
▁scher	-8894
gezogen	-8895
indlich	-8896
ätzlich	-8897
▁Allein	-8898
▁Chines	-8899
▁Hältst	-8900
▁Metall	-8901
▁Narren	-8902
▁Schall	-8903
▁Spielt	-8904
▁Spinat	-8905
▁Spinne	-8906
▁Statue	-8907
▁Taninn	-8908
▁Tieren	-8909
▁Wangen	-8910
▁Weizen	-8911
▁Zugang	-8912
▁begrei	-8913
▁garant	-8914
▁vieler	-8915
▁warnte	-8916
▁zeitig	-8917
▁ärgern	-8918
▁Flammen	-8919
▁Hallowe	-8920
▁Haustür	-8921
▁Märchen	-8922
▁Reichen	-8923
▁bedient	-8924
▁befolgt	-8925
▁benimmt	-8926
▁erzähle	-8927
▁gestört	-8928
▁reizend	-8929
▁sowieso	-8930
▁sympath	-8931
▁wenigen	-8932
▁älteste	-8933
▁Dänemark	-8934
▁Freiwill	-8935
▁Kenntnis	-8936
▁Pfirsich	-8937
▁Teilzeit	-8938
▁Vorteile	-8939
▁anfassen	-8940
▁berühren	-8941
▁erfüllen	-8942
▁frischer	-8943
▁gemeldet	-8944
▁komplett	-8945
▁mehrmals	-8946
▁ruiniert	-8947
wirtschaft	-8948
▁Versprich	-8949
▁Wichtiges	-8950
▁adoptiert	-8951
▁errichtet	-8952
▁kommenden	-8953
▁verdiente	-8954
▁Ausbildung	-8955
▁Einbrecher	-8956
▁Japanische	-8957
▁Schottland	-8958
▁besprochen	-8959
▁entschloss	-8960
▁existieren	-8961
▁gestritten	-8962
▁Spielsachen	-8963
▁aufgegessen	-8964
▁aufzuhalten	-8965
▁ausreichend	-8966
▁mitgenommen	-8967
▁persönliche	-8968
▁umzubringen	-8969
▁verursachte	-8970
▁unerträglich	-8971
▁Zeitschriften	-8972
▁entschuldigte	-8973
▁hauptsächlich	-8974
▁herausbekommen	-8975
go	-8976
Wer	-8977
ebe	-8978
fol	-8979
gut	-8980
ios	-8981
log	-8982
pfl	-8983
rom	-8984
änn	-8985
▁Rh	-8986
▁iP	-8987
förm	-8988
itär	-8989
lohn	-8990
omie	-8991
onto	-8992
sant	-8993
seln	-8994
stau	-8995
tens	-8996
ärbt	-8997
▁Bär	-8998
▁Hem	-8999
▁Jün	-9000
▁Mad	-9001
▁Ost	-9002
▁Tab	-9003
▁nah	-9004
alier	-9005
derte	-9006
ement	-9007
kampf	-9008
kennt	-9009
loser	-9010
meckt	-9011
opfen	-9012
raxis	-9013
schau	-9014
urzel	-9015
ürtel	-9016
▁Dick	-9017
▁Güte	-9018
▁Helm	-9019
▁Maul	-9020
▁Strö	-9021
▁Teig	-9022
▁fair	-9023
▁kind	-9024
▁süße	-9025
blumen	-9026
dungen	-9027
farben	-9028
futter	-9029
gültig	-9030
istenz	-9031
onisch	-9032
papier	-9033
plomat	-9034
ptisch	-9035
schuss	-9036
▁Achte	-9037
▁Entsp	-9038
▁Fleck	-9039
▁Klang	-9040
▁Stamm	-9041
▁Toten	-9042
▁eilte	-9043
▁eröff	-9044
▁jagen	-9045
▁künst	-9046
▁lasst	-9047
▁neigt	-9048
▁offiz	-9049
▁tolle	-9050
jährige	-9051
mischen	-9052
sichtig	-9053
zahlung	-9054
▁Altern	-9055
▁Bedürf	-9056
▁Bergen	-9057
▁Findet	-9058
▁Gehört	-9059
▁Haufen	-9060
▁Objekt	-9061
▁Region	-9062
▁Sowohl	-9063
▁Untert	-9064
▁Verges	-9065
▁Westen	-9066
▁Wünsch	-9067
▁dürfte	-9068
▁frustr	-9069
▁pflanz	-9070
▁tanzte	-9071
▁vertie	-9072
schaffen	-9073
sprecher	-9074
▁Delphin	-9075
▁Diesmal	-9076
▁Draußen	-9077
▁Drittel	-9078
▁Hundert	-9079
▁Notfall	-9080
▁Zentrum	-9081
▁ankommt	-9082
▁bewegte	-9083
▁bezahle	-9084
▁dringen	-9085
▁gelingt	-9086
▁genauer	-9087
▁löschen	-9088
▁vergeht	-9089
▁verriet	-9090
▁Argument	-9091
▁Nächsten	-9092
▁Rettungs	-9093
▁Zitronen	-9094
▁andauern	-9095
▁handelte	-9096
▁schuldet	-9097
▁vergesse	-9098
▁woanders	-9099
▁Eisenbahn	-9100
▁Italiener	-9101
▁Portugies	-9102
▁September	-9103
▁aufmachen	-9104
▁ertrunken	-9105
▁gründlich	-9106
▁letztlich	-9107
▁seltsamen	-9108
▁studierte	-9109
▁übersehen	-9110
▁Donnerstag	-9111
▁Innenstadt	-9112
▁Jahreszeit	-9113
▁entwickelt	-9114
▁schüttelte	-9115
▁wirtschaft	-9116
▁Beschwerden	-9117
▁Intelligenz	-9118
▁Medikamente	-9119
▁Mitarbeiter	-9120
▁Sonnenlicht	-9121
▁glückliches	-9122
▁verbrachten	-9123
▁zehntausend	-9124
▁zurückrufen	-9125
verschmutzung	-9126
▁Krankenwagen	-9127
▁durchschnitt	-9128
▁unfreundlich	-9129
geschwindigkeit	-9130
cho	-9131
iti	-9132
kar	-9133
maß	-9134
ori	-9135
rät	-9136
szu	-9137
uft	-9138
ymn	-9139
ehre	-9140
habe	-9141
iche	-9142
offe	-9143
otto	-9144
wahl	-9145
öses	-9146
ütig	-9147
▁Frö	-9148
▁Imm	-9149
▁Jen	-9150
▁Lap	-9151
▁Lkw	-9152
▁ide	-9153
▁jeg	-9154
▁sal	-9155
atell	-9156
brett	-9157
feuer	-9158
gnete	-9159
otter	-9160
reite	-9161
yball	-9162
ystem	-9163
▁Alib	-9164
▁Dreh	-9165
▁Lucy	-9166
▁Seht	-9167
▁Zwer	-9168
▁enth	-9169
▁gekl	-9170
▁kitz	-9171
▁neid	-9172
▁schä	-9173
brannt	-9174
gehend	-9175
zettel	-9176
zieher	-9177
▁Album	-9178
▁Denke	-9179
▁Krach	-9180
▁Kreis	-9181
▁Linie	-9182
▁Optim	-9183
▁Rente	-9184
▁Tinte	-9185
▁White	-9186
▁Zeich	-9187
▁deins	-9188
▁dreck	-9189
▁endet	-9190
▁fremd	-9191
▁gramm	-9192
▁hinab	-9193
▁voran	-9194
▁zeige	-9195
▁Ärmel	-9196
geladen	-9197
prungen	-9198
spiegel	-9199
station	-9200
wortete	-9201
▁Bezieh	-9202
▁Chemie	-9203
▁Lieben	-9204
▁Lieber	-9205
▁Läufer	-9206
▁Mücken	-9207
▁Sohnes	-9208
▁Terror	-9209
▁Tänzer	-9210
▁Vulkan	-9211
▁Wartet	-9212
▁Ziegen	-9213
▁beläst	-9214
▁bewaff	-9215
▁erlitt	-9216
▁jahrel	-9217
▁neigen	-9218
▁reiten	-9219
▁schmal	-9220
▁stehst	-9221
▁tötete	-9222
▁untern	-9223
▁winkte	-9224
▁wählte	-9225
kalender	-9226
richtung	-9227
▁Behalte	-9228
▁Bruders	-9229
▁Gruppen	-9230
▁Irgendw	-9231
▁Leitung	-9232
▁Vorwurf	-9233
▁Wechsel	-9234
▁entfern	-9235
▁hiervon	-9236
▁kompliz	-9237
▁müssten	-9238
▁schätzt	-9239
▁Alphabet	-9240
▁Gerüchte	-9241
▁Manieren	-9242
▁Mittwoch	-9243
▁Norwegen	-9244
▁Stimmung	-9245
▁Zauberer	-9246
▁begrüßte	-9247
▁entführt	-9248
▁erforder	-9249
▁gewissen	-9250
▁offenbar	-9251
▁rutschte	-9252
▁schauten	-9253
▁Dokumente	-9254
▁Gemeinsam	-9255
▁Hauptfach	-9256
▁Meinungen	-9257
▁Schweizer	-9258
▁Spaghetti	-9259
▁Unmöglich	-9260
▁demselben	-9261
▁folgenden	-9262
▁reichlich	-9263
eingenommen	-9264
▁anstrengen	-9265
▁aufgewacht	-9266
▁entspricht	-9267
▁heirateten	-9268
▁hinterließ	-9269
▁Briefkasten	-9270
▁Dinosaurier	-9271
▁Kalifornien	-9272
▁berücksicht	-9273
▁gelangweilt	-9274
▁unterrichte	-9275
▁Leidenschaft	-9276
▁Organisation	-9277
▁ausgestattet	-9278
▁beabsichtigt	-9279
▁beizubringen	-9280
▁irgendjemand	-9281
▁Kommunikation	-9282
▁Missverständnis	-9283
Der	-9284
cch	-9285
int	-9286
ong	-9287
ral	-9288
see	-9289
unt	-9290
xid	-9291
▁Kö	-9292
▁Os	-9293
▁Äl	-9294
beam	-9295
deln	-9296
denk	-9297
kern	-9298
lege	-9299
oper	-9300
rein	-9301
rott	-9302
räge	-9303
site	-9304
spar	-9305
umpf	-9306
▁Kas	-9307
▁Kro	-9308
▁Pfe	-9309
▁Rab	-9310
▁Wik	-9311
athon	-9312
atzte	-9313
essim	-9314
resse	-9315
udeln	-9316
äuber	-9317
ürger	-9318
▁Alex	-9319
▁Anna	-9320
▁Guck	-9321
▁Puls	-9322
▁Schi	-9323
▁ausf	-9324
▁beit	-9325
▁entz	-9326
▁nimm	-9327
▁umzu	-9328
ativen	-9329
fehler	-9330
melade	-9331
rohung	-9332
sprung	-9333
weilen	-9334
äbchen	-9335
üllung	-9336
▁Babys	-9337
▁Datum	-9338
▁Galax	-9339
▁Große	-9340
▁Ihres	-9341
▁Kasse	-9342
▁Kater	-9343
▁Leine	-9344
▁Nägel	-9345
▁Seife	-9346
▁Vitam	-9347
▁Werke	-9348
▁Wette	-9349
▁Wohnt	-9350
▁baute	-9351
▁bösen	-9352
▁gepfl	-9353
▁sitze	-9354
▁wofür	-9355
gelesen	-9356
ierende	-9357
kstraße	-9358
riester	-9359
santrag	-9360
▁Alters	-9361
▁Andere	-9362
▁Banane	-9363
▁Bringt	-9364
▁Dolmet	-9365
▁Feiern	-9366
▁Finanz	-9367
▁Forder	-9368
▁Husten	-9369
▁Liebst	-9370
▁Moskau	-9371
▁Reserv	-9372
▁Schwer	-9373
▁Suchen	-9374
▁aussah	-9375
▁einger	-9376
▁fielen	-9377
▁fänden	-9378
▁griech	-9379
▁habest	-9380
▁hängte	-9381
▁längst	-9382
▁mittel	-9383
▁sterbe	-9384
▁vermis	-9385
▁ärgert	-9386
kompeten	-9387
▁Freuden	-9388
▁Korrekt	-9389
▁Risiken	-9390
▁Sollten	-9391
▁Steuern	-9392
▁Stimmen	-9393
▁Technik	-9394
▁Warnung	-9395
▁begeben	-9396
▁benannt	-9397
▁bewölkt	-9398
▁erstaun	-9399
▁gereist	-9400
▁heutige	-9401
▁schämen	-9402
▁trennen	-9403
▁verhung	-9404
▁wischte	-9405
▁Karotten	-9406
▁Scheiben	-9407
▁Schritte	-9408
▁Vergesst	-9409
▁Versteck	-9410
▁aufgesch	-9411
▁ausgeben	-9412
▁begegnen	-9413
▁benutzte	-9414
▁bestürzt	-9415
▁errötete	-9416
▁erwähnen	-9417
▁geraucht	-9418
▁neidisch	-9419
▁schwimme	-9420
▁weiteres	-9421
zusprechen	-9422
▁Diebstahl	-9423
▁Irgendwas	-9424
▁Maschinen	-9425
▁Ratschlag	-9426
▁Toiletten	-9427
▁auskommen	-9428
▁ausziehen	-9429
▁beruhigen	-9430
▁ehrgeizig	-9431
▁erwischen	-9432
▁herrschte	-9433
▁hilfreich	-9434
▁richtiger	-9435
▁vorkommen	-9436
▁Gefangenen	-9437
▁Parkstraße	-9438
▁Vorurteile	-9439
▁angewiesen	-9440
▁ausgeführt	-9441
▁beleidigen	-9442
▁bewusstlos	-9443
▁gewechselt	-9444
▁spätestens	-9445
▁verbreitet	-9446
▁wählerisch	-9447
▁zugestoßen	-9448
▁Übersetzer	-9449
▁Anscheinend	-9450
▁Taschentuch	-9451
▁beobachtete	-9452
▁einschlafen	-9453
▁geschwommen	-9454
▁verschlafen	-9455
▁zurückkommt	-9456
▁Erinnerungen	-9457
▁ausprobieren	-9458
▁vorbeikommen	-9459
▁Arbeitsstelle	-9460
bi	-9461
Auf	-9462
emp	-9463
nig	-9464
rak	-9465
ähm	-9466
▁Fo	-9467
▁mä	-9468
bett	-9469
brau	-9470
folg	-9471
ilch	-9472
köpf	-9473
leit	-9474
mehr	-9475
älen	-9476
ückt	-9477
▁Dra	-9478
▁Kum	-9479
▁Vom	-9480
▁Zir	-9481
▁Zun	-9482
▁anh	-9483
▁ske	-9484
creme	-9485
frist	-9486
igten	-9487
krank	-9488
kraut	-9489
liebe	-9490
recke	-9491
weite	-9492
▁Esel	-9493
▁Prüf	-9494
▁Trut	-9495
▁band	-9496
▁plus	-9497
▁priv	-9498
aubern	-9499
deutig	-9500
drehen	-9501
mantel	-9502
räisch	-9503
ärchen	-9504
▁Alibi	-9505
▁Aller	-9506
▁Bombe	-9507
▁Ebend	-9508
▁Logik	-9509
▁Miner	-9510
▁Musst	-9511
▁Sieht	-9512
▁Steak	-9513
▁Wärme	-9514
▁lebst	-9515
▁lehrt	-9516
▁meist	-9517
▁nacht	-9518
▁sanft	-9519
▁tritt	-9520
▁woran	-9521
▁zogen	-9522
bericht	-9523
dienung	-9524
ierungs	-9525
rechner	-9526
stimmen	-9527
ulieren	-9528
▁Bedarf	-9529
▁Bergst	-9530
▁Eigent	-9531
▁Fleder	-9532
▁Frosch	-9533
▁Gegner	-9534
▁Glocke	-9535
▁Inhalt	-9536
▁Kohlen	-9537
▁Laptop	-9538
▁Leicht	-9539
▁Mayuko	-9540
▁Namens	-9541
▁Result	-9542
▁Robert	-9543
▁Satell	-9544
▁Steine	-9545
▁Versch	-9546
▁Wander	-9547
▁Würdet	-9548
▁Zeugen	-9549
▁allgem	-9550
▁benach	-9551
▁blaues	-9552
▁einges	-9553
▁feucht	-9554
▁hierzu	-9555
▁rauche	-9556
▁unverm	-9557
▁vollem	-9558
▁zahlte	-9559
gespräch	-9560
▁Anfangs	-9561
▁Annahme	-9562
▁Aussage	-9563
▁Bereich	-9564
▁Braucht	-9565
▁Elektro	-9566
▁Erzähle	-9567
▁Gründen	-9568
▁Himmels	-9569
▁Notizen	-9570
▁Platten	-9571
▁Schlitt	-9572
▁Website	-9573
▁Wetters	-9574
▁Wussten	-9575
▁automat	-9576
▁benötig	-9577
▁durchge	-9578
▁entsetz	-9579
▁erkenne	-9580
▁führten	-9581
▁gefreut	-9582
▁gefärbt	-9583
▁getanzt	-9584
▁gewollt	-9585
▁landete	-9586
▁meldete	-9587
▁nannten	-9588
▁schwöre	-9589
▁stellst	-9590
▁ungesch	-9591
legenheit	-9592
schrauber	-9593
wirkungen	-9594
▁Konzentr	-9595
▁Mehrheit	-9596
▁Personal	-9597
▁Umstände	-9598
▁Versagen	-9599
▁arrogant	-9600
▁bedauern	-9601
▁bedienen	-9602
▁beträcht	-9603
▁durchaus	-9604
▁erzählst	-9605
▁gelangen	-9606
▁gelingen	-9607
▁kleinste	-9608
▁letztens	-9609
▁verschüt	-9610
▁zeichnen	-9611
▁zerbrach	-9612
▁Blutdruck	-9613
▁Buchladen	-9614
▁Nachbarin	-9615
▁Notizbuch	-9616
▁Verstehen	-9617
▁Vorlesung	-9618
▁berühmten	-9619
▁ereignete	-9620
▁loswerden	-9621
▁rausgehen	-9622
▁skeptisch	-9623
▁verpasste	-9624
▁verwundet	-9625
▁verziehen	-9626
▁zumindest	-9627
▁Beerdigung	-9628
▁Kofferraum	-9629
▁Kommentare	-9630
▁Schneemann	-9631
▁Wasserhahn	-9632
▁erschreckt	-9633
▁überwinden	-9634
▁Beziehungen	-9635
▁Fortschritt	-9636
▁Heimatstadt	-9637
▁Wasserstoff	-9638
▁aufzupassen	-9639
▁hergekommen	-9640
▁nachmittags	-9641
▁politischen	-9642
▁zweihundert	-9643
▁Herausforder	-9644
▁Unwissenheit	-9645
▁Vorstellungs	-9646
▁Zusammenhang	-9647
▁abzuschicken	-9648
▁durchgefallen	-9649
▁schrecklichen	-9650
▁Freundschaften	-9651
▁vorbeigekommen	-9652
äh	-9653
azz	-9654
elz	-9655
ida	-9656
lab	-9657
leg	-9658
nel	-9659
ney	-9660
unz	-9661
übt	-9662
▁1.	-9663
▁ag	-9664
▁as	-9665
azif	-9666
boot	-9667
emal	-9668
keln	-9669
nest	-9670
okal	-9671
rael	-9672
rang	-9673
stru	-9674
stät	-9675
äden	-9676
ödie	-9677
▁Com	-9678
▁Gän	-9679
▁Kau	-9680
▁Kie	-9681
▁Ohn	-9682
▁Pek	-9683
▁Slo	-9684
▁Tha	-9685
▁Wil	-9686
▁Wöl	-9687
▁app	-9688
▁bas	-9689
▁kat	-9690
▁leb	-9691
▁ört	-9692
Danke	-9693
andal	-9694
armen	-9695
deten	-9696
hängt	-9697
inker	-9698
irurg	-9699
krebs	-9700
leger	-9701
lässt	-9702
staat	-9703
stero	-9704
▁Allt	-9705
▁Beru	-9706
▁Cent	-9707
▁Dima	-9708
▁Esst	-9709
▁Gymn	-9710
▁Höre	-9711
▁Irrt	-9712
▁Jagd	-9713
▁Mögt	-9714
▁Orte	-9715
▁Rein	-9716
▁Sehr	-9717
▁Serv	-9718
▁Wett	-9719
▁anru	-9720
▁barf	-9721
▁männ	-9722
▁nied	-9723
▁prob	-9724
▁seuf	-9725
▁stol	-9726
▁treu	-9727
ftware	-9728
gebiet	-9729
gesamt	-9730
holung	-9731
mensch	-9732
ochten	-9733
regeln	-9734
sicher	-9735
steher	-9736
strich	-9737
wäsche	-9738
örtern	-9739
▁Archä	-9740
▁Bewer	-9741
▁Ehren	-9742
▁Gerät	-9743
▁Halle	-9744
▁Maske	-9745
▁Mäuse	-9746
▁Nadel	-9747
▁Pfeil	-9748
▁Spitz	-9749
▁Stolz	-9750
▁Susan	-9751
▁Szene	-9752
▁Volle	-9753
▁Wovon	-9754
▁bewer	-9755
▁flach	-9756
▁fähig	-9757
▁grüne	-9758
▁hohes	-9759
▁loszu	-9760
▁psych	-9761
▁volle	-9762
▁womit	-9763
Adresse	-9764
aufgang	-9765
bereich	-9766
isierte	-9767
stiegen	-9768
▁Anlass	-9769
▁Astero	-9770
▁Gerade	-9771
▁Größte	-9772
▁Kleine	-9773
▁Kräfte	-9774
▁Lungen	-9775
▁Presse	-9776
▁Runden	-9777
▁Schaut	-9778
▁Symbol	-9779
▁Wohnen	-9780
▁lauten	-9781
▁locker	-9782
▁manche	-9783
▁toller	-9784
▁träumt	-9785
▁verirr	-9786
▁weckte	-9787
▁zelten	-9788
geschoss	-9789
stimmung	-9790
zuräumen	-9791
▁Abreise	-9792
▁Betrach	-9793
▁Gerecht	-9794
▁Handeln	-9795
▁Klausur	-9796
▁Mindest	-9797
▁Niederl	-9798
▁Pfeffer	-9799
▁Scheibe	-9800
▁Scheune	-9801
▁Solange	-9802
▁Spielst	-9803
▁Studien	-9804
▁Taninna	-9805
▁Tropfen	-9806
▁Verlass	-9807
▁ausländ	-9808
▁brennen	-9809
▁gefühlt	-9810
▁günstig	-9811
▁nämlich	-9812
▁rauchte	-9813
▁schicke	-9814
▁schwamm	-9815
▁spielst	-9816
▁treiben	-9817
▁tödlich	-9818
▁töricht	-9819
▁unangen	-9820
▁zündete	-9821
▁ärgerte	-9822
▁übersch	-9823
gebnissen	-9824
▁Betracht	-9825
▁Direktor	-9826
▁Existenz	-9827
▁Haustier	-9828
▁Leistung	-9829
▁Priester	-9830
▁leuchten	-9831
▁nochmals	-9832
▁schlicht	-9833
▁stellten	-9834
▁verfolgt	-9835
▁verläuft	-9836
▁zunehmen	-9837
oberfläche	-9838
▁Beispiele	-9839
▁Franzosen	-9840
▁Laufenden	-9841
▁aufsuchen	-9842
▁deutscher	-9843
▁empfangen	-9844
▁gestanden	-9845
▁gestattet	-9846
▁mithalten	-9847
▁verkaufte	-9848
▁verlieben	-9849
▁vorhanden	-9850
▁wechselte	-9851
▁Großeltern	-9852
▁Schlechtes	-9853
▁Volleyball	-9854
▁Vorschläge	-9855
▁angefahren	-9856
▁angemessen	-9857
▁ausgelacht	-9858
▁ausgezogen	-9859
▁glückliche	-9860
▁hingezogen	-9861
▁talentiert	-9862
▁verrichten	-9863
▁Übersetzen	-9864
▁Katastrophe	-9865
▁Schlafanzug	-9866
▁Veränderung	-9867
▁aufgebracht	-9868
▁verursachen	-9869
▁Durchschnitt	-9870
▁Enttäuschung	-9871
▁ausgebrochen	-9872
▁beantwortete	-9873
▁teilgenommen	-9874
▁Gerechtigkeit	-9875
▁Menschenmenge	-9876
▁Schmetterling	-9877
▁Sonnenaufgang	-9878
▁Lieblingsfarbe	-9879
▁Terminkalender	-9880
▁Aufnahmeprüfung	-9881
by	-9882
gä	-9883
lö	-9884
yt	-9885
▁’	-9886
Ein	-9887
ata	-9888
hop	-9889
lla	-9890
rid	-9891
rub	-9892
vid	-9893
ößt	-9894
▁23	-9895
▁di	-9896
abil	-9897
apie	-9898
erkt	-9899
gesp	-9900
hedr	-9901
igst	-9902
obte	-9903
pack	-9904
räte	-9905
ugte	-9906
ulär	-9907
verk	-9908
wend	-9909
züge	-9910
▁Red	-9911
dings	-9912
echan	-9913
fisch	-9914
ginge	-9915
idert	-9916
ieger	-9917
inent	-9918
ioten	-9919
orten	-9920
salat	-9921
sames	-9922
▁	-9923
e	-9924
n	-9925
i	-9926
s	-9927
r	-9928
t	-9929
a	-9930
h	-9931
c	-9932
d	-9933
u	-9934
m	-9935
l	-9936
.	-9937
o	-9938
g	-9939
b	-9940
w	-9941
f	-9942
k	-9943
,	-9944
z	-9945
T	-9946
S	-9947
I	-9948
ü	-9949
v	-9950
D	-9951
W	-9952
M	-9953
?	-9954
p	-9955
E	-9956
ä	-9957
ö	-9958
B	-9959
A	-9960
H	-9961
F	-9962
K	-9963
G	-9964
ß	-9965
L	-9966
!	-9967
P	-9968
V	-9969
J	-9970
N	-9971
Z	-9972
j	-9973
R	-9974
U	-9975
y	-9976
„	-9977
“	-9978
O	-9979
0	-9980
C	-9981
-	-9982
1	-9983
x	-9984
–	-9985
2	-9986
"	-9987
Ü	-9988
:	-9989
3	-9990
’	-9991
;	-9992
9	-9993
Ä	-9994
5	-9995
