<unk>	0
<s>	0
</s>	0
.	-2.16999
'	-3.15498
s	-3.71997
?	-3.92182
▁I	-4.17232
,	-4.26038
▁Tom	-4.41717
t	-4.6762
▁is	-4.99793
▁the	-5.07906
▁to	-5.08425
▁The	-5.11574
▁a	-5.21596
▁He	-5.28765
▁and	-5.31332
▁you	-5.39311
▁of	-5.44282
▁in	-5.4992
▁that	-5.52228
▁it	-5.59524
n	-5.6067
m	-5.61498
▁She	-5.64587
▁Mary	-5.71833
▁You	-5.78334
ing	-5.797
▁It	-5.79918
d	-5.83287
re	-5.84403
ed	-5.85624
▁for	-5.86541
▁was	-5.86637
▁We	-5.88063
▁me	-5.95947
!	-5.98783
▁	-5.99287
▁Tom▁is	-6.01461
▁I▁don	-6.06192
▁didn	-6.12937
▁this	-6.1809
▁her	-6.25672
▁your	-6.26292
ll	-6.26718
▁my	-6.29888
▁his	-6.32037
▁What	-6.37115
▁on	-6.39389
▁That	-6.40877
▁here	-6.41489
-	-6.41523
▁him	-6.44706
▁he	-6.44785
e	-6.4645
▁with	-6.46627
r	-6.47929
ve	-6.48255
▁They	-6.4882
er	-6.50012
▁Don	-6.50395
ly	-6.5117
▁This	-6.51692
▁in▁the	-6.53883
▁Do▁you	-6.54544
y	-6.56284
▁Tom▁and▁Mary	-6.58366
▁A	-6.58718
▁are	-6.63351
▁from	-6.63907
▁by	-6.6532
▁so	-6.65596
▁at	-6.66543
▁now	-6.68193
▁I▁can	-6.69316
▁have	-6.72181
▁just	-6.75707
▁but	-6.76978
▁has	-6.78367
▁up	-6.80315
▁Tom▁was	-6.84043
▁will	-6.8407
▁about	-6.84279
▁we	-6.84873
▁never	-6.85351
▁all	-6.85615
▁there	-6.87297
▁as	-6.87616
▁like	-6.89482
▁isn	-6.90254
▁one	-6.95726
▁of▁the	-6.96122
▁can	-6.96482
▁than	-6.96724
▁always	-6.9689
▁today	-6.96931
▁she	-6.97121
▁out	-6.99246
t▁you	-6.9963
▁more	-7.00233
▁My	-7.01057
▁not	-7.01403
▁doesn	-7.01707
s▁are	-7.03694
▁I▁was	-7.04969
▁us	-7.06433
▁what	-7.07164
▁an	-7.09102
▁I▁have	-7.09967
▁had	-7.10452
▁Are▁you	-7.10483
▁don	-7.1098
▁something	-7.12076
▁really	-7.12232
▁Please	-7.12818
▁Who	-7.16426
▁I▁am	-7.16548
▁were	-7.17001
▁only	-7.17041
▁be	-7.17055
▁time	-7.17401
▁or	-7.18227
▁some	-7.19438
▁on▁the	-7.19567
."	-7.20102
▁too	-7.20315
▁still	-7.2311
▁Have▁you	-7.23179
▁Let	-7.23341
▁who	-7.23396
▁people	-7.23834
▁tomorrow	-7.24322
▁good	-7.24886
▁work	-7.25275
▁do	-7.25544
s▁a	-7.25577
▁again	-7.26375
▁There	-7.26607
al	-7.2666
▁is▁a	-7.27892
▁get	-7.2796
▁two	-7.27969
▁before	-7.28279
▁back	-7.29939
▁Did▁you	-7.30122
▁they	-7.30971
▁them	-7.31799
▁our	-7.32061
▁Where	-7.33707
▁to▁be	-7.34386
▁off	-7.36249
▁very	-7.36764
▁over	-7.37325
o	-7.39008
▁their	-7.40268
▁How	-7.40589
▁Tom▁has	-7.41308
p	-7.4281
es	-7.43385
s▁not	-7.44282
▁home	-7.44381
▁anything	-7.44589
▁to▁the	-7.44746
▁everything	-7.44908
▁into	-7.45526
▁You▁can	-7.47367
▁When	-7.47515
▁go	-7.48355
▁left	-7.48454
▁well	-7.48496
▁said	-7.49601
▁Tom▁doesn	-7.49693
?▁"	-7.49887
or	-7.50252
▁right	-7.534
▁any	-7.53896
▁yesterday	-7.5408
▁no	-7.54295
se	-7.55474
m▁not	-7.56274
▁down	-7.57088
▁He▁is	-7.58516
t▁know	-7.58668
▁please	-7.58953
▁Can▁you	-7.59089
▁This▁is	-7.59132
▁already	-7.63142
▁after	-7.6345
▁ever	-7.63584
▁French	-7.63955
▁yet	-7.64418
▁day	-7.64861
▁got	-7.65086
▁to▁me	-7.65274
▁It▁was	-7.65889
▁He▁was	-7.67458
c	-7.67464
in	-7.68055
l	-7.68132
▁You▁should	-7.68617
▁three	-7.69783
g	-7.70396
▁His	-7.72124
t▁want▁to	-7.72537
t▁like	-7.73301
▁English	-7.73387
s▁of	-7.74702
▁Can	-7.75056
▁won	-7.75455
▁cold	-7.75589
▁being	-7.7566
▁man	-7.76456
▁often	-7.76571
▁S	-7.76613
▁things	-7.76875
th	-7.77043
▁In	-7.77061
▁to▁do	-7.77088
▁Your	-7.77905
le	-7.78127
▁"	-7.7816
t▁have	-7.78471
▁money	-7.78646
▁without	-7.79024
▁I▁like	-7.79595
▁would	-7.79982
▁in▁a	-7.80427
▁almost	-7.80727
▁happy	-7.80861
▁house	-7.81099
▁made	-7.81297
▁better	-7.81346
▁at▁the	-7.81369
▁see	-7.83046
▁life	-7.83255
▁out▁of	-7.83437
▁It▁is	-7.83516
▁wasn	-7.8417
▁eat	-7.84236
▁alone	-7.84274
▁I▁know	-7.84593
▁place	-7.84753
▁old	-7.85526
▁car	-7.85989
▁if	-7.86437
ch	-7.86479
▁un	-7.86538
▁nothing	-7.86707
▁know	-7.86946
▁help	-7.87082
▁for▁the	-7.8753
▁away	-7.87928
▁use	-7.89126
▁p	-7.89542
ic	-7.89646
ar	-7.89648
▁If▁you	-7.91071
▁new	-7.91212
▁school	-7.91488
▁for▁you	-7.91564
▁how	-7.91932
i	-7.92138
▁room	-7.9217
▁when	-7.92237
▁where	-7.92316
▁come	-7.9271
▁language	-7.9342
▁late	-7.9359
▁hard	-7.93787
▁which	-7.94086
▁love	-7.94088
able	-7.94384
▁much	-7.94467
▁for▁me	-7.95351
▁re	-7.95543
b	-7.95669
▁Would▁you	-7.95728
▁person	-7.95794
▁first	-7.96076
▁You▁don	-7.96233
▁way	-7.96401
ve▁been	-7.96547
▁a▁lot	-7.96848
▁is▁not	-7.96855
▁doing	-7.97147
▁do▁that	-7.9737
▁Tom▁is▁a	-7.97813
▁a▁good	-7.97988
ur	-7.98685
a	-7.98955
▁speak	-7.99164
▁water	-7.99173
▁a▁lot▁of	-7.9953
▁going▁to	-7.99745
▁take	-8.00056
▁John	-8.00401
▁himself	-8.00426
▁could	-8.01032
▁do▁you	-8.01297
▁took	-8.01507
▁put	-8.019
▁long	-8.02006
▁say	-8.02043
▁anymore	-8.03036
▁food	-8.03115
;	-8.03122
▁went	-8.03932
▁is▁the	-8.04477
▁think	-8.04588
ion	-8.04716
▁to▁do▁that	-8.04919
▁will▁be	-8.04969
▁did	-8.05455
ll▁be	-8.05485
▁together	-8.0561
▁soon	-8.05972
t▁be	-8.06016
▁if▁you	-8.06058
▁from▁the	-8.0632
▁should	-8.06785
▁make	-8.06837
▁to▁get	-8.07014
ve▁got	-8.07292
▁All	-8.07689
▁another	-8.07786
▁read	-8.08061
▁Are	-8.08705
▁the▁same	-8.08884
▁leave	-8.09034
▁I▁want▁to	-8.09617
est	-8.10118
k	-8.10548
▁with▁a	-8.10922
▁until	-8.11019
▁both	-8.11085
"	-8.11229
▁open	-8.11491
▁started	-8.11549
▁anyone	-8.11826
▁friends	-8.12003
ri	-8.12186
▁live	-8.12203
▁No▁one	-8.12373
▁saw	-8.12584
▁book	-8.1262
▁bad	-8.12642
▁getting	-8.12903
▁in▁Boston	-8.14095
ation	-8.14107
▁with▁you	-8.14127
▁How▁many	-8.14421
▁told▁John	-8.14907
▁children	-8.15059
▁many	-8.1552
▁You▁are	-8.16008
▁yourself	-8.16083
▁lost	-8.16166
▁a▁little	-8.1676
▁Mary▁is	-8.16763
▁busy	-8.16982
▁that▁he	-8.17263
re▁not	-8.17578
▁Could	-8.17611
▁There▁are	-8.17801
f	-8.18131
▁coming	-8.18302
▁She▁was	-8.18409
▁came	-8.18463
▁find	-8.1852
en	-8.19383
s▁the	-8.20018
▁She▁is	-8.2021
▁going	-8.20598
▁since	-8.21202
▁coffee	-8.2132
▁books	-8.21377
u	-8.21397
ed▁the	-8.21599
▁de	-8.22084
▁working	-8.22161
▁great	-8.22206
t▁he	-8.22283
▁Do	-8.22385
ist	-8.22502
▁looks	-8.22615
▁Mr	-8.22706
▁is▁very	-8.2299
▁asked	-8.23018
▁called	-8.23287
▁enough	-8.23606
▁need	-8.23967
▁answer	-8.24491
▁at▁home	-8.24867
▁arrived	-8.25176
▁Her	-8.25705
▁around	-8.25858
▁been	-8.2599
an	-8.26462
▁each▁other	-8.26586
▁call	-8.26589
▁that▁you	-8.26783
▁thought	-8.26821
el	-8.27054
▁Why	-8.27165
▁I▁had	-8.27356
▁We▁have	-8.27432
▁I▁think	-8.27596
▁No	-8.28025
▁done	-8.28203
▁married	-8.28356
▁because	-8.28545
▁He▁has	-8.2886
▁have▁a	-8.28909
▁last	-8.29298
▁every▁day	-8.29318
▁even	-8.29422
▁tea	-8.29511
▁music	-8.29738
▁like▁that	-8.30198
▁young	-8.3035
on	-8.30652
▁thing	-8.30741
▁hand	-8.30843
▁wrong	-8.30883
id	-8.30938
▁to▁you	-8.31157
▁for▁a	-8.31199
▁C	-8.31267
▁through	-8.31489
ment	-8.31511
▁stop	-8.31626
▁country	-8.31657
I	-8.31739
▁T	-8.31798
▁want	-8.32082
▁found	-8.32239
▁B	-8.32442
▁Everyone	-8.3251
d▁like▁to	-8.32524
▁look	-8.32767
▁seen	-8.32788
s▁and	-8.32956
▁likes	-8.33047
te	-8.33116
▁understand	-8.33215
▁How▁long	-8.33218
ir	-8.33231
▁stay	-8.33371
▁Japanese	-8.33496
ter	-8.33971
▁Why▁don	-8.34076
is	-8.34155
▁What▁do▁you	-8.34327
▁idea	-8.34347
s▁were	-8.34724
▁If	-8.3492
at	-8.35076
▁German	-8.35163
▁may	-8.35329
▁You▁have	-8.35333
ro	-8.35408
▁these	-8.35424
il	-8.3561
▁class	-8.35716
▁every	-8.3574
▁Be	-8.35983
▁tired	-8.36086
▁red	-8.36272
t▁think	-8.36315
▁I▁haven	-8.36443
▁ready	-8.36482
▁hot	-8.36719
ate	-8.36803
▁as▁a	-8.36955
ity	-8.37219
li	-8.37253
▁wouldn	-8.3744
ce	-8.37518
▁want▁to	-8.37927
▁light	-8.38026
▁I▁will	-8.38204
▁have▁been	-8.38257
▁reading	-8.38352
▁night	-8.38546
▁usually	-8.38559
▁sleep	-8.38663
▁a▁new	-8.38797
▁probably	-8.39009
ra	-8.39376
▁while	-8.39385
▁he▁was	-8.39711
it	-8.40062
m▁going▁to	-8.40065
▁sick	-8.40082
.▁"	-8.40218
ry	-8.4022
▁other	-8.40617
less	-8.40636
▁beautiful	-8.40757
▁plan	-8.40839
▁tonight	-8.40881
▁I▁have▁a	-8.40886
▁heard	-8.40996
▁snow	-8.41007
▁early	-8.41165
▁name	-8.41261
▁everyone	-8.41325
▁c	-8.41526
▁has▁been	-8.41566
▁with▁the	-8.41674
▁Tom▁can	-8.41912
▁family	-8.41962
ers	-8.42463
▁rain	-8.43137
▁years	-8.43195
▁keep	-8.43395
us	-8.43485
▁teacher	-8.43667
▁change	-8.43679
▁Does	-8.43709
▁play	-8.43712
▁someone	-8.43868
▁happened	-8.44075
▁those	-8.44316
▁does	-8.44866
▁buy	-8.44962
▁outside	-8.45144
▁I▁want	-8.45249
▁I▁love	-8.45317
▁to▁go	-8.45708
▁used▁to	-8.45817
▁Which	-8.45931
▁little	-8.46077
▁watch	-8.46158
▁st	-8.46174
▁with▁Tom	-8.46273
▁what▁you	-8.46313
▁o	-8.46739
▁has▁a	-8.46875
as	-8.46878
▁with▁me	-8.46911
▁word	-8.46978
▁kind▁of	-8.46996
▁about▁it	-8.47068
▁on▁a	-8.47163
▁F	-8.47185
▁turn	-8.4742
▁end	-8.4746
▁To	-8.47472
▁pretty	-8.47746
▁fish	-8.47884
▁eating	-8.479
▁into▁the	-8.47958
▁ten	-8.48211
▁in▁his	-8.48304
▁of▁a	-8.48375
▁when▁you	-8.48768
▁easy	-8.48897
▁to▁say	-8.49226
▁run	-8.49359
▁myself	-8.49368
t▁want	-8.49387
▁Do▁you▁know	-8.49411
▁dog	-8.49434
▁start	-8.49548
▁between	-8.49772
▁living	-8.49821
▁computer	-8.49933
▁mean	-8.4997
▁gave	-8.50023
▁why	-8.50141
▁train	-8.50141
▁job	-8.50162
h	-8.50708
▁loves	-8.50796
▁write	-8.50888
▁ask	-8.51344
▁students	-8.51656
▁number	-8.5173
▁might	-8.51873
▁told	-8.5223
▁to▁see	-8.52288
▁all▁the	-8.52314
▁under	-8.52598
ive	-8.527
▁having	-8.52805
▁Tom▁had	-8.52841
▁question	-8.52896
w	-8.53092
▁rich	-8.53305
▁E	-8.5355
▁enjoy	-8.53619
▁Nobody	-8.53643
▁looking▁for	-8.53782
▁making	-8.53906
▁let	-8.53996
la	-8.54095
▁any▁more	-8.54156
▁hurt	-8.54595
▁drink	-8.54682
▁angry	-8.54684
ine	-8.54792
▁half	-8.5514
▁stupid	-8.55303
▁words	-8.5531
▁doing▁that	-8.55448
▁true	-8.5562
ol	-8.55691
▁later	-8.55752
▁Why▁are▁you	-8.55792
▁when▁he	-8.55805
▁at▁all	-8.55966
▁finished	-8.56251
ent	-8.56344
▁in▁this	-8.56477
▁five	-8.56491
▁small	-8.57119
▁did▁you	-8.57185
s▁in	-8.57743
:	-8.58047
▁learn	-8.58187
▁dead	-8.58273
▁hungry	-8.58355
▁such▁a	-8.58429
▁drive	-8.5844
t▁understand	-8.58444
▁nice	-8.58503
▁story	-8.58538
▁it▁was	-8.58795
▁problem	-8.5887
▁point	-8.59072
▁You▁must	-8.59148
▁heart	-8.5915
▁aren	-8.59164
▁These	-8.59255
▁Tom▁has▁a	-8.59522
▁pay	-8.59632
ne	-8.59753
▁four	-8.59968
▁the▁truth	-8.59998
t▁get	-8.60047
▁phone	-8.60284
▁dress	-8.60331
▁We▁can	-8.60451
▁dark	-8.60504
▁Go	-8.60509
▁I▁thought	-8.6053
▁short	-8.60581
▁girl	-8.60651
▁I▁hope	-8.60697
▁too▁much	-8.60719
▁are▁you	-8.60885
▁fun	-8.61144
▁big	-8.61232
▁couldn	-8.61365
▁a▁bit	-8.61476
▁last▁night	-8.615
▁black	-8.61592
▁must	-8.61714
▁with▁him	-8.6181
▁sure	-8.61853
’	-8.61956
▁city	-8.61972
▁taking	-8.62124
▁different	-8.62136
▁hat	-8.62223
▁19	-8.6223
▁Ou	-8.62542
▁how▁to	-8.6262
▁also	-8.62734
▁knew	-8.62789
▁e	-8.62917
▁We▁are	-8.63015
▁I▁need	-8.63389
▁wanted▁to	-8.63575
▁present	-8.63637
▁can▁be	-8.63899
▁Mary▁was	-8.63901
s▁that	-8.64038
▁turned	-8.64055
▁mine	-8.64061
▁sentence	-8.6444
▁die	-8.64559
▁of▁his	-8.64704
▁then	-8.64758
▁do▁it	-8.64858
▁so▁much	-8.64938
▁the▁book	-8.65043
▁quickly	-8.65067
▁Take	-8.65083
▁it▁is	-8.651
▁white	-8.6529
▁tell	-8.65545
▁milk	-8.66004
▁Sami	-8.66208
▁lives	-8.66241
▁a▁few	-8.66296
▁once	-8.66549
▁Stop	-8.66665
▁become	-8.66843
▁Tom▁said▁he	-8.66917
▁but▁he	-8.67028
z	-8.67075
▁We▁were	-8.67248
▁hair	-8.67335
▁clothes	-8.67552
ant	-8.67702
▁cut	-8.6785
▁most	-8.67936
1	-8.67967
▁in▁my	-8.67981
▁speak▁French	-8.68112
▁broke	-8.68143
▁free	-8.68146
▁con	-8.68179
▁better▁than	-8.6825
▁spent	-8.68395
▁to▁make	-8.68656
▁was▁a	-8.68724
▁Do▁you▁have▁a	-8.68741
▁break	-8.6893
▁playing	-8.68967
▁to▁eat	-8.69102
▁not▁to	-8.69147
s▁no	-8.69246
▁killed	-8.69363
▁interesting	-8.69419
▁b	-8.69449
▁town	-8.69493
▁ill	-8.69864
er▁than	-8.69978
▁mind	-8.69985
▁by▁the	-8.70003
▁remember	-8.70112
ies	-8.7012
▁cat	-8.70328
▁met	-8.70336
▁days	-8.70447
▁Tom▁got	-8.70455
ed▁to	-8.70516
▁God	-8.70709
▁She▁has	-8.70729
▁You▁need	-8.708
▁high	-8.7091
▁became	-8.71213
▁show	-8.71303
▁head	-8.71332
▁meet	-8.71346
m▁sorry	-8.71646
▁died	-8.71666
▁friend	-8.71684
▁I▁won	-8.71872
▁Just	-8.71977
▁fine	-8.7198
▁And	-8.72178
▁you▁can	-8.72294
▁face	-8.72296
▁part	-8.72337
▁fire	-8.72404
▁For	-8.72571
ful	-8.72872
▁year	-8.72998
▁men	-8.73121
▁walk	-8.73139
▁Why▁do	-8.7323
▁bag	-8.73236
▁son	-8.7345
▁decided	-8.73492
▁try	-8.73631
▁set	-8.73749
▁began	-8.73765
ge	-8.73842
▁had▁a	-8.73865
t▁know▁what	-8.7396
▁How▁much	-8.73973
▁stopped	-8.74012
▁bought	-8.74019
▁behind	-8.74029
▁trip	-8.74042
▁building	-8.74192
▁child	-8.74203
▁P	-8.74287
lo	-8.74323
▁close	-8.74503
▁Tom▁knows	-8.74557
▁needs	-8.74594
▁would▁be	-8.74702
▁a▁big	-8.74731
▁summer	-8.74733
▁20	-8.74754
▁O	-8.74828
vi	-8.74831
▁One	-8.75006
▁I▁never	-8.7504
ness	-8.75063
▁Come	-8.75066
▁to▁leave	-8.75258
▁Get	-8.75264
▁bicycle	-8.75439
s▁your	-8.75523
▁This▁is▁a	-8.75655
man	-8.75838
▁Did	-8.75948
▁Will▁you	-8.7611
▁wanted	-8.76127
▁the▁best	-8.76306
▁I▁should	-8.76311
▁like▁a	-8.76496
▁to▁buy	-8.7665
▁completely	-8.76832
▁with▁her	-8.76916
▁I▁could	-8.76941
▁must▁be	-8.76974
▁poor	-8.77148
▁ring	-8.77168
▁when▁I	-8.77202
▁seems	-8.77254
▁that▁I	-8.77431
S	-8.77459
▁Is▁it	-8.7763
▁beer	-8.7773
▁comes	-8.77823
▁What▁are▁you	-8.77939
▁visit	-8.78032
▁cost	-8.78144
ci	-8.78215
▁win	-8.78475
▁against	-8.78635
▁makes	-8.78712
et	-8.78732
t▁believe	-8.78946
▁Tom▁likes	-8.78984
▁near	-8.79355
▁the▁way	-8.79408
▁give	-8.79596
▁bread	-8.79653
▁caught	-8.79683
▁death	-8.79773
▁Many	-8.79831
▁morning	-8.79851
▁office	-8.79909
▁far	-8.80011
▁We▁don	-8.8039
▁blue	-8.80421
▁no▁one	-8.80516
▁cannot	-8.80597
▁changed	-8.8074
▁bring	-8.80766
▁wait	-8.80785
▁team	-8.80803
▁After	-8.8083
▁paid	-8.81035
▁did▁not	-8.81164
▁in▁your	-8.81198
▁So	-8.81379
▁trying▁to	-8.81452
▁hasn	-8.8149
ling	-8.81532
▁flat	-8.81564
▁of▁this	-8.81723
▁talk	-8.81769
▁kept	-8.81877
clock	-8.81974
▁restaurant	-8.82024
▁woman	-8.82057
▁I▁would	-8.82078
▁afraid▁of	-8.82157
▁co	-8.82208
▁to▁work	-8.82526
▁on▁his	-8.82547
▁drunk	-8.82627
▁the▁world	-8.82649
▁fell	-8.82683
▁hope	-8.82736
▁the▁window	-8.82837
▁to▁have	-8.83082
▁right▁now	-8.831
d▁better	-8.8324
▁surprised	-8.83327
▁gets	-8.83437
▁goes	-8.83467
▁matter	-8.8347
▁I▁couldn	-8.83499
▁trouble	-8.83507
ated	-8.83582
▁best	-8.83635
▁looked	-8.83698
▁kiss	-8.83782
▁to▁her	-8.8382
▁gone	-8.84108
▁Give	-8.84141
▁interested▁in	-8.84247
▁happen	-8.84247
▁the▁most	-8.84294
▁waiting▁for	-8.84323
▁boy	-8.84352
t▁forget	-8.84416
▁less	-8.84849
▁you▁don	-8.84972
▁war	-8.85004
▁that▁she	-8.85019
ing▁the	-8.85051
▁feel	-8.85076
▁to▁him	-8.85164
▁if▁I	-8.8524
▁Have	-8.85392
▁others	-8.85499
▁chance	-8.85528
▁spend	-8.85616
▁sing	-8.85634
▁that▁they	-8.85652
ous	-8.85757
▁gr	-8.85984
▁needed	-8.86039
▁you▁are	-8.86074
▁decision	-8.86095
▁difficult	-8.86109
▁dream	-8.86439
▁like▁this	-8.86636
▁liked	-8.86637
▁They▁are	-8.8686
ul	-8.86876
▁warm	-8.86962
▁very▁much	-8.86969
▁told▁me	-8.87097
!"	-8.87231
ting	-8.87374
▁park	-8.87461
de	-8.87504
▁watching	-8.87603
▁possible	-8.87615
▁reason	-8.87619
▁strong	-8.87697
▁questions	-8.87917
▁Some	-8.88114
▁very▁well	-8.88192
No	-8.88291
▁fast	-8.88575
▁used	-8.88616
▁past	-8.88712
▁in▁the▁world	-8.88887
ct	-8.88988
▁Tom▁wants	-8.89007
▁does▁not	-8.89011
▁the▁house	-8.89055
▁paper	-8.8928
▁daughter	-8.89382
▁played	-8.89406
▁but▁I	-8.89546
▁of▁my	-8.89683
▁I▁have▁to	-8.89735
▁I▁got	-8.89942
▁An	-8.89956
▁in▁Australia	-8.89989
▁ra	-8.90246
▁rest	-8.90384
▁kids	-8.90504
▁human	-8.9057
▁study	-8.90581
▁mo	-8.90592
▁quit	-8.90671
▁smoke	-8.90807
▁Now	-8.90848
▁student	-8.90881
▁to▁learn	-8.90971
▁At	-8.91014
ian	-8.9118
▁My▁father	-8.91228
▁Everything	-8.91245
op	-8.91574
▁As	-8.91642
▁loved	-8.91745
▁dis	-8.92051
▁takes	-8.92104
▁famous	-8.92127
ow	-8.92156
▁tried▁to	-8.92286
▁door	-8.92418
ut	-8.92457
▁hit	-8.92599
▁hours	-8.92603
▁anybody	-8.92639
▁How▁did▁you	-8.92664
▁the▁door	-8.92765
▁hear	-8.92829
▁Why▁did▁you	-8.9297
▁Thank▁you	-8.92985
▁exactly	-8.93026
▁inside	-8.93214
▁with▁his	-8.93298
ck	-8.93442
im	-8.9353
▁kind	-8.93695
▁business	-8.93946
▁feeling	-8.94051
x	-8.9419
▁mountain	-8.94201
▁this▁morning	-8.94253
▁wine	-8.94275
▁years▁old	-8.94417
▁at▁a	-8.94515
▁sell	-8.94568
▁I▁think▁that	-8.9463
ed▁his	-8.94877
▁about▁that	-8.94893
▁missed	-8.95165
▁air	-8.95242
▁bed	-8.95459
▁lie	-8.95522
▁fruit	-8.95964
▁dinner	-8.9602
▁languages	-8.96195
▁correct	-8.96276
▁a▁great	-8.96349
▁John▁was	-8.96407
m▁a	-8.96409
▁move	-8.96485
▁helped	-8.9651
ia	-8.96517
▁There▁is	-8.96704
▁spoke	-8.96763
ie	-8.96955
▁film	-8.9702
▁women	-8.97123
▁wants	-8.97152
▁breakfast	-8.97253
no	-8.97293
▁ago	-8.97505
▁clean	-8.97632
▁eyes	-8.97928
▁voice	-8.98059
▁she▁was	-8.98411
▁OK	-8.9853
▁walked	-8.98554
▁wants▁to	-8.98628
▁Thanks	-8.98767
▁bike	-8.98794
▁saying	-8.98813
▁of▁you	-8.98911
▁garden	-8.98923
▁studying	-8.9893
▁seemed	-8.99017
t▁remember	-8.99222
▁brought	-8.99281
▁picture	-8.99291
ure	-8.9932
▁trust	-8.99482
▁to▁come	-8.99528
▁I▁need▁to	-8.99623
▁father	-8.9968
▁May▁I	-8.99698
▁That▁was	-8.99807
▁a▁doctor	-8.99821
▁next	-8.99864
▁Maybe	-8.99927
▁either	-8.99959
▁lunch	-9.0001
d▁be	-9.0001
▁Look	-9.00032
▁Has	-9.00045
▁world	-9.00151
▁sent	-9.00187
▁tree	-9.002
▁guy	-9.00276
▁should▁be	-9.00342
▁sometimes	-9.0039
▁order	-9.00467
▁do▁you▁think	-9.00487
▁shoes	-9.00525
▁herself	-9.00548
▁table	-9.0057
▁did▁that	-9.00589
▁Every	-9.00665
▁You▁were	-9.00724
t▁see	-9.00794
▁learning	-9.00855
he	-9.00888
ru	-9.00905
▁the▁first	-9.00989
▁flowers	-9.01075
▁I▁think▁you	-9.01121
t▁let	-9.01175
▁full	-9.01218
▁shouldn	-9.01258
▁lived	-9.01326
▁the▁last	-9.01385
t▁have▁a	-9.01405
▁camera	-9.01454
▁its	-9.01472
▁one▁of▁the	-9.01514
▁six	-9.01539
▁line	-9.0155
▁one▁of	-9.01564
▁doctor	-9.01631
▁ate	-9.01635
▁and▁the	-9.01654
▁shop	-9.01764
one	-9.01823
▁he▁is	-9.01829
▁They▁were	-9.01922
▁sat	-9.02028
ed▁a	-9.02122
ed▁by	-9.02248
ver	-9.02273
▁return	-9.02301
sh	-9.02352
▁sad	-9.02419
t▁make	-9.02445
▁bar	-9.02471
▁health	-9.02476
▁was▁very	-9.02478
▁mistake	-9.02567
nd	-9.02619
▁waiting	-9.02631
▁be▁able▁to	-9.02706
▁sense	-9.02723
s▁have	-9.02999
?"	-9.0304
be	-9.03059
▁cake	-9.03094
▁dictionary	-9.03119
▁this▁book	-9.03189
▁you▁have	-9.03272
ted	-9.03456
▁is▁still	-9.03509
ance	-9.0355
per	-9.037
▁along	-9.03737
▁I▁thought▁you	-9.03926
▁round	-9.03966
▁letter	-9.04079
▁good▁at	-9.0409
▁with▁us	-9.04291
um	-9.0431
▁closed	-9.04315
▁U	-9.04344
▁driver	-9.04387
led	-9.04555
▁no▁longer	-9.04587
▁by▁a	-9.04641
t▁do▁that	-9.04719
▁tell▁me	-9.04851
▁leaving	-9.04865
▁noise	-9.0491
t▁need	-9.04924
▁station	-9.04942
▁animals	-9.05034
▁the▁problem	-9.05035
▁pen	-9.05075
▁go▁to	-9.05121
▁a▁day	-9.05162
▁you▁were	-9.05201
ma	-9.05249
▁3	-9.05422
ca	-9.05521
t▁eat	-9.05527
▁all▁day	-9.05581
▁box	-9.05663
▁to▁help	-9.05682
t▁come	-9.05708
▁Why▁is	-9.05708
▁follow	-9.05857
▁test	-9.05955
ag	-9.05993
▁age	-9.06061
▁talking	-9.06074
▁shirt	-9.06179
▁of▁us	-9.0621
▁miss	-9.06462
▁But	-9.06487
▁known	-9.06725
s▁been	-9.06791
▁wearing	-9.06862
▁lying	-9.07145
▁times	-9.07164
▁I▁hate	-9.0719
3	-9.07212
▁Japan	-9.07248
▁drinking	-9.07291
▁sitting	-9.07573
▁L	-9.07611
▁tried	-9.0767
▁opinion	-9.07693
▁stayed	-9.07764
▁brother	-9.07774
▁taken	-9.07984
▁rather	-9.08165
▁the▁money	-9.08177
▁did▁it	-9.08244
▁company	-9.0826
▁said▁that	-9.08322
▁believe	-9.08423
▁learned	-9.0855
▁the▁right	-9.08554
un	-9.08555
▁sleeping	-9.08593
re▁going▁to	-9.08619
hat▁she▁thought	-9.08643
▁or▁not	-9.08653
▁writing	-9.08713
▁is▁an	-9.08827
▁Mary▁told▁Tom▁t	-9.09017
▁What▁is	-9.09044
▁I▁want▁you▁to	-9.09067
▁kill	-9.09168
▁bus	-9.09333
▁and▁a	-9.09384
s▁very	-9.09429
▁to▁take	-9.09464
v	-9.09474
t▁even	-9.09497
A	-9.09506
▁the▁car	-9.09573
▁used▁to▁be	-9.09667
▁I▁feel	-9.09728
▁I▁saw	-9.09731
way	-9.09785
▁People	-9.09818
▁that▁they▁were	-9.09856
▁problems	-9.09908
▁t	-9.09944
▁chair	-9.10026
▁to▁a	-9.10043
▁seat	-9.10079
▁meeting	-9.10189
▁crying	-9.10253
▁to▁know	-9.10256
▁out▁of▁the	-9.10373
▁M	-9.10406
▁Was	-9.10408
▁I▁think▁I	-9.10497
▁quiet	-9.10594
▁f	-9.10663
▁sign	-9.10726
▁speaking	-9.10745
▁key	-9.10799
▁ex	-9.10826
▁forget	-9.10855
t▁have▁to	-9.1086
▁what▁he	-9.10896
▁party	-9.10905
▁Are▁you▁sure	-9.10959
▁worked	-9.10993
▁on▁my	-9.11021
▁in▁the▁morning	-9.11298
▁tall	-9.11312
▁guys	-9.11322
▁Even	-9.11339
▁fear	-9.11365
▁I▁cannot	-9.11374
▁finally	-9.11399
▁arrive	-9.11424
▁sentences	-9.11445
▁mad	-9.1147
▁clear	-9.1152
▁Christmas	-9.11561
▁running	-9.11642
▁dangerous	-9.11766
▁to▁stay	-9.11855
▁to▁Tom	-9.11882
▁Keep	-9.119
▁promised	-9.11982
▁post	-9.12174
▁mistakes	-9.12185
co	-9.12218
2	-9.12351
am	-9.12442
▁color	-9.12444
▁his▁own	-9.12469
7	-9.12541
▁thirty	-9.12553
▁Did▁Tom	-9.12581
▁live▁in	-9.12686
om	-9.1309
▁send	-9.13095
▁dance	-9.13146
▁what▁happened	-9.13155
▁such	-9.1319
▁di	-9.13215
▁talking▁about	-9.13224
▁green	-9.1326
▁I▁wish	-9.13305
▁You▁have▁to	-9.13363
▁of▁your	-9.13571
t▁really	-9.13673
▁a▁man	-9.13684
▁catch	-9.13798
▁movie	-9.13866
▁Germany	-9.14065
▁sp	-9.14237
8	-9.14338
▁to▁Mary	-9.14469
▁football	-9.14616
▁lose	-9.14874
pe	-9.14947
▁safe	-9.15124
▁Tatoeba	-9.15191
▁accept	-9.15202
▁Someone	-9.15207
▁actually	-9.15471
▁immediately	-9.15482
▁the▁whole	-9.15581
▁invited	-9.15613
▁w	-9.15626
▁mother	-9.15638
▁the▁only	-9.15839
▁Here	-9.15961
ty	-9.15984
▁everybody	-9.16032
▁week	-9.16046
▁Tom▁has▁been	-9.16589
▁they▁were	-9.16706
s▁me	-9.16722
▁Tom▁won	-9.16753
▁girls	-9.16791
ally	-9.16796
▁means	-9.1682
▁Boston	-9.17006
▁consider	-9.17054
▁few	-9.17069
▁fall	-9.17185
▁hotel	-9.172
▁large	-9.17205
▁about▁this	-9.17207
▁written	-9.17382
▁sweet	-9.17448
▁a▁car	-9.17539
▁check	-9.17559
▁a▁book	-9.17573
ast	-9.17585
t▁go	-9.17595
ish	-9.17659
▁side	-9.17722
ig	-9.17757
▁serious	-9.17778
▁I▁wouldn	-9.1782
▁an▁hour	-9.1784
▁sound	-9.1785
▁travel	-9.17854
▁perfect	-9.17871
▁Is▁Tom	-9.17892
▁Why▁did	-9.179
ph	-9.17903
ence	-9.1792
▁river	-9.1795
▁pro	-9.17959
▁asleep	-9.17995
me	-9.18114
to	-9.18153
▁wrote	-9.18167
▁Mar	-9.18176
pa	-9.18284
▁have▁you	-9.18422
▁several	-9.18453
▁driving	-9.18587
▁cry	-9.18738
▁know▁that	-9.19084
▁Everybody	-9.19109
▁pain	-9.19238
▁important	-9.19286
▁Put	-9.19369
▁space	-9.19474
ad	-9.19497
▁his▁father	-9.19545
▁real	-9.19553
▁sc	-9.19661
▁glasses	-9.19684
▁The▁boy	-9.19772
▁girlfriend	-9.19795
▁Not	-9.20081
age	-9.20131
▁ma	-9.20315
▁Tom▁asked▁Mary	-9.20353
5	-9.20359
▁ha	-9.20382
▁through▁the	-9.20463
▁the▁bus	-9.20498
▁evening	-9.20553
▁swim	-9.20569
▁You▁look	-9.2058
▁up▁to	-9.20591
▁Does▁Tom	-9.20606
▁crazy	-9.20626
▁Australia	-9.20732
▁works	-9.20814
▁On	-9.20867
▁There▁is▁a	-9.20873
▁easily	-9.20932
▁with▁Mary	-9.20954
▁visited	-9.20959
▁ch	-9.20991
▁player	-9.21042
ve▁already	-9.21155
▁wash	-9.21166
▁simple	-9.21227
▁care	-9.21305
▁last▁year	-9.21467
▁at▁least	-9.21524
▁accident	-9.21668
▁walking	-9.21671
▁10	-9.21743
▁eye	-9.21855
▁holiday	-9.21911
▁swimming	-9.22042
▁Do▁you▁have▁any	-9.22049
▁come▁back	-9.22087
▁meat	-9.22106
t▁find	-9.22118
▁my▁father	-9.2244
s▁in▁the	-9.225
▁exam	-9.22531
6	-9.22605
▁bottle	-9.22694
▁smile	-9.22727
t▁know▁how	-9.22734
▁advice	-9.22839
▁The▁man	-9.22889
▁each	-9.23006
▁How▁do	-9.23158
▁report	-9.23176
▁whole	-9.23178
▁horse	-9.23205
▁in▁her	-9.23214
▁sl	-9.23289
▁fact	-9.23354
▁coat	-9.23396
ta	-9.23416
ed▁with	-9.23431
go	-9.23437
▁cook	-9.23519
pi	-9.23565
▁nervous	-9.23627
▁funny	-9.23637
▁able▁to	-9.23859
▁felt	-9.23932
▁Tom▁couldn	-9.23987
▁ran	-9.24001
▁tell▁you	-9.24069
▁success	-9.2413
▁game	-9.24144
▁university	-9.24235
▁body	-9.24239
▁Nothing	-9.24285
▁secret	-9.24379
▁if▁he	-9.24454
▁next▁to	-9.24464
▁worse	-9.24541
▁ticket	-9.2468
▁Tell▁me	-9.24782
os	-9.24815
s▁your▁favorite	-9.24828
▁strange	-9.24872
▁suit	-9.2489
▁art	-9.24955
ve▁got▁to	-9.25095
▁I▁think▁it	-9.25128
▁the▁train	-9.25131
▁planet	-9.25358
▁pass	-9.25438
▁television	-9.25464
▁I▁wonder	-9.2548
▁patient	-9.25483
▁second	-9.25493
▁Ma	-9.25651
▁mi	-9.25666
▁for▁her	-9.25672
▁themselves	-9.25774
up	-9.25825
▁moment	-9.25872
▁What▁does	-9.25964
▁help▁you	-9.26112
▁want▁me▁to	-9.2612
▁In▁the	-9.2622
ba	-9.26283
▁said▁that▁he	-9.26318
▁throw	-9.26396
▁novel	-9.26433
▁own	-9.26509
▁store	-9.26514
▁doubt	-9.26627
▁says	-9.26691
▁earlier	-9.26709
▁birthday	-9.26799
▁attention	-9.26838
▁looks▁like	-9.26862
▁tie	-9.26979
▁asking	-9.27043
hi	-9.27055
▁America	-9.27072
tic	-9.27091
▁Bo	-9.272
do	-9.27217
▁a▁very	-9.27255
▁offer	-9.27271
▁his▁wife	-9.27335
▁promise	-9.27451
ick	-9.27497
▁star	-9.27609
▁of▁her	-9.27662
▁had▁been	-9.27717
▁fl	-9.27728
▁sit	-9.27829
s▁on	-9.27904
▁regret	-9.27969
▁going▁to▁be	-9.28014
▁land	-9.28107
▁G	-9.28115
▁Ha	-9.28376
▁agree	-9.28389
▁Earth	-9.28559
▁during▁the	-9.28647
▁at▁school	-9.28656
▁wear	-9.28762
▁expected	-9.28905
▁say▁that	-9.28989
▁shower	-9.29158
▁laugh	-9.29167
▁to▁find	-9.29178
▁on▁your	-9.29257
▁experience	-9.29286
▁You▁know	-9.2939
▁for▁him	-9.29439
▁I▁do	-9.29481
▁the▁other	-9.29519
▁impossible	-9.29566
▁Re	-9.29579
▁boyfriend	-9.29586
▁I▁know▁that	-9.2978
na	-9.29939
▁on▁the▁table	-9.2996
▁made▁a	-9.30031
▁passed	-9.30103
▁help▁me	-9.3026
▁dogs	-9.30406
s▁just	-9.30484
▁2	-9.30496
▁Tom▁did	-9.30565
▁Were▁you	-9.30601
▁worth	-9.30627
▁smell	-9.30678
▁smart	-9.30722
▁he▁had	-9.30727
▁telephone	-9.30734
▁date	-9.30747
quite	-9.30782
▁Tom▁put	-9.30831
▁We▁must	-9.30894
▁given	-9.30956
▁know▁what	-9.31136
▁bridge	-9.31192
▁knows	-9.31224
▁what▁I	-9.31225
▁He▁had	-9.31245
▁r	-9.31291
▁case	-9.31315
▁we▁have	-9.31393
▁sh	-9.31401
▁slept	-9.31517
▁weight	-9.31525
▁island	-9.316
act	-9.31627
▁hands	-9.31637
▁broken	-9.31657
▁do▁this	-9.31697
▁I▁really	-9.31747
▁we▁can	-9.31789
▁2:30.	-9.31819
▁Esperanto	-9.31846
▁twice	-9.31849
4	-9.31932
▁eggs	-9.31952
ff	-9.31959
▁hold	-9.32005
▁1	-9.32109
▁power	-9.3217
▁address	-9.32172
▁bear	-9.32188
▁It▁was▁a	-9.32393
▁desk	-9.32764
▁I▁knew	-9.32786
▁g	-9.32809
▁speech	-9.32839
▁hundred	-9.32855
▁staying	-9.32856
▁the▁time	-9.32904
▁talk▁about	-9.33052
▁scared	-9.33161
▁lift	-9.33173
▁happens	-9.33291
▁Tom▁said▁that	-9.33369
▁fresh	-9.33507
▁When▁did▁you	-9.3354
▁but▁it	-9.3354
▁finish	-9.33557
▁a▁bad	-9.33627
▁that▁we	-9.33658
▁There▁is▁no	-9.33688
▁empty	-9.33843
▁Mary▁has	-9.33845
▁a▁teacher	-9.33851
▁suddenly	-9.33871
▁as▁well	-9.3389
▁begin	-9.33917
▁fit	-9.33926
▁Tom▁wanted	-9.33974
▁Russian	-9.33998
▁Chinese	-9.34018
ip	-9.34051
▁De	-9.34103
▁bored	-9.34187
▁million	-9.34201
▁grow	-9.34262
▁singing	-9.34376
▁spring	-9.34525
m▁afraid	-9.34588
▁The▁teacher	-9.34632
▁act	-9.34637
▁colour	-9.34683
▁the▁first▁time	-9.34763
▁shot	-9.34866
ed▁her	-9.34908
▁The▁train	-9.34931
▁St	-9.34943
▁hate	-9.34949
▁The▁doctor	-9.34993
▁wish	-9.3508
▁expensive	-9.35265
▁standing	-9.35417
▁to▁read	-9.35437
ing▁me	-9.35509
▁necessary	-9.35538
▁American	-9.3558
▁the▁dog	-9.35591
▁Canadian	-9.35596
▁floor	-9.35675
▁for▁us	-9.35812
▁count	-9.35849
▁per	-9.35859
▁kissed	-9.35868
min	-9.35874
▁last▁week	-9.35914
▁We▁should	-9.35917
▁in▁French	-9.35985
ight	-9.35992
▁to▁write	-9.36001
▁My▁mother	-9.3601
▁Oh	-9.36058
ing▁a	-9.36131
▁abroad	-9.36308
ed▁me	-9.36385
and	-9.36476
▁cute	-9.36526
▁I▁found	-9.36549
▁With	-9.36554
▁blood	-9.36566
di	-9.36673
▁disappointed	-9.3677
▁sea	-9.36955
▁on▁this	-9.36995
▁for▁your	-9.37001
▁Monday	-9.37089
▁afraid	-9.37101
▁cr	-9.37213
▁the▁sun	-9.37325
▁the▁police	-9.3739
▁the▁letter	-9.3744
▁to▁his	-9.37615
▁exist	-9.37636
▁pictures	-9.37699
▁look▁at	-9.37753
▁trees	-9.37786
fi	-9.37813
▁had▁no	-9.37936
▁Layla	-9.3796
▁United▁States	-9.3796
▁chocolate	-9.3796
▁winter	-9.38023
t▁have▁any	-9.38075
ed▁in	-9.38121
▁to▁Boston	-9.38149
▁apples	-9.38159
ap	-9.38219
ot	-9.3822
▁Tom▁and▁I	-9.38364
▁went▁to	-9.38388
ha	-9.38531
ever	-9.38578
▁respect	-9.38663
▁afternoon	-9.3868
▁d	-9.38717
▁think▁that	-9.38726
▁W	-9.38772
ary	-9.38975
▁V	-9.39002
▁the▁next	-9.39058
▁returned	-9.39131
▁fat	-9.39163
▁Tom▁took	-9.39172
▁comp	-9.39185
▁heat	-9.39269
▁machine	-9.393
▁sugar	-9.39373
t▁work	-9.39382
▁the▁one▁who	-9.39486
▁add	-9.39584
▁Try	-9.39793
▁eight	-9.39843
▁straight	-9.40046
▁history	-9.40086
▁a▁nice	-9.40087
▁fight	-9.40093
ake	-9.40197
▁lay	-9.40227
▁Ba	-9.40246
▁Alice	-9.40282
▁certain	-9.40292
▁The▁girl	-9.40348
▁bird	-9.40391
▁heavy	-9.40421
▁Maria	-9.40458
▁ball	-9.40461
▁weather	-9.4048
▁I▁must	-9.40574
▁a▁large	-9.40583
▁hospital	-9.40623
mb	-9.40662
▁Tokyo	-9.40748
▁about▁you	-9.40752
▁seven	-9.40797
▁terrible	-9.40802
▁fly	-9.40822
▁as▁he	-9.40835
▁to▁drink	-9.40945
▁month	-9.4097
ster	-9.41028
▁I▁heard	-9.41246
▁thousand	-9.41255
▁D	-9.41266
▁TV	-9.41297
▁in▁love▁with	-9.41406
▁Today	-9.41418
ni	-9.41438
men	-9.41505
▁carry	-9.41537
▁is▁your	-9.41666
▁lead	-9.41698
▁do▁not	-9.41788
▁Is▁there▁a	-9.41825
▁wife	-9.41959
▁soup	-9.42042
▁allowed	-9.42111
▁a▁small	-9.42113
▁Tom▁says▁he	-9.42149
▁song	-9.42196
▁church	-9.42206
▁hard▁to	-9.42214
▁plans	-9.42442
▁Most	-9.42447
▁I▁have▁no	-9.42465
▁there▁are	-9.4248
▁boat	-9.42647
▁He▁is▁a	-9.4268
▁Why▁are	-9.42738
▁5	-9.42835
▁give▁you	-9.42897
▁Sa	-9.42906
▁eaten	-9.4309
▁seeing	-9.4321
▁This▁is▁the	-9.43216
▁wa	-9.43332
▁When▁I	-9.43408
▁moved	-9.43437
▁sister	-9.4347
ed▁him	-9.43631
▁with▁your	-9.43656
▁on▁time	-9.43806
▁explain	-9.43833
▁for▁his	-9.43834
▁lucky	-9.43837
▁at▁once	-9.44019
▁teeth	-9.44096
▁extreme	-9.44099
▁la	-9.44276
ll▁get	-9.44293
▁ice	-9.44386
▁painting	-9.44423
▁twenty	-9.44465
▁nor	-9.44589
▁years▁ago	-9.44607
▁I▁know▁you	-9.44632
▁over▁there	-9.44666
▁step	-9.44711
▁shut	-9.44736
▁R	-9.44752
ve▁done	-9.44905
▁and▁Mary▁are	-9.44983
▁rang	-9.45021
og	-9.45164
▁pre	-9.45185
▁-	-9.45261
."▁"	-9.45263
▁about▁the	-9.45345
ga	-9.45405
▁He▁can	-9.4543
▁Tom▁said	-9.45441
▁looking	-9.45542
▁village	-9.4557
▁jealous	-9.456
▁information	-9.45603
▁telling	-9.45621
va	-9.457
ain	-9.45774
▁opened	-9.45792
▁feet	-9.45812
▁proud▁of	-9.45823
▁do▁you▁like	-9.45825
–	-9.45977
▁sold	-9.45983
▁price	-9.45991
▁We▁need▁to	-9.46016
▁birds	-9.46021
▁window	-9.46046
ke	-9.461
▁for▁it	-9.46152
▁into▁a	-9.46324
▁blind	-9.46359
▁to▁school	-9.46388
▁That▁is	-9.4644
▁in▁our	-9.46561
▁plane	-9.46638
▁a▁week	-9.4664
▁There▁were	-9.46663
▁for▁Tom	-9.46677
▁I▁hope▁you	-9.46724
▁make▁a	-9.46732
▁cool	-9.46796
▁what▁she	-9.46801
▁till	-9.46883
▁go▁there	-9.46909
▁manage	-9.46956
▁a▁friend	-9.47008
▁l	-9.47015
▁an▁old	-9.47037
▁because▁he	-9.47048
▁meal	-9.47086
▁all▁the▁time	-9.47111
▁that▁he▁was	-9.47201
▁I▁bought	-9.47224
▁my▁mother	-9.4724
ard	-9.47349
ism	-9.47368
▁listen▁to	-9.47419
▁to▁live	-9.47445
▁support	-9.47508
▁pizza	-9.47509
▁born	-9.47516
▁have▁you▁been	-9.47583
▁thinks	-9.47623
▁I▁am▁not	-9.47639
▁to▁stop	-9.47666
▁failed	-9.4777
▁your▁name	-9.47774
con	-9.47837
▁peace	-9.47901
,▁"	-9.47931
▁popular	-9.47934
▁answered	-9.47962
▁goal	-9.48069
out	-9.48209
▁What▁did▁you	-9.48317
▁ship	-9.48321
▁the▁sea	-9.48325
▁prefer	-9.48385
▁eats	-9.48409
▁honest	-9.48529
▁choice	-9.48643
▁named	-9.48773
▁Tom▁looked	-9.48797
▁a▁child	-9.48819
▁in▁Japan	-9.48845
▁What▁time	-9.48865
▁listen	-9.48873
▁my▁house	-9.4905
▁off▁the	-9.49161
▁has▁no	-9.4924
▁th	-9.49268
▁showed	-9.49307
▁Will	-9.49311
▁a▁beautiful	-9.49336
▁stood	-9.49344
▁vi	-9.49348
▁low	-9.49377
ll▁go	-9.49404
00	-9.49441
▁arm	-9.49458
▁notice	-9.49598
▁fault	-9.49599
▁du	-9.49687
▁deep	-9.49702
▁like▁you	-9.49738
▁rice	-9.49856
▁stuff	-9.49858
▁of▁them	-9.49906
fe	-9.49907
▁surprise	-9.49947
▁the▁doctor	-9.49994
▁this▁year	-9.49995
▁my▁friend	-9.50037
▁you▁need	-9.50135
▁in▁the▁park	-9.50154
▁slowly	-9.50195
▁for▁a▁long▁time	-9.50222
▁talking▁to	-9.5028
▁Wait	-9.50306
▁to▁study	-9.50325
▁Mary▁is▁a	-9.50467
▁this▁is	-9.50601
▁suffer	-9.50638
▁thank	-9.50662
▁meaning	-9.50718
▁speak▁English	-9.5074
▁The▁dog	-9.50755
▁the▁table	-9.50767
▁glad	-9.50841
▁newspaper	-9.50979
▁to▁see▁you	-9.51034
▁lack	-9.51059
▁recently	-9.5107
our	-9.51218
▁drinks	-9.51252
▁over▁the	-9.51309
▁I▁wanted▁to	-9.51336
0	-9.51379
▁awake	-9.51449
▁watched	-9.51464
▁page	-9.51503
C	-9.51588
▁Isn	-9.51654
▁lo	-9.51676
▁expect	-9.51679
▁studied	-9.5184
▁go▁to▁school	-9.51884
▁people▁who	-9.51931
▁Ken	-9.51958
▁I▁thought▁that	-9.51975
▁built	-9.5198
▁future	-9.51991
t▁leave	-9.51999
les	-9.52108
▁somewhere	-9.52236
▁cats	-9.52238
▁but▁she	-9.52241
▁bright	-9.52255
▁tell▁Tom	-9.52271
▁what▁we	-9.52375
▁form	-9.52376
▁was▁not	-9.52442
▁reach	-9.52577
iv	-9.52642
▁might▁be	-9.5265
▁longer	-9.52698
▁as▁well▁as	-9.52737
▁is▁that	-9.52743
▁j	-9.52776
▁you▁know	-9.52819
▁There▁was	-9.52901
▁Dr	-9.52916
▁sight	-9.52918
▁using	-9.52938
D	-9.53024
ating	-9.53034
▁text	-9.53053
▁risk	-9.53054
▁nobody	-9.53055
▁countries	-9.53056
▁view	-9.53058
▁in▁the▁garden	-9.53098
▁upset	-9.53105
▁thank▁you	-9.53113
t▁think▁that	-9.5313
▁his▁car	-9.5313
▁wood	-9.53153
▁to▁ask	-9.53294
▁stand	-9.533
▁missing	-9.53304
▁across	-9.53345
▁threw	-9.53465
aw	-9.53498
▁He▁has▁a	-9.53522
▁map	-9.53613
▁Tom▁would	-9.53733
▁the▁meeting	-9.53749
▁likely	-9.53767
▁medicine	-9.54041
▁ho	-9.54048
▁Hi	-9.54066
▁Le	-9.54105
▁slow	-9.54173
▁The▁police	-9.54262
▁interest	-9.54268
▁dirty	-9.54284
▁soccer	-9.54285
▁held	-9.54287
▁boss	-9.5434
▁give▁me	-9.54479
▁Sunday	-9.54487
▁stay▁here	-9.54506
▁the▁wrong	-9.5451
▁pretend	-9.54584
▁the▁river	-9.54649
▁to▁keep	-9.5467
▁a▁dog	-9.54721
▁law	-9.54798
▁a▁word	-9.54847
▁his▁mother	-9.54897
▁listening▁to	-9.549
▁Tom▁went	-9.54905
son	-9.54906
▁Only	-9.54908
ze	-9.54916
▁hates	-9.54927
▁sub	-9.54952
▁Europe	-9.54997
▁drank	-9.55116
▁group	-9.55116
▁Two	-9.55121
▁rent	-9.55165
s▁house	-9.55177
▁worried	-9.55199
wa	-9.55237
▁dollars	-9.55266
▁Ask	-9.55306
▁with▁my	-9.55329
▁how▁much	-9.55437
▁you▁should	-9.55439
▁Mary▁said▁she	-9.55461
▁guitar	-9.55497
▁hurry	-9.55502
▁deserve	-9.55529
▁translation	-9.55529
▁suitcase	-9.55529
▁from▁a	-9.55595
▁go▁to▁bed	-9.55607
▁my▁brother	-9.55664
▁need▁to	-9.55664
▁Spanish	-9.55718
▁fired	-9.55786
▁from▁here	-9.5579
▁state	-9.55829
▁your▁own	-9.55871
▁on▁Monday	-9.55922
▁under▁the	-9.55974
▁will▁come	-9.55979
▁Ho	-9.56088
▁came▁to	-9.56119
▁speaks	-9.56147
▁of▁it	-9.56193
s▁from	-9.56239
▁cooking	-9.56259
▁to▁be▁a	-9.56282
▁bank	-9.56287
▁got▁married	-9.56556
▁foot	-9.56583
▁call▁me	-9.56617
▁All▁the	-9.56751
▁knife	-9.56758
▁Sometimes	-9.5679
▁my▁car	-9.56862
▁rule	-9.56874
▁lives▁in	-9.56903
▁tell▁him	-9.56953
▁stars	-9.56976
▁think▁of	-9.56998
▁special	-9.57126
▁fix	-9.57129
t▁take	-9.57146
▁k	-9.57211
▁project	-9.57216
▁ride	-9.57224
s▁my	-9.57239
t▁stand	-9.57252
▁rock	-9.5735
▁very▁good	-9.57381
ten	-9.57405
t▁we	-9.57601
▁dressed	-9.57612
▁record	-9.57639
▁next▁week	-9.57661
red	-9.57817
ical	-9.57865
▁a▁job	-9.57916
▁pick	-9.57922
▁to▁the▁station	-9.57937
▁He▁knows	-9.58001
▁the▁weather	-9.58066
▁wedding	-9.58066
▁like▁it	-9.5808
m▁sure	-9.58086
▁We▁need	-9.58118
▁stole	-9.58133
▁If▁I	-9.58154
ions	-9.58183
t▁look	-9.58237
▁meant	-9.58256
▁noticed	-9.58283
▁Ro	-9.58348
hought▁Alice▁was	-9.58367
▁glass	-9.58391
▁favorite	-9.58459
▁gold	-9.58476
▁dropped	-9.58502
▁confused	-9.58543
s▁got	-9.58552
▁go▁home	-9.58574
▁apartment	-9.58632
▁get▁up	-9.58651
ped	-9.58657
▁received	-9.58664
▁match	-9.58675
▁the▁key	-9.58743
▁account	-9.58786
▁may▁be	-9.58835
▁looked▁at	-9.58853
▁join	-9.58877
▁stone	-9.58911
▁France	-9.58923
▁Good	-9.58925
▁sorry	-9.58932
▁tears	-9.58942
▁fell▁asleep	-9.58948
▁is▁in	-9.59152
▁the▁question	-9.59177
ial	-9.59202
▁and▁then	-9.59223
s▁an	-9.59233
▁in▁front▁of▁the	-9.5926
ll▁take	-9.59278
t▁worry	-9.59319
▁homework	-9.59534
pt	-9.59619
mon	-9.59667
▁wall	-9.59706
▁I▁would▁like▁to	-9.59771
▁natural	-9.59794
▁fr	-9.59826
▁Tom▁left	-9.59849
▁traffic	-9.59889
ious	-9.6005
▁for▁help	-9.60063
▁Yes	-9.60083
▁on▁her	-9.60088
ition	-9.60116
▁think▁about	-9.60176
der	-9.60231
ger	-9.60265
▁you▁want	-9.60374
▁feelings	-9.60401
9	-9.60414
▁ro	-9.60457
▁subject	-9.60576
▁in▁English	-9.6058
▁the▁accident	-9.60626
▁of▁our	-9.60643
▁supposed▁to	-9.60651
▁thinking	-9.60654
▁Yesterday	-9.60669
▁appreciate	-9.60669
▁leaves	-9.60771
▁haven	-9.60821
▁I▁remember	-9.60868
t▁care	-9.60898
▁that▁they▁t	-9.60921
ho	-9.60951
▁laughing	-9.61071
▁boys	-9.61128
▁every▁morning	-9.61163
▁husband	-9.61168
▁type	-9.61219
▁bit	-9.61458
▁bo	-9.6147
,000	-9.61513
▁wonder	-9.61522
▁earn	-9.61523
▁article	-9.61552
▁ask▁you	-9.61589
▁come▁here	-9.61714
▁to▁play	-9.61813
▁I▁did	-9.61815
▁his▁name	-9.61852
ud	-9.61974
▁Sorry	-9.61997
▁flower	-9.62024
▁Is▁thi	-9.62037
▁gas	-9.62038
▁carefully	-9.62082
▁road	-9.62115
▁the▁children	-9.62153
▁They▁have	-9.62213
ed▁up	-9.62269
▁Tom▁tried▁to	-9.62286
▁thinking▁about	-9.62334
▁I▁told▁you	-9.62406
t▁need▁to	-9.62504
▁where▁he	-9.62578
▁animal	-9.6259
▁minutes	-9.62606
▁else	-9.6262
t▁it	-9.62625
▁very▁happy	-9.62628
▁the▁one	-9.62672
ise	-9.6272
▁is▁this	-9.6274
▁all▁night	-9.62826
t▁been	-9.62849
▁Didn	-9.62857
▁I▁met	-9.63064
▁letters	-9.63078
▁is▁it	-9.63095
▁shy	-9.63099
▁Tho	-9.63197
▁they▁are	-9.63257
▁the▁street	-9.63269
▁in▁front	-9.63349
▁Na	-9.63395
▁leg	-9.63446
▁taste	-9.63502
▁se	-9.63528
▁street	-9.63533
▁back▁to	-9.63534
▁know▁where	-9.63645
▁Italian	-9.63795
▁salt	-9.63908
▁Are▁you▁going	-9.63967
em	-9.64027
cy	-9.64122
▁for▁this	-9.64172
▁except	-9.64175
▁nose	-9.64193
▁your▁help	-9.64307
ens	-9.64397
Yes	-9.64459
▁look▁like	-9.64505
▁the▁light	-9.6452
▁make▁it	-9.64526
▁We▁have▁to	-9.6457
▁my▁sister	-9.64617
▁to▁do▁it	-9.64628
m▁really	-9.64668
▁that▁the	-9.64687
da	-9.64698
▁self	-9.64701
▁injured	-9.64705
▁cried	-9.64708
▁Paris	-9.64851
▁path	-9.64966
▁baby	-9.64995
▁above	-9.65013
▁try▁to	-9.65016
▁too▁late	-9.65145
▁Never	-9.65161
ac	-9.65167
ible	-9.6521
▁Tell	-9.65401
ab	-9.65403
▁wh	-9.65556
▁wind	-9.6558
▁shall	-9.65608
▁your▁mother	-9.65622
▁imp	-9.65626
▁drove	-9.65628
▁moon	-9.65636
▁all▁over	-9.65662
▁painted	-9.65665
s▁all	-9.65681
▁I▁see	-9.65739
lu	-9.65779
▁college	-9.6578
▁though	-9.65817
▁smoking	-9.65855
▁8	-9.65937
▁was▁so	-9.6595
▁Tom▁lives	-9.65981
▁worried▁about	-9.65992
▁harder	-9.66055
t▁speak	-9.66062
▁singer	-9.66107
▁alive	-9.66137
▁treat	-9.66169
▁control	-9.66182
s▁nothing	-9.66215
▁impressed	-9.66229
▁to▁speak	-9.66249
t▁a	-9.66285
▁I▁prefer	-9.66302
▁happening	-9.66321
s▁really	-9.66339
▁succeed	-9.66363
▁Tom▁told▁Mary	-9.66552
▁practice	-9.66553
▁president	-9.66553
ang	-9.66554
▁at▁night	-9.66685
▁message	-9.66722
▁you▁want▁to	-9.66757
▁his▁parents	-9.66766
▁murder	-9.668
▁gift	-9.66815
▁storm	-9.66896
▁give▁up	-9.66904
▁I▁get	-9.6694
▁a▁long▁time	-9.6698
▁chicken	-9.67021
▁memory	-9.67021
▁yellow	-9.67025
▁mu	-9.67029
t▁do▁it	-9.67031
▁What▁is▁the	-9.6706
▁Tom▁will▁be	-9.67071
▁is▁not▁a	-9.67107
▁It▁wasn	-9.67115
▁Tom▁died	-9.67205
▁Tom▁made	-9.67253
▁find▁out	-9.67361
time	-9.67411
▁the▁city	-9.67413
s▁still	-9.6743
▁agreed	-9.67454
▁forgotten	-9.67456
▁knowledge	-9.6749
▁temperature	-9.67497
▁rise	-9.67505
▁the▁road	-9.67542
▁at▁the▁moment	-9.67553
▁shopping	-9.67707
▁could▁be	-9.67744
▁truth	-9.6776
▁saved	-9.67779
▁protect	-9.67806
▁a▁lot▁of▁money	-9.6782
▁dr	-9.67856
▁at▁me	-9.67865
▁made▁me	-9.6787
▁before▁you	-9.67928
▁Turn	-9.67945
▁smiled	-9.6795
▁delicious	-9.67962
▁choose	-9.67962
▁gl	-9.68021
▁put▁it	-9.68036
▁help▁us	-9.68116
▁the▁room	-9.68163
▁Tom▁needs	-9.68199
ber	-9.68281
▁cross	-9.68328
▁will▁you	-9.68347
ook	-9.68354
▁Co	-9.6859
▁en	-9.68643
It	-9.68676
▁concert	-9.68686
▁situation	-9.68694
ack	-9.68782
▁equal	-9.68911
▁cheese	-9.68912
▁seldom	-9.68912
▁cha	-9.68919
▁thirsty	-9.68937
▁do▁you▁have	-9.69064
▁do▁you▁want	-9.69074
▁Me	-9.69136
▁We▁had	-9.692
▁pleased	-9.6921
▁attend	-9.69213
▁luck	-9.69263
)	-9.69388
▁enjoyed	-9.69429
re▁a	-9.69533
▁Where▁are▁you	-9.69567
▁save	-9.69581
king	-9.6972
▁to▁us	-9.6976
land	-9.69799
▁the▁new	-9.69864
▁Should	-9.69871
m▁not▁sure	-9.69946
▁She▁had	-9.70051
▁touch	-9.70056
M	-9.70106
▁at▁this	-9.70111
▁if▁it	-9.70143
▁Where▁is▁the	-9.70203
▁quick	-9.70214
▁When▁was▁th	-9.7023
t▁know▁where	-9.70331
▁neither	-9.70353
▁Leave	-9.70354
▁drop	-9.70363
T	-9.70382
ble	-9.70382
▁spoken	-9.70404
▁feed	-9.70415
▁4	-9.70557
▁by▁himself	-9.70577
▁could▁not	-9.70608
ile	-9.70645
▁talk▁to▁you	-9.70649
m▁not▁going	-9.70695
▁beat	-9.707
▁the▁game	-9.70776
▁in▁the▁kitchen	-9.70808
▁borrow	-9.7081
▁instead	-9.7084
▁(	-9.70841
▁baseball	-9.70841
▁size	-9.70881
▁believed	-9.70943
▁in▁Germany	-9.70987
▁prepared	-9.70988
▁gave▁me	-9.7103
▁go▁out	-9.71072
▁when▁she	-9.71119
▁ti	-9.71144
▁fair	-9.71198
▁an▁a	-9.71211
s▁name	-9.71234
▁to▁meet	-9.71264
▁iron	-9.71328
t▁say	-9.7133
▁nu	-9.71333
▁boring	-9.71335
▁welcome	-9.7135
▁pocket	-9.71391
▁Tom▁told▁me	-9.71394
▁da	-9.71589
vo	-9.71807
▁stick	-9.71853
▁largest	-9.71865
▁squirrel	-9.71888
▁My▁sister	-9.71938
t▁keep	-9.71961
▁My▁brother	-9.71967
▁wide	-9.72106
▁laughed	-9.72152
▁doing▁this	-9.7216
▁plays	-9.72167
▁area	-9.72184
▁legs	-9.72277
▁raining	-9.72297
▁understood	-9.7231
▁science	-9.7231
▁conversation	-9.7231
▁calm	-9.72311
▁absolutely	-9.72466
▁hiding	-9.72578
str	-9.72597
▁bath	-9.7262
▁bill	-9.72688
▁let▁me	-9.72697
▁lonely	-9.72805
▁looking▁at	-9.72816
▁know▁how	-9.72822
▁vegetables	-9.72829
ea	-9.72887
▁Pa	-9.72993
▁realized	-9.73048
ran	-9.73078
▁this▁afternoon	-9.73102
▁effort	-9.73194
▁La	-9.7322
m▁glad	-9.73228
▁field	-9.73303
▁dur	-9.7332
▁There▁are▁many	-9.73337
▁take▁care▁of	-9.73362
▁Why▁does	-9.73449
▁we▁are	-9.7348
▁waited	-9.73571
tion	-9.73573
▁caused	-9.73581
▁sun	-9.73596
▁Con	-9.73689
▁ask▁Tom	-9.73809
▁ordered	-9.73885
uck	-9.73947
▁a▁woman	-9.7398
que	-9.74043
▁Tom▁thinks	-9.74085
▁months	-9.74113
▁hall	-9.74123
▁totally	-9.74136
t▁think▁Alice▁w	-9.74178
▁as▁you	-9.7419
▁apple	-9.74196
▁bother	-9.74236
ve▁got▁a	-9.7425
▁Excuse▁me	-9.74305
▁Dan	-9.74306
▁club	-9.74323
ill	-9.74342
▁China	-9.74443
▁her▁mother	-9.74511
▁joke	-9.74516
▁Bob	-9.74539
we	-9.74555
▁bu	-9.74788
▁jacket	-9.7481
▁when▁it	-9.74864
▁ear	-9.74892
?"▁"	-9.749
▁your▁father	-9.74907
▁chess	-9.74975
▁are▁not	-9.75007
▁reached	-9.75047
▁top	-9.75157
▁believe▁that	-9.75166
ing▁his	-9.7517
▁to▁your	-9.75197
▁Su	-9.75264
▁object	-9.75293
▁require	-9.75318
▁Greek	-9.75318
▁intelligent	-9.75318
▁truck	-9.75318
ward▁to	-9.75383
▁The▁sun	-9.75404
t▁seen	-9.75413
eg	-9.75429
▁dry	-9.75506
▁will▁not	-9.75509
▁30	-9.75547
▁paint	-9.75562
▁locked	-9.75567
▁taught	-9.75569
▁we▁were	-9.75656
▁in▁bed	-9.75673
▁wi	-9.7573
▁to▁my	-9.75732
▁listened	-9.75758
▁explanation	-9.75828
▁giving	-9.75833
▁wise	-9.7584
▁admitted	-9.75842
▁sounds	-9.75879
▁ahead	-9.75953
▁to▁sleep	-9.76002
▁I▁do▁not	-9.76013
ump	-9.76047
▁to▁finish	-9.76052
▁seriously	-9.76095
ko	-9.7614
▁rose	-9.76216
ache	-9.76219
re▁going	-9.76223
▁anywhere	-9.76273
".	-9.76285
▁suggest	-9.76321
▁poem	-9.76341
▁list	-9.7635
▁I▁think▁Tom	-9.76385
▁common	-9.76422
▁high▁school	-9.76446
▁considered	-9.76532
▁play▁tennis	-9.76564
▁of▁all	-9.76581
▁cheap	-9.76596
ve▁seen	-9.76623
ex	-9.76664
e▁last▁time▁you	-9.76715
bi	-9.76795
▁regard	-9.76856
▁Stay	-9.76864
▁enough▁to	-9.76942
▁of▁him	-9.7697
▁forest	-9.76983
▁What▁do	-9.77061
▁the▁matter	-9.77129
▁healthy	-9.77154
▁three▁times	-9.7724
▁math	-9.77243
▁but▁not	-9.77254
▁Ka	-9.77371
▁innocent	-9.77375
▁when▁I▁was	-9.77512
▁more▁time	-9.77516
▁go▁to▁the	-9.77564
▁Po	-9.776
ler	-9.77638
▁for▁Mary	-9.7772
▁br	-9.77763
▁author	-9.77787
▁photo	-9.77815
▁my▁life	-9.77829
▁ice▁cream	-9.77898
▁This▁book▁is	-9.77899
ka	-9.77912
▁lawyer	-9.77978
▁up▁the	-9.78058
▁This▁isn	-9.78114
▁planning	-9.78153
▁cow	-9.78195
▁Li	-9.78204
▁a▁good▁idea	-9.7822
▁a▁year	-9.78332
▁New▁York	-9.78419
▁I▁went▁to	-9.78448
▁did▁Tom	-9.78524
▁stolen	-9.78534
old	-9.78566
side	-9.78592
▁to▁hear	-9.78613
ll▁do	-9.78637
▁this▁evening	-9.7864
m▁very	-9.7867
m▁just	-9.78781
▁fishing	-9.78786
▁I▁felt	-9.78854
▁cars	-9.78922
▁Have▁you▁got	-9.78943
▁video	-9.78945
▁contact	-9.78946
▁put▁on	-9.78959
▁to▁change	-9.78968
▁ten▁minutes	-9.7897
▁Mi	-9.78992
▁prison	-9.79008
▁7	-9.79039
▁Am▁I	-9.79104
▁pencil	-9.79108
▁cause	-9.79214
▁was▁born	-9.79232
▁nearly	-9.79349
▁your▁car	-9.79404
▁public	-9.79419
t▁stop	-9.79434
▁if▁she	-9.79448
▁Ziri	-9.79474
▁cash	-9.79496
▁a▁question	-9.79614
▁anyway	-9.79675
ping	-9.79681
▁What▁was	-9.79684
▁forgive	-9.79747
▁gun	-9.79752
▁going▁to▁do	-9.79847
▁18	-9.79871
▁with▁it	-9.79893
▁translate	-9.79919
s▁going▁to	-9.79926
ring	-9.79982
▁ended	-9.79987
▁Something	-9.80007
▁barely	-9.80007
▁satisfied	-9.80042
▁the▁fire	-9.80076
▁we▁need	-9.80224
▁sisters	-9.8032
▁vote	-9.80365
▁cup	-9.80369
▁told▁you	-9.80383
▁talked	-9.80489
▁silent	-9.80538
▁pleasure	-9.80541
▁solution	-9.80541
s▁of▁the	-9.80711
▁to▁give	-9.80777
▁6	-9.80801
▁qu	-9.80803
▁the▁only▁one	-9.81122
▁go▁to▁Boston	-9.8114
ches	-9.81161
ning	-9.81311
▁draw	-9.81418
▁have▁done	-9.81643
▁after▁the	-9.81666
▁repair	-9.81746
▁Tom▁could	-9.81755
▁older	-9.81763
▁lies	-9.81785
▁Mary▁had	-9.81798
▁intend	-9.81822
▁Tell▁Tom	-9.81935
▁on▁me	-9.81953
▁want▁to▁go	-9.8208
▁in▁order	-9.82115
▁I▁made	-9.82153
▁what▁they	-9.82157
▁offered	-9.82183
▁brothers	-9.82224
▁for▁that	-9.82234
▁I▁believe	-9.82292
▁sleepy	-9.82323
by	-9.82483
t▁trust	-9.82657
▁deal	-9.82697
▁easier	-9.82709
▁miles	-9.82724
▁ought▁to	-9.82732
▁season	-9.82756
▁three▁years	-9.82785
▁discuss	-9.82904
sa	-9.82924
ric	-9.82968
▁right▁away	-9.83088
ton	-9.83101
▁library	-9.83176
The	-9.83222
▁said▁that▁she	-9.83249
▁within	-9.83252
▁population	-9.83259
▁Jane	-9.83265
▁got▁a	-9.83319
▁is▁full	-9.83394
▁England	-9.83442
ship	-9.83469
t▁help	-9.83574
▁that▁it	-9.83578
▁very▁busy	-9.83723
▁this▁sentence	-9.83741
▁of▁that	-9.83762
▁forever	-9.83784
▁lived▁in	-9.83798
▁nature	-9.83811
▁demand	-9.83811
▁rude	-9.83815
▁Is▁it▁true	-9.83867
▁waste	-9.83869
▁buying	-9.83946
▁see▁him	-9.83986
▁must▁have	-9.84044
▁raised	-9.84056
▁a▁cat	-9.84099
dy	-9.84142
▁sa	-9.84166
▁is▁going▁to	-9.84182
ny	-9.84247
▁wet	-9.84258
▁Give▁me▁a	-9.84269
ll▁have▁to	-9.84285
▁Ch	-9.84286
▁bi	-9.84346
▁judge	-9.84367
▁Fi	-9.84385
▁loud	-9.84391
▁brain	-9.84415
ve▁ever	-9.84481
▁There▁was▁a	-9.84486
s▁go	-9.84515
▁a▁long	-9.8452
ng	-9.84528
re▁all	-9.84571
▁remain	-9.8458
▁cookies	-9.846
▁I▁know▁what	-9.84637
E	-9.84668
▁forgot	-9.84675
▁a▁very▁good	-9.84711
▁toward	-9.8477
▁owe	-9.84827
▁somebody	-9.84919
▁Kyoto	-9.84925
▁the▁news	-9.84934
▁want▁to▁see	-9.84938
▁a▁student	-9.84949
▁has▁gone	-9.84959
▁gave▁him	-9.84978
▁a▁second	-9.85
▁the▁capital	-9.85054
t▁tell	-9.85164
ll▁come	-9.85271
▁his▁life	-9.85289
▁crime	-9.85292
▁to▁become▁a	-9.853
ice	-9.85322
▁you▁do	-9.85387
▁system	-9.85486
▁character	-9.85487
▁Children	-9.85489
▁pair	-9.85519
▁my▁parents	-9.85531
▁from▁his	-9.85548
▁Tom▁ate	-9.85577
▁I▁used▁to	-9.85628
m▁going	-9.857
▁followed	-9.85715
▁with▁that	-9.85737
▁hang	-9.85765
▁he▁could	-9.85803
▁handle	-9.85814
▁washed	-9.85856
▁gotten	-9.8591
tro	-9.85924
▁collect	-9.86013
▁the▁end▁of▁the	-9.86041
▁goes▁to	-9.8605
▁bedroom	-9.86065
▁woke▁up	-9.86118
▁difference	-9.86135
▁What▁did	-9.86198
▁faster	-9.86324
▁friendly	-9.86342
bo	-9.86344
▁do▁anything	-9.86521
▁danger	-9.86526
▁put▁the	-9.86536
▁express	-9.86558
▁expecting	-9.86588
▁definitely	-9.8662
▁disease	-9.8662
▁moving	-9.86652
d▁like	-9.86659
▁carri	-9.86669
▁theory	-9.86772
▁You▁won	-9.86883
▁100	-9.86911
the	-9.86931
lf	-9.87089
▁What▁would▁you	-9.87108
▁ge	-9.87159
▁guilty	-9.87215
bb	-9.87281
▁a▁letter	-9.87321
▁get▁a	-9.8733
▁My▁friend	-9.87473
▁The▁weather	-9.8751
▁enough▁money	-9.87594
▁example	-9.87595
▁distance	-9.87597
▁Ar	-9.87633
▁filled	-9.87656
▁your▁eyes	-9.87678
▁May	-9.87689
tle	-9.87709
▁behavior	-9.87766
▁suspect	-9.87766
▁spread	-9.87772
qu	-9.87774
▁castle	-9.87803
▁direction	-9.87808
▁among	-9.87818
▁tri	-9.87825
t▁yet	-9.87885
▁roll	-9.88019
▁ta	-9.8802
▁there▁is	-9.88045
▁invite	-9.88051
▁because▁I	-9.88133
▁she▁had	-9.88164
▁By	-9.88201
▁come▁to	-9.88258
%	-9.88295
▁Come▁on	-9.88376
▁marry	-9.88438
▁certainly	-9.88586
room	-9.8866
▁than▁you	-9.8871
▁brave	-9.88762
▁fool	-9.8881
▁about▁Tom	-9.8883
▁the▁teacher	-9.88831
▁to▁the▁party	-9.88853
▁lock	-9.88868
▁Where▁do▁you	-9.88923
▁studies	-9.88926
ound	-9.88939
▁duty	-9.88944
▁reply	-9.89041
▁normal	-9.89055
m▁not▁a	-9.8909
▁neighbour	-9.89101
▁pupils	-9.89105
ll▁have	-9.89169
end	-9.89175
▁by▁bus	-9.89217
▁explained	-9.89235
t▁want▁you	-9.8927
s▁wrong	-9.89328
▁jumped	-9.89359
▁was▁born▁in	-9.89372
▁the▁difference	-9.8943
▁H	-9.89516
▁favourite	-9.89559
▁in▁the▁room	-9.89607
▁only▁one	-9.8962
ade	-9.89627
▁younger	-9.89672
▁Tom▁knew	-9.89793
▁ideas	-9.89804
▁weak	-9.89811
▁personal	-9.89823
▁translated	-9.89835
▁board	-9.89841
▁ears	-9.89844
▁soul	-9.89861
▁We▁didn	-9.89954
▁pi	-9.90058
re▁here	-9.90084
▁Africa	-9.90099
▁lazy	-9.90099
▁magazine	-9.90099
▁to▁wait	-9.90117
▁pray	-9.90123
▁rarely	-9.90179
t▁hear	-9.90188
▁I▁wish▁you	-9.90192
▁in▁that	-9.90231
▁complain	-9.90303
O	-9.90414
▁asked▁for	-9.90464
▁discovered	-9.90491
▁My▁parents	-9.90495
▁Tom▁came	-9.90587
▁is▁true	-9.90593
▁mis	-9.90664
▁private	-9.90691
▁front	-9.90871
▁mail	-9.90872
▁na	-9.90888
▁interested	-9.90901
▁She▁has▁a	-9.91044
▁skin	-9.91048
▁a▁single	-9.91079
s▁only	-9.91105
▁bigger	-9.91114
▁Tom▁sat	-9.91222
▁aware	-9.91305
▁flight	-9.91313
▁enter	-9.91483
▁calling	-9.91488
▁ac	-9.91538
▁breath	-9.9158
▁product	-9.91607
▁oil	-9.91626
▁corner	-9.91669
gg	-9.91669
▁Well	-9.91784
▁seems▁to	-9.91804
Because	-9.91882
▁similar	-9.91884
▁Canada	-9.91885
ue	-9.91895
▁prove	-9.9191
t▁know▁why	-9.9202
▁press	-9.92069
▁tennis	-9.92157
▁but▁I▁don	-9.92162
▁all▁right	-9.92175
▁jokes	-9.92198
▁the▁piano	-9.92207
bu	-9.92257
▁improve	-9.92258
▁vacation	-9.9237
▁to▁visit	-9.92374
▁would▁never	-9.92404
▁Tom▁should	-9.92444
▁Y	-9.92459
▁trans	-9.92485
▁dying	-9.92489
▁thought▁that	-9.92491
▁autumn	-9.92497
▁i	-9.92503
▁Read	-9.92507
ery	-9.92526
▁How▁old	-9.92527
▁hid	-9.92556
▁square	-9.92558
▁his▁son	-9.92576
wi	-9.92579
▁ski	-9.92595
▁to▁pay	-9.92636
▁mark	-9.92654
▁wait▁for	-9.92731
▁waiting▁for▁you	-9.92799
gen	-9.9283
▁Ne	-9.92871
▁the▁job	-9.92871
▁the▁cat	-9.9291
m▁here	-9.92921
▁continue	-9.92941
▁because▁it	-9.92956
m▁looking▁for	-9.92969
▁in▁here	-9.92987
▁a▁lawyer	-9.92999
▁service	-9.93093
▁excellent	-9.93093
▁polite	-9.93093
▁excuse	-9.93096
light	-9.93204
▁his▁dog	-9.93223
tor	-9.93342
▁around▁here	-9.93369
▁nine	-9.93383
▁will▁have	-9.93416
▁I▁need▁a	-9.93488
▁9	-9.93531
▁mouth	-9.93678
▁available	-9.93703
▁Unfortunately	-9.93703
▁stomach	-9.93703
▁energy	-9.93703
▁further	-9.93704
▁master	-9.93721
▁yen	-9.93787
▁of▁me	-9.93885
t▁expect	-9.93887
▁whatever	-9.9391
▁fail	-9.93918
▁arms	-9.93923
▁convinced	-9.93957
▁that▁way	-9.94029
▁artist	-9.94052
▁is▁the▁best	-9.94074
▁some▁money	-9.94239
io	-9.94249
▁hu	-9.94252
▁Some▁people	-9.94271
▁London	-9.94283
▁itself	-9.94316
ome	-9.94356
▁told▁him	-9.94391
tan	-9.94408
t▁know▁that	-9.94441
▁Do▁not	-9.94472
s▁father	-9.94492
▁Gra	-9.9451
▁teach	-9.94519
▁close▁to	-9.94573
▁mistaken	-9.94609
▁I▁just▁want	-9.94616
▁recognize	-9.9464
▁upon	-9.94661
▁should▁have	-9.94666
▁you▁please	-9.94672
▁bell	-9.94748
▁to▁use	-9.94825
▁took▁the	-9.94901
▁beyond	-9.94934
t▁mind	-9.95015
▁would▁have	-9.9502
▁button	-9.95036
▁for▁dinner	-9.95079
▁The▁house	-9.95097
▁his▁house	-9.95113
▁way▁to	-9.95117
▁phone▁number	-9.95151
▁difficult▁to	-9.95179
▁What▁a	-9.95209
▁cannot▁be	-9.95229
▁weekend	-9.9523
ign	-9.95244
▁imagine	-9.9526
▁realize	-9.95269
▁the▁name	-9.95272
bra	-9.95283
You	-9.95345
▁she▁is	-9.95444
▁Mo	-9.95479
▁seems▁to▁be	-9.95485
▁his▁friends	-9.95487
ung	-9.95543
▁document	-9.95555
▁comment	-9.95555
ator	-9.95597
▁to▁tell▁you	-9.95635
▁I▁had▁to	-9.95804
▁a▁girl	-9.95917
P	-9.95928
▁lady	-9.96043
ak	-9.96096
▁believe▁in	-9.96102
▁with▁this	-9.96124
▁brush	-9.96174
▁repeat	-9.96182
▁to▁go▁to	-9.96191
▁pieces	-9.96194
▁plate	-9.96195
▁refused▁to	-9.96214
▁what▁to▁do	-9.96215
t▁drink	-9.96237
▁race	-9.96273
▁come▁from	-9.96366
▁War	-9.96388
s▁not▁a	-9.96448
▁Un	-9.9648
▁market	-9.96486
▁fi	-9.96496
▁to▁answer	-9.96546
▁non	-9.9655
▁approach	-9.96809
▁“	-9.96825
▁helping	-9.96843
▁Ta	-9.96911
▁weigh	-9.96968
▁sort▁of	-9.9705
▁told▁Tom	-9.97071
▁show▁me	-9.97071
▁pa	-9.9708
▁wears	-9.9708
▁crowd	-9.97185
▁for▁a▁while	-9.97225
▁Tom▁is▁an	-9.97227
s▁something	-9.97269
▁enemy	-9.97384
”	-9.97441
▁handsome	-9.97452
ative	-9.97498
▁sand	-9.97501
▁sports	-9.9756
▁gives	-9.97565
▁but▁the	-9.97606
▁the▁night	-9.97608
t▁just	-9.97632
▁because▁of▁the	-9.97632
▁fan	-9.9764
▁bought▁a	-9.97662
▁study▁French	-9.97698
▁Tom▁bought	-9.97708
▁movies	-9.97741
▁in▁the▁hospital	-9.97756
▁clock	-9.9784
▁Make	-9.97855
▁decide	-9.98013
▁Jo	-9.98033
▁a▁picture▁of	-9.98112
▁Tom▁often	-9.98142
ay	-9.982
ched	-9.98254
t▁got	-9.98271
es▁are	-9.98345
▁needs▁to▁be	-9.98397
t▁give	-9.984
t▁want▁to▁go	-9.984
▁thin	-9.98407
lic	-9.9841
▁single	-9.98555
▁climbed	-9.98564
▁Do▁you▁remember	-9.98595
d▁never	-9.98606
▁worry▁about	-9.98663
ana	-9.98671
▁it▁would▁be	-9.98713
▁habit	-9.98719
▁excited	-9.9872
▁happiness	-9.9872
▁wild	-9.98721
▁drug	-9.98726
▁to▁start	-9.98727
▁Hello	-9.98733
av	-9.98743
mit	-9.98744
▁umbrella	-9.98765
▁wore▁a	-9.988
▁Tom▁had▁a	-9.98801
▁your▁friend	-9.98821
▁dreams	-9.98861
ide	-9.9887
▁When▁you	-9.98936
▁keeps	-9.98954
▁warned	-9.98999
▁in▁the▁car	-9.99001
▁my▁own	-9.9901
▁I▁tried	-9.99039
▁band	-9.99085
▁three▁hours	-9.99092
▁told▁me▁that	-9.99131
▁waited▁for	-9.99152
▁talked▁to	-9.99176
▁These▁are	-9.99251
t▁she	-9.99257
ki	-9.99264
▁from▁her	-9.99302
▁crossed	-9.99339
re▁doing	-9.99357
▁proposal	-9.99365
ult	-9.99385
▁mood	-9.99386
▁bra	-9.99399
▁without▁you	-9.99408
▁the▁tree	-9.99409
▁in▁time	-9.99455
▁avoid	-9.99507
▁Tom▁walked	-9.99508
▁are▁very	-9.99534
▁the▁day	-9.99536
▁issue	-9.99555
▁on▁the▁beach	-9.99598
▁he▁can	-9.99673
▁Di	-9.99683
▁took▁off	-9.9969
▁hearing	-9.99726
ich	-9.99739
t▁want▁to▁be	-9.99779
▁my▁name	-9.99795
ized	-9.99823
▁The▁door	-9.99825
▁a▁tree	-9.99829
▁the▁worst	-9.99855
▁Do▁you▁know▁how	-9.99943
▁runs	-9.99957
▁see▁you	-9.99961
▁admire	-10.0001
▁super	-10.0003
▁someone▁else	-10.0004
▁sw	-10.0006
▁farm	-10.0016
▁you▁could	-10.0019
t▁always	-10.0022
▁help▁Tom	-10.0025
▁and▁he	-10.0026
re▁right	-10.0028
qui	-10.0041
▁cap	-10.0044
▁two▁years	-10.0054
if	-10.0058
cul	-10.0064
▁speed	-10.0067
▁force	-10.0074
▁is▁good	-10.0076
tra	-10.0077
ing▁up	-10.008
▁The▁new	-10.008
▁action	-10.0081
▁your▁brother	-10.0083
▁Today▁is	-10.0088
fl	-10.0088
▁escape	-10.0088
▁course	-10.0089
▁guess	-10.0095
▁you▁will	-10.0096
▁shoulder	-10.0102
!▁"	-10.0104
—	-10.0107
▁su	-10.0112
▁a▁lie	-10.0115
▁Fro	-10.0115
▁sharp	-10.0116
▁I▁asked▁Tom	-10.0118
▁against▁the	-10.0119
▁sooner	-10.0119
▁hour	-10.0121
▁soldier	-10.0125
oo	-10.0128
▁fed	-10.013
▁to▁talk▁to	-10.0132
▁dancing	-10.0133
▁relax	-10.0133
▁on▁the▁bus	-10.0135
▁look▁after	-10.0139
▁fallen	-10.014
▁on▁that	-10.0141
▁when▁we	-10.0141
▁in▁the▁middle	-10.0147
uc	-10.0159
▁Say	-10.0162
▁out▁the	-10.0163
▁I▁guess	-10.017
▁burn	-10.0172
▁careful	-10.0176
▁of▁money	-10.0182
▁this▁time	-10.0185
▁if▁we	-10.0186
▁Al	-10.0187
for	-10.0187
▁Tom▁found	-10.019
▁do▁something	-10.0192
t▁matter	-10.0199
▁socks	-10.0203
▁Bring	-10.0203
▁the▁water	-10.0205
▁dare	-10.0208
▁useful	-10.0212
▁Bill	-10.0215
▁The▁cat	-10.0216
▁Life▁is	-10.0219
t▁feel▁like	-10.0226
▁a▁real	-10.0228
▁200	-10.0229
▁fell▁in▁love	-10.0242
cent	-10.0245
▁done▁that	-10.025
▁condition	-10.0251
▁You▁could	-10.0256
▁songs	-10.0257
▁many▁people	-10.0261
▁mar	-10.0262
▁share	-10.0263
▁flying	-10.0263
▁is▁more	-10.0264
▁relative	-10.0265
▁scientist	-10.0265
▁Algeria	-10.0265
▁knee	-10.0265
▁comfortable	-10.0267
▁blow	-10.0267
▁covered	-10.027
▁tell▁her	-10.0279
▁I▁had▁a	-10.028
▁coin	-10.0281
▁Rome	-10.0282
▁my▁wife	-10.0282
▁hurts	-10.0283
t▁speak▁French	-10.0286
▁to▁Australia	-10.0295
▁raise	-10.0305
▁ever▁seen	-10.0305
B	-10.0306
▁got▁up	-10.0306
den	-10.0309
▁around▁the	-10.0314
▁going▁out	-10.0315
▁hi	-10.0315
▁cl	-10.0328
▁from▁you	-10.0328
▁capital	-10.0329
▁to▁understand	-10.0331
▁limit	-10.0333
▁stranger	-10.0333
▁trick	-10.0334
▁speaker	-10.0335
▁jump	-10.0336
▁the▁ball	-10.0336
▁position	-10.0337
▁to▁tell	-10.0338
▁to▁help▁you	-10.0345
▁belongs▁to	-10.0347
▁may▁have	-10.036
ll▁be▁back	-10.0362
▁Se	-10.0365
ities	-10.0366
▁shape	-10.0372
▁Speak	-10.0381
▁is▁about	-10.0382
ose	-10.039
▁value	-10.04
▁request	-10.04
▁curious	-10.0401
▁stamp	-10.0402
▁losing	-10.0403
▁ask▁me	-10.0404
▁went▁out	-10.0411
▁absent	-10.0413
▁speaks▁French	-10.0413
▁Americans	-10.0416
▁at▁the▁station	-10.0419
▁Love	-10.0422
▁talks	-10.0437
▁from▁me	-10.0438
▁a▁taxi	-10.0439
▁the▁future	-10.0439
▁washing	-10.0439
▁those▁who	-10.0441
▁What▁is▁your	-10.0443
▁Mum	-10.0449
▁to▁meet▁you	-10.045
▁to▁see▁me	-10.0457
ual	-10.0457
▁Bu	-10.0458
▁treated	-10.0461
▁lit	-10.0465
▁mobile	-10.0466
▁beauty	-10.0468
▁website	-10.0468
▁grass	-10.0468
▁brown	-10.0469
▁Roman	-10.0473
▁Ex	-10.0474
▁I▁wish▁I▁could	-10.0474
▁potatoes	-10.048
▁My▁wife	-10.0485
▁nothing▁to▁do	-10.0488
▁much▁money	-10.0492
ed▁out	-10.0502
▁forgot▁to	-10.0502
▁the▁phone	-10.0513
▁give▁me▁a	-10.0518
▁how▁to▁do▁that	-10.0521
▁badly	-10.0526
▁in▁prison	-10.0527
▁lots	-10.0531
▁You▁will	-10.0535
▁pack	-10.0536
▁is▁worth	-10.0536
▁complicated	-10.0537
▁provide	-10.0537
▁south	-10.0537
▁clever	-10.0538
▁watching▁TV	-10.0539
▁Time	-10.0539
▁fa	-10.0544
▁mention	-10.0548
▁do▁what	-10.0551
▁beside	-10.0553
▁to▁help▁me	-10.0556
board	-10.0558
▁to▁be▁here	-10.0561
▁picked▁up	-10.0565
▁Tom▁is▁going	-10.0566
▁the▁boy	-10.057
▁complete	-10.0573
ier	-10.0576
▁take▁a	-10.0577
ve▁known	-10.0577
▁deal▁with	-10.058
▁king	-10.0584
▁receive	-10.0587
ub	-10.0589
▁Eat	-10.059
▁I▁hear	-10.0594
▁Hey	-10.0603
▁effect	-10.0604
▁favor	-10.0605
▁simply	-10.0606
▁resign	-10.0606
▁scene	-10.0606
▁due▁to	-10.0607
▁laid	-10.061
▁to▁our	-10.0611
▁We▁know	-10.0611
▁I▁want▁to▁be	-10.0612
▁The▁children	-10.0619
▁involved	-10.0621
▁about▁her	-10.0622
▁when▁the	-10.0624
ough	-10.0626
ably	-10.063
▁can▁see	-10.0636
mber	-10.0638
▁beginning▁to	-10.0638
ner	-10.0644
▁news	-10.0646
▁Ki	-10.0648
▁couple	-10.0649
▁my▁mind	-10.0652
▁Friday	-10.0653
▁phoned	-10.0661
▁I▁think▁Tom▁is	-10.0663
▁The▁car	-10.0663
▁will▁take	-10.0664
▁trying	-10.0668
▁observ	-10.0673
over	-10.0687
▁of▁the▁world	-10.0693
▁The▁bus	-10.0693
▁at▁the▁party	-10.0699
▁hide	-10.0702
▁want▁to▁do	-10.0706
▁found▁a	-10.0707
▁does▁that	-10.0709
▁a▁month	-10.0712
▁The▁ship	-10.0714
▁I▁love▁you	-10.0714
▁from▁school	-10.0719
▁a▁couple	-10.0723
▁museum	-10.0725
▁that▁book	-10.0725
▁his▁eyes	-10.0729
▁come▁in	-10.073
▁to▁do▁this	-10.0732
▁accepted	-10.0743
▁harm	-10.0745
▁everywhere	-10.0745
▁ghost	-10.0745
▁a▁s	-10.0745
▁writer	-10.0747
▁love▁me	-10.0748
▁She▁can	-10.0749
▁the▁work	-10.0749
▁falling	-10.075
▁next▁year	-10.075
▁any▁longer	-10.0754
▁Pro	-10.0756
▁pulled	-10.0757
▁tastes	-10.0768
ium	-10.0772
s▁car	-10.0773
▁mom	-10.0773
▁finger	-10.0785
▁all▁that	-10.0793
▁note	-10.0797
▁across▁the	-10.0798
▁pull	-10.0804
s▁going▁on	-10.0804
▁card	-10.0807
ed▁on	-10.0809
▁am▁I	-10.0809
▁are▁you▁doing	-10.0811
▁Brazil	-10.0814
▁pregnant	-10.0815
▁silence	-10.0815
▁exercise	-10.0815
▁assume	-10.0816
▁pop	-10.0816
▁very▁nice	-10.0816
▁Jim	-10.0816
▁the▁moon	-10.082
▁dishes	-10.0828
▁How▁are▁you	-10.0828
▁so▁he	-10.083
▁str	-10.0834
▁would▁you▁like	-10.0836
▁Ra	-10.0836
t▁happen	-10.0839
▁measure	-10.0844
▁the▁kitchen	-10.0845
▁an▁apple	-10.0845
▁recommend	-10.0846
▁main	-10.0853
t▁read	-10.0854
▁convince	-10.0857
▁They▁say	-10.0857
▁cards	-10.086
t▁sleep	-10.0865
▁cur	-10.0866
unt	-10.0867
▁of▁water	-10.0873
▁you▁tell▁me	-10.0881
▁push	-10.0883
▁stories	-10.0886
▁average	-10.0886
▁is▁a▁very	-10.0888
▁costs	-10.0893
▁He▁came	-10.0895
ach	-10.0897
▁evil	-10.0903
ify	-10.0907
▁Tom▁really	-10.0907
▁would▁you	-10.0908
ob	-10.0911
re▁very	-10.0915
▁Ca	-10.092
▁a▁secret	-10.092
▁flu	-10.0922
▁teaching	-10.0925
▁looked▁like	-10.0927
od	-10.0928
▁that▁one	-10.0933
▁on▁the▁phone	-10.094
▁lesson	-10.0941
▁tend	-10.0942
▁whom	-10.0943
ear	-10.0944
▁pan	-10.0944
▁I▁owe	-10.0948
▁arrested	-10.0949
▁Tom▁felt	-10.0954
▁pet	-10.0955
▁weapon	-10.0958
▁cheek	-10.0958
▁local	-10.0958
▁thief	-10.0958
▁relationship	-10.0958
▁time▁to	-10.0967
▁down▁the	-10.0972
use	-10.0984
▁gave▁me▁a	-10.0985
▁When▁are▁you	-10.0992
▁The▁old▁man	-10.1002
▁tongue	-10.1002
▁ab	-10.1009
▁file	-10.1013
▁the▁rules	-10.1017
▁are▁you▁going	-10.1018
▁in▁touch	-10.1022
▁twelve	-10.103
▁rumor	-10.103
▁unhappy	-10.103
▁progress	-10.103
▁sheep	-10.1031
▁error	-10.1031
▁feels	-10.1034
lin	-10.1035
▁piano	-10.1041
▁tight	-10.1043
▁the▁earth	-10.1044
ey	-10.1044
:▁"	-10.1049
▁Many▁people	-10.1049
▁cousin	-10.1052
▁the▁movie	-10.1053
▁Italy	-10.1055
ite	-10.1055
▁at▁six	-10.1062
▁the▁man	-10.1064
▁the▁exam	-10.1065
▁ten▁years	-10.1065
▁where▁you	-10.1078
cing	-10.1078
▁lake	-10.1085
▁cover	-10.109
▁uncle	-10.1095
▁alcohol	-10.1102
▁permission	-10.1102
▁Although	-10.1105
▁next▁month	-10.1107
▁borrowed	-10.1107
▁illness	-10.1109
▁willing	-10.1109
▁def	-10.1109
▁teaches	-10.1113
▁He▁is▁not	-10.1113
▁planning▁to	-10.1115
▁sweater	-10.1115
▁I▁read	-10.1118
▁Ga	-10.1121
▁the▁lake	-10.1122
▁I▁wonder▁why	-10.1128
▁my▁homework	-10.113
▁was▁wrong	-10.1135
▁Fa	-10.1136
▁plant	-10.1143
▁I▁hope▁that	-10.1145
▁refuse	-10.1146
▁on▁it	-10.115
▁ever▁been	-10.1153
▁attack	-10.1154
▁Ni	-10.1162
▁Tom▁is▁not	-10.1162
▁think▁about▁it	-10.1167
▁already▁know	-10.117
▁juice	-10.1171
▁talk▁about▁it	-10.1174
▁midnight	-10.1175
▁failure	-10.1177
▁sang	-10.1177
▁thick	-10.1177
▁mouse	-10.1179
▁I▁am▁a	-10.118
▁only▁one▁who	-10.1182
▁How▁can▁I	-10.1183
▁the▁beach	-10.119
▁What▁happened	-10.1195
▁care▁of	-10.1196
▁the▁radio	-10.1198
▁in▁London	-10.1205
▁This▁book	-10.1209
▁really▁think	-10.1209
ince	-10.121
▁makes▁me	-10.1216
▁to▁try	-10.1216
t▁seem▁to	-10.1218
▁is▁coming	-10.1221
▁know▁about	-10.1234
▁Pe	-10.1236
▁Sha	-10.124
▁wake	-10.1241
▁told▁her	-10.1242
▁people▁are	-10.1242
ug	-10.1248
▁attempt	-10.1249
▁upstairs	-10.1249
▁intention	-10.1249
▁adult	-10.125
▁Tom▁lost	-10.1257
▁can▁you	-10.1261
▁rec	-10.1263
▁for▁a▁walk	-10.127
▁fairly	-10.1271
ize	-10.1274
▁tickets	-10.1282
▁email	-10.1286
▁thanks	-10.1287
▁such▁a▁thing	-10.129
▁without▁a	-10.1291
gged	-10.1292
▁concerned	-10.1293
▁lower	-10.1295
▁find▁it	-10.1297
▁said▁they	-10.1306
▁marriage	-10.1323
▁politician	-10.1323
▁earthquake	-10.1323
▁patience	-10.1323
▁towel	-10.1323
▁spell	-10.1329
▁her▁hair	-10.1332
own	-10.1335
▁I▁ate	-10.1338
ple	-10.1344
▁successful	-10.1348
▁manager	-10.1354
▁solve	-10.1358
▁Cat	-10.1358
▁for▁three▁years	-10.1362
▁clearly	-10.1364
▁your▁family	-10.1366
▁I▁would▁have	-10.1366
low	-10.137
▁in▁love	-10.1384
▁my▁family	-10.1384
▁an▁accident	-10.1385
▁N	-10.1385
▁tu	-10.1393
▁October	-10.1394
▁neck	-10.1397
▁consist	-10.1398
▁fighting	-10.1398
▁to▁talk	-10.1404
▁row	-10.1404
▁it▁up	-10.1411
▁on▁the▁floor	-10.1425
▁roof	-10.1431
▁her▁eyes	-10.1432
▁advised	-10.1432
▁gu	-10.1442
▁as▁the	-10.1442
▁from▁him	-10.1447
▁It▁would▁be	-10.1453
▁ask▁him	-10.1457
▁obvious	-10.1458
▁lately	-10.1458
▁he▁said	-10.1458
ction	-10.1461
▁more▁money	-10.1461
▁I▁saw▁Tom	-10.1463
▁to▁walk	-10.1463
▁part▁of▁the	-10.1467
▁switch	-10.1473
▁Three	-10.1473
▁ugly	-10.1473
▁may▁not	-10.1473
▁weird	-10.1473
▁will▁do	-10.1473
▁social	-10.1475
t▁talk	-10.1475
▁your▁sister	-10.1481
▁ca	-10.1482
▁that▁he▁had	-10.1484
work	-10.1484
▁I▁forgot	-10.1497
▁quite▁a	-10.1497
▁French▁teacher	-10.1507
▁north	-10.1509
▁fill	-10.1511
▁program	-10.1513
▁for▁my	-10.1522
▁his▁family	-10.1528
ties	-10.154
▁bite	-10.154
▁a▁minute	-10.1541
▁The▁first	-10.1542
ark	-10.1547
▁photograph	-10.1548
▁smiling	-10.1548
▁design	-10.1548
▁a▁problem	-10.1549
▁became▁a	-10.155
▁has▁never	-10.1554
▁rate	-10.1558
▁guard	-10.1559
▁very▁beautiful	-10.157
▁two▁hours	-10.1572
▁I▁understand	-10.1573
▁dish	-10.1589
▁Dad	-10.1591
▁really▁good	-10.1596
▁calls	-10.1596
▁the▁past	-10.1598
▁tap	-10.1607
▁a▁house	-10.1612
▁15	-10.1622
▁audience	-10.1625
▁education	-10.1625
▁modern	-10.1625
▁ancient	-10.1625
▁engaged	-10.1625
▁accent	-10.1625
▁extra	-10.1626
▁this▁problem	-10.1627
▁Be▁careful	-10.1627
ified	-10.1628
▁soft	-10.163
▁apologize	-10.1639
▁best▁friend	-10.1639
t▁do	-10.164
▁on▁purpose	-10.164
▁rep	-10.1644
▁really▁want▁to	-10.1653
▁He▁went	-10.1655
▁12	-10.1669
▁at▁first	-10.1669
▁camp	-10.1671
▁comes▁from	-10.1673
▁agree▁with▁you	-10.1674
▁wearing▁a	-10.1691
▁the▁end	-10.1695
▁major	-10.1699
▁argument	-10.1702
▁dear	-10.1702
▁denied	-10.1702
▁My▁name▁is	-10.1704
▁Z	-10.1704
▁I▁told▁Tom	-10.1716
▁apart	-10.1717
ev	-10.1723
▁want▁to▁know	-10.1727
▁than▁me	-10.1728
▁He▁left	-10.1728
▁in▁hospital	-10.1731
▁vo	-10.1732
▁my▁son	-10.1741
fer	-10.1747
▁the▁answer	-10.1749
▁you▁say	-10.175
▁his▁job	-10.1752
▁live▁here	-10.1766
year	-10.1769
▁Pr	-10.177
▁like▁me	-10.1771
▁a▁moment	-10.1775
▁quarter	-10.1779
▁double	-10.1779
▁Spain	-10.178
▁flew	-10.178
▁take▁the	-10.178
▁found▁out	-10.1783
▁pin	-10.1785
▁last▁month	-10.1785
fully	-10.1794
s▁fast▁as	-10.18
ked	-10.1803
▁He▁said▁he	-10.1804
▁destroyed	-10.1808
t▁able▁to	-10.1808
▁clouds	-10.1811
▁the▁beginning	-10.1816
▁look▁for	-10.1816
▁a▁mistake	-10.1817
▁Russia	-10.1821
▁Da	-10.1832
▁is▁called	-10.1845
▁can▁do▁it	-10.1846
▁of▁life	-10.1852
oc	-10.1855
▁suspicious	-10.1857
▁magic	-10.1857
▁buy▁a	-10.1858
▁going▁on	-10.1858
▁exhausted	-10.1864
▁sur	-10.1865
▁in▁a▁hurry	-10.1865
▁anything▁else	-10.1869
▁I▁ran	-10.1871
▁a▁few▁minutes	-10.1871
ame	-10.1873
▁suggestion	-10.1874
ail	-10.1874
▁get▁it	-10.1874
▁in▁this▁room	-10.1877
▁attacked	-10.1881
▁on▁Sunday	-10.1884
▁I▁really▁like	-10.1887
▁when▁they	-10.1889
▁I▁suppose	-10.1889
▁Mu	-10.1892
▁do▁that▁again	-10.1892
▁cor	-10.1895
▁Ti	-10.1901
▁windows	-10.1902
▁Car	-10.1903
▁this▁way	-10.1905
▁I▁left	-10.1906
▁I▁wrote	-10.1906
▁is▁over	-10.1907
▁a▁message	-10.1908
▁sandwich	-10.1909
▁grandfather	-10.1921
▁closer	-10.1923
▁fog	-10.1928
▁2013	-10.1936
▁unusual	-10.1936
▁naked	-10.1937
s▁parents	-10.1937
▁agree▁with	-10.194
▁your▁dog	-10.194
rrow	-10.1941
▁says▁that▁he	-10.1941
▁Th	-10.1944
▁Tom▁works	-10.1945
t▁as	-10.1945
▁stuck	-10.1947
▁go▁back	-10.1948
▁studying▁French	-10.1952
ank	-10.1953
▁The▁baby	-10.196
au	-10.1963
▁get▁married	-10.1963
▁wound	-10.1971
▁to▁happen	-10.1973
▁wonderful	-10.1975
▁to▁travel	-10.198
ve▁lost	-10.1981
▁to▁go▁there	-10.1985
▁Write	-10.1989
▁minute	-10.1993
▁appeared	-10.1995
▁very▁good▁at	-10.1995
▁to▁watch	-10.2
▁sport	-10.2004
▁makes▁you	-10.2005
▁I▁promise	-10.2009
t▁answer	-10.2011
▁Open	-10.2014
▁fifty	-10.2015
▁Berlin	-10.2015
▁ourselves	-10.2015
▁obey	-10.2015
▁foolish	-10.2023
▁lion	-10.2032
▁sit▁down	-10.2033
t▁feel	-10.2033
▁created	-10.2037
▁behind▁the	-10.2038
▁loss	-10.2039
▁growing	-10.204
▁radio	-10.2044
▁Man	-10.2044
▁to▁help▁him	-10.2052
▁my▁room	-10.206
▁Gu	-10.2061
▁in▁trouble	-10.2067
t▁know▁who	-10.207
▁your▁parents	-10.2071
▁repaired	-10.2077
▁none	-10.2079
▁the▁girl	-10.208
▁a▁foreign	-10.2087
▁his▁hand	-10.209
▁Smith	-10.2093
▁poet	-10.2093
▁Tomorrow	-10.2095
▁debt	-10.2096
▁source	-10.2097
▁hated	-10.2097
▁factory	-10.2098
▁fever	-10.2098
▁burned	-10.2099
▁tail	-10.21
▁European	-10.21
▁fond	-10.2101
▁a▁thing	-10.2108
▁Is▁this▁your	-10.2111
▁fashion	-10.2117
▁the▁bank	-10.2129
oke	-10.2131
▁see▁Tom	-10.2133
▁before▁he	-10.2134
▁I▁lost	-10.2141
▁piece	-10.2142
m▁glad▁you	-10.2144
▁depend	-10.2145
▁to▁lose	-10.2153
▁the▁wall	-10.2153
re▁not▁going	-10.2156
▁for▁lunch	-10.2158
▁much▁better	-10.2158
▁He▁lost	-10.2158
▁the▁same▁thing	-10.2164
▁want▁to▁be	-10.2167
▁I▁should▁have	-10.2172
▁I▁miss	-10.2176
▁British	-10.2176
▁material	-10.2176
▁joy	-10.2176
▁separate	-10.2176
▁imagination	-10.2176
▁thirteen	-10.2176
▁sail	-10.2176
▁pond	-10.2176
▁This▁is▁not	-10.2178
re▁still	-10.2179
▁spot	-10.2179
▁butter	-10.2181
▁Of▁course	-10.2183
▁of▁their	-10.2183
▁musician	-10.2185
▁hero	-10.2187
▁contain	-10.2188
▁und	-10.2188
▁forty	-10.2189
▁fixed	-10.2194
▁in▁the▁street	-10.2199
m▁so	-10.2199
▁very▁important	-10.2202
▁I▁live▁in	-10.2207
let	-10.2212
▁a▁bath	-10.2215
▁or▁a	-10.2228
▁One▁of▁the	-10.2232
hy	-10.2234
▁three▁days	-10.2234
▁her▁husband	-10.2237
▁Wa	-10.2243
▁highly	-10.2244
▁nurse	-10.2244
▁one▁day	-10.2245
▁behave	-10.2247
▁the▁party	-10.2249
▁tell▁us	-10.225
▁his▁head	-10.2256
▁spirit	-10.2257
▁task	-10.2257
▁electricity	-10.2258
bout	-10.2259
▁knew▁that	-10.2261
▁you▁have▁to▁do	-10.2262
▁travelling	-10.2262
▁ban	-10.2262
▁have▁to▁do▁that	-10.227
line	-10.2278
ute	-10.228
▁parents	-10.2284
▁baked	-10.2285
▁pot	-10.2293
▁walks	-10.2305
▁games	-10.2305
▁We▁want	-10.231
▁my▁hair	-10.2311
▁Ju	-10.2314
▁sat▁down	-10.2317
cut	-10.2321
▁suggested	-10.2325
▁something▁else	-10.2328
gu	-10.2328
▁that▁Mary▁was	-10.233
▁Lo	-10.233
▁She▁is▁a	-10.2334
▁talk▁to▁Tom	-10.2336
▁grateful	-10.2339
▁argue	-10.2339
▁allow	-10.2341
▁teach▁you	-10.2341
▁taxi	-10.2343
▁wore	-10.2344
▁fluently	-10.2345
▁at▁work	-10.2347
▁appears	-10.235
▁buy▁it	-10.2351
▁I▁think▁we	-10.2354
▁workers	-10.2355
▁three▁months	-10.2357
ily	-10.2357
uff	-10.2361
▁Whil	-10.2369
▁appointment	-10.2369
▁his▁brother	-10.2369
▁to▁do▁with	-10.2371
▁app	-10.2373
▁to▁the▁cinema	-10.2375
ed▁by▁the	-10.2376
▁found▁it	-10.2383
▁their▁own	-10.2384
istic	-10.2392
▁search	-10.2394
▁in▁Paris	-10.2396
▁in▁the▁library	-10.2396
▁farmer	-10.2403
ether	-10.2404
▁visiting	-10.2404
▁belong▁to	-10.2405
▁mirror	-10.2407
▁a▁chance	-10.2408
▁The▁water	-10.2408
▁read▁the	-10.2413
▁third	-10.2415
▁April	-10.2422
▁elevator	-10.2422
▁Each	-10.2424
▁planned	-10.2424
▁You▁ha	-10.2426
▁beard	-10.243
▁the▁sky	-10.2433
▁lu	-10.2437
▁Anne	-10.2438
▁disappeared	-10.2438
▁pale	-10.244
▁I▁want▁to▁know	-10.2442
▁government	-10.2446
▁make▁me	-10.2452
▁climb	-10.2457
▁result	-10.2459
▁pay▁for	-10.246
▁the▁town	-10.246
▁a▁cup▁of▁coffee	-10.2461
▁centre	-10.2464
▁I▁still▁have	-10.2466
▁smells	-10.2469
shed	-10.2469
▁have▁no	-10.2473
▁lied▁to	-10.2473
▁show▁you	-10.2474
▁taller	-10.2474
▁writes	-10.2477
▁to▁solve	-10.2477
▁holding	-10.2479
▁asked▁me	-10.248
▁if▁you▁want	-10.2485
▁know▁what▁to▁do	-10.2486
▁purpose	-10.2488
▁bowl	-10.2492
▁other▁people	-10.2492
▁Is▁he	-10.2498
▁Do▁you▁think▁I	-10.2499
▁your▁friends	-10.2499
▁talked▁about	-10.2503
▁opportunity	-10.2505
▁elected	-10.2505
▁journey	-10.2505
▁pleasant	-10.2505
▁conference	-10.2505
▁hobby	-10.2505
▁predict	-10.2505
▁Learn	-10.2505
▁childhood	-10.2506
▁foreign	-10.2508
▁flag	-10.2511
▁grown	-10.2515
▁cra	-10.2521
▁the▁word	-10.2525
60	-10.2525
▁far▁away	-10.2535
▁anger	-10.2537
▁le	-10.254
▁my▁friends	-10.2547
▁the▁bill	-10.255
▁but▁I▁can	-10.2552
▁I▁wish▁I▁had	-10.2556
▁afford	-10.2557
▁How▁often▁do	-10.2561
▁Sp	-10.2564
What	-10.2564
amp	-10.2564
▁to▁sing	-10.2565
▁as▁much	-10.2572
▁neighbors	-10.2585
▁back▁home	-10.2585
▁her▁own	-10.2586
▁understand▁what	-10.2588
t▁wait	-10.2589
▁According	-10.2589
▁elephant	-10.2589
▁garage	-10.2589
▁exchange	-10.2589
▁her▁hand	-10.259
▁Mother	-10.259
▁flood	-10.259
chi	-10.259
▁salad	-10.259
▁asked▁you	-10.2591
▁to▁the▁hospital	-10.2592
▁nail	-10.2593
▁say▁something	-10.2593
s▁true	-10.2594
▁a▁joke	-10.2595
▁Which▁one	-10.2599
▁know▁why	-10.2601
▁three▁years▁ago	-10.2602
▁in▁Tokyo	-10.2602
▁the▁baby	-10.2618
▁lean	-10.2619
▁escaped	-10.2628
▁parked	-10.2629
▁make▁you	-10.2631
s▁your▁favourite	-10.2632
▁went▁on	-10.2634
s▁dog	-10.2634
▁the▁picture	-10.2635
▁It▁has	-10.2641
▁this▁letter	-10.2645
▁inter	-10.2645
▁No▁one▁knows	-10.2646
▁so▁many	-10.2647
▁in▁the▁sky	-10.2648
▁love▁you	-10.2648
▁as▁much▁a	-10.2655
▁lovely	-10.2657
▁tell▁me▁what	-10.2662
▁attract	-10.2672
▁Latin	-10.2674
▁interrupt	-10.2674
▁professor	-10.2674
▁content	-10.2674
▁North	-10.2674
ically	-10.2676
▁all▁his	-10.2678
▁a▁better	-10.2681
▁appear	-10.2684
t▁touch	-10.269
▁too▁many	-10.27
▁What▁are▁the	-10.2702
▁what▁you▁want	-10.2703
▁the▁shop	-10.2707
ward	-10.271
▁the▁story	-10.2712
▁recognized	-10.2715
▁neighbor	-10.2716
▁about▁me	-10.2729
▁charge	-10.2733
▁telling▁me	-10.2741
▁changes	-10.2741
▁There▁are▁no	-10.2745
▁Tom▁thought	-10.2748
▁a▁strange	-10.2748
▁The▁meeting	-10.2751
ging	-10.2753
ock	-10.2753
▁to▁catch	-10.2753
▁to▁drive	-10.2755
▁Vi	-10.2758
▁citizen	-10.2759
▁politics	-10.2759
▁rabbit	-10.2759
▁native▁speaker	-10.276
▁replace	-10.2762
▁Peter	-10.2763
▁neighborhood	-10.2764
▁Jack	-10.2764
▁Ste	-10.2764
▁a▁kid	-10.2771
ew	-10.2773
▁Show▁me	-10.2773
▁greatest	-10.2785
▁steal	-10.2789
▁this▁week	-10.2791
▁for▁a▁week	-10.2794
▁hoping	-10.2796
▁doll	-10.2798
▁passport	-10.2799
▁The▁sky	-10.2806
▁came▁back	-10.2815
▁serve	-10.2817
▁to▁swim	-10.282
▁was▁looking▁for	-10.2822
▁Tom▁says	-10.2823
▁mess	-10.2827
▁as▁s	-10.2828
▁is▁a▁good	-10.2831
▁say▁anything	-10.284
▁to▁win	-10.2841
▁Would	-10.2841
▁snake	-10.2842
▁see▁what	-10.2843
▁den	-10.2845
▁joking	-10.2846
▁research	-10.2846
▁to▁Japan	-10.2846
▁urgent	-10.2847
▁just▁like	-10.2848
▁diary	-10.2848
▁saving	-10.2848
▁let▁me▁know	-10.2854
▁nuts	-10.2855
▁yes	-10.2855
▁following	-10.2855
▁say▁it	-10.2857
▁removed	-10.2859
▁results	-10.2862
▁golf	-10.2862
▁the▁museum	-10.2871
▁a▁while	-10.2874
▁the▁law	-10.2886
▁the▁concert	-10.2887
▁embarrassed	-10.2889
▁cheaper	-10.2889
▁teachers	-10.2894
▁could▁do	-10.2895
▁scream	-10.2902
▁terms	-10.2903
▁bake	-10.2906
ology	-10.2914
▁Saturday	-10.2914
▁actor	-10.2918
▁It▁is▁not	-10.2922
▁take▁it	-10.2922
▁next▁time	-10.2923
ipped	-10.2929
▁perfectly	-10.2933
▁amazing	-10.2933
▁behaviour	-10.2933
▁curtain	-10.2933
▁disturb	-10.2933
▁captain	-10.2933
▁method	-10.2933
▁Tom▁saw	-10.2933
▁Water	-10.2935
▁five▁minutes	-10.2936
▁trousers	-10.2939
▁he▁doesn	-10.2939
▁by▁train	-10.2941
▁headache	-10.2942
s▁are▁not	-10.2945
▁manner	-10.2947
▁supposed▁to▁be	-10.2948
▁lied	-10.2957
▁Tom▁asked▁me	-10.2966
▁the▁rain	-10.2967
▁have▁to▁be	-10.297
▁My▁father▁is	-10.2972
▁most▁beautiful	-10.2973
▁the▁fact	-10.2985
▁hole	-10.2992
▁my▁hand	-10.2993
▁paying	-10.2998
ve▁made	-10.2999
▁I▁can▁do	-10.2999
▁She▁knows	-10.3001
t▁tell▁you	-10.3003
▁I▁bought▁a	-10.3007
▁of▁time	-10.3011
▁More	-10.3014
re▁looking▁for	-10.3016
▁birth	-10.3018
▁downstairs	-10.302
▁election	-10.302
▁furniture	-10.302
▁okay	-10.302
▁K	-10.3024
▁kissing	-10.3029
W	-10.3029
▁really▁want	-10.3034
▁your▁wife	-10.3039
▁for▁breakfast	-10.304
▁guests	-10.3042
▁A▁lot	-10.3046
▁starting▁to	-10.3047
▁shoe	-10.305
▁flow	-10.3052
▁why▁you	-10.3052
▁prize	-10.3053
▁succeeded	-10.3056
▁starts	-10.306
▁complaining	-10.3066
▁kid	-10.3073
▁I▁wonder▁what	-10.3076
▁sacked	-10.3078
▁who▁can	-10.308
▁in▁common	-10.3081
▁person▁who	-10.3081
▁of▁these	-10.3081
▁neighbours	-10.3082
▁living▁in	-10.3083
▁meters	-10.3083
▁responsible▁for	-10.3092
▁did▁he	-10.3096
d▁been	-10.3097
▁laughed▁at	-10.3101
▁dad	-10.3106
▁spider	-10.3106
▁fortune	-10.3109
▁surrounded	-10.3109
▁purse	-10.311
▁mix	-10.3113
▁princess	-10.3113
▁dating	-10.3114
▁kicked	-10.3122
t▁the▁same▁time	-10.3124
▁I▁saw▁a	-10.3125
▁awful	-10.3129
▁to▁death	-10.3134
▁J	-10.3142
▁a▁little▁more	-10.3147
▁with▁them	-10.3148
▁like▁him	-10.3149
▁I▁feel▁like	-10.3155
▁ran▁away	-10.3155
▁hanging	-10.3156
▁was▁able▁to	-10.3158
▁turned▁out	-10.3161
F	-10.3173
▁Life	-10.3173
▁we▁don	-10.3182
▁more▁than▁a	-10.3185
▁Tom▁does	-10.3186
t▁tell▁me	-10.3186
s▁mother	-10.3187
▁is▁important	-10.3188
▁pig	-10.3189
ong	-10.319
▁proud	-10.3194
▁level	-10.3195
▁surface	-10.3198
▁President	-10.3198
▁petrol	-10.3198
▁odd	-10.3199
▁defend	-10.3199
▁We▁have▁a	-10.3199
▁bound	-10.3201
▁even▁though	-10.3203
▁grew▁up	-10.3208
▁copy	-10.321
▁the▁situation	-10.3215
▁that▁she▁was	-10.3217
s▁raining	-10.3221
▁tell▁the▁truth	-10.3222
▁read▁it	-10.3223
▁very▁hard	-10.3229
▁want▁to▁go▁to	-10.3229
▁way▁of	-10.3231
▁to▁save	-10.3232
cross▁the▁street	-10.3234
▁a▁horse	-10.3239
▁is▁beautiful	-10.3243
▁to▁die	-10.3247
▁friendship	-10.3247
▁children▁are	-10.3256
▁kitchen	-10.3257
▁the▁plan	-10.3257
▁admit	-10.3259
▁damage	-10.3259
▁introduce	-10.3263
▁to▁each▁other	-10.3263
▁of▁an	-10.3265
▁The▁rain	-10.3272
t▁buy	-10.3275
▁help▁her	-10.3278
▁many▁times	-10.3281
▁pants	-10.3282
ju	-10.3284
▁poison	-10.3287
▁eventually	-10.3288
▁criminal	-10.3288
▁gloves	-10.3288
▁model	-10.3288
▁desert	-10.3288
▁Mike	-10.329
▁I▁might	-10.3291
▁cough	-10.3291
▁continued	-10.3292
▁rules	-10.3293
ve▁heard	-10.3295
▁print	-10.3298
▁My▁grandfather	-10.3299
▁My▁uncle	-10.33
▁led	-10.3305
▁a▁good▁time	-10.3309
▁my▁dog	-10.331
▁live▁in▁Boston	-10.3316
port	-10.3321
▁a▁few▁days	-10.3331
re▁just	-10.3333
▁cup▁of▁coffee	-10.3336
▁I▁came	-10.3338
lie	-10.3343
▁want▁to▁hear	-10.3354
▁by▁myself	-10.337
▁to▁blame	-10.337
▁does▁it	-10.3375
▁See	-10.3375
▁came▁home	-10.3378
▁picnic	-10.3379
▁Osaka	-10.3379
▁Yanni	-10.3379
▁freedom	-10.3379
▁refrigerator	-10.3379
▁approve	-10.3379
▁insect	-10.3379
oon▁as▁possible	-10.3388
▁the▁same▁age	-10.339
▁on▁the▁train	-10.3391
▁below	-10.3393
par	-10.3393
▁so▁happy	-10.3394
▁Does▁he	-10.3394
▁Tom▁is▁quit	-10.3398
▁watch▁TV	-10.3398
▁are▁these	-10.3399
af	-10.3402
▁talented	-10.3404
▁my▁daughter	-10.3406
eep	-10.3406
▁young▁man	-10.3412
▁courage	-10.3412
▁the▁price	-10.3414
▁fingers	-10.3422
▁your▁hands	-10.3422
t▁do▁anything	-10.3423
▁va	-10.3424
▁in▁the▁house	-10.3426
▁want▁to▁eat	-10.3426
▁told▁me▁that▁he	-10.3427
▁tooth	-10.343
▁meet▁him	-10.343
▁figure	-10.3431
▁her▁father	-10.3436
▁he▁thought	-10.3436
t▁blame	-10.3452
m▁tired	-10.3454
▁to▁wear	-10.3455
▁begins	-10.3456
▁scare	-10.3456
▁Is▁that▁a	-10.3456
s▁are▁there	-10.3459
▁his▁children	-10.3467
▁he▁would	-10.3467
▁Hungarian	-10.3471
▁invitation	-10.3471
é	-10.3471
▁Tuesday	-10.3471
▁South	-10.3471
▁impression	-10.3474
▁When▁will▁you	-10.3476
t▁you▁think	-10.3478
▁so▁long	-10.348
▁a▁gift	-10.3482
▁open▁the▁door	-10.3483
▁ability	-10.3484
▁on▁Sundays	-10.3484
▁melt	-10.3485
▁anyone▁else	-10.3489
▁obviously	-10.3489
▁listening	-10.3498
▁published	-10.35
▁skill	-10.35
▁traveling	-10.3503
▁prevent	-10.3504
▁does▁Tom	-10.3504
▁any▁other	-10.3507
▁roses	-10.3508
▁wrong▁with	-10.351
▁hire	-10.3513
▁Tom▁bought▁a	-10.352
▁hardly▁eve	-10.3523
▁El	-10.3524
▁Paul	-10.3525
▁beach	-10.3528
▁difficulty	-10.3533
▁asked▁me▁to	-10.3549
▁your▁opinion	-10.3556
▁nation	-10.3559
▁religion	-10.3563
▁Somebody	-10.3563
▁Why▁can	-10.3565
▁boo	-10.3565
▁weeks	-10.3566
▁pretty▁good	-10.3566
cept	-10.3578
▁there▁was▁a	-10.358
▁lend▁me	-10.3583
▁an▁idiot	-10.3584
▁an▁important	-10.3592
▁the▁film	-10.3605
▁the▁rest	-10.3607
▁his▁arm	-10.3614
▁how▁it	-10.3615
▁He▁put	-10.3618
▁The▁price	-10.3618
▁sink	-10.3619
▁handed	-10.362
▁introduced	-10.3624
▁Tom▁told▁me▁he	-10.3625
90	-10.3626
▁I▁saw▁him	-10.3628
L	-10.3631
▁Why▁are▁you▁so	-10.3637
com	-10.3639
▁hoped	-10.3642
▁call▁you	-10.3645
ve▁decided	-10.3651
▁Mom	-10.3656
▁enemies	-10.3657
▁Almost	-10.3657
▁lips	-10.3657
▁wants▁to▁be	-10.366
▁someone▁who	-10.3662
▁how▁you	-10.3664
▁depends▁on	-10.367
▁live▁in▁a	-10.3672
▁an▁American	-10.3672
atic	-10.3672
▁However	-10.3673
▁exception	-10.3673
▁very▁tired	-10.3675
▁the▁box	-10.3685
▁port	-10.3687
▁your▁life	-10.3692
▁—	-10.3693
▁concern	-10.3695
t▁live	-10.3699
mate	-10.3711
▁Mt	-10.3712
▁a▁boy	-10.3712
▁have▁anything	-10.3712
▁drawer	-10.3714
▁about▁him	-10.3716
▁If▁only	-10.3716
▁Sami▁was	-10.3717
▁if▁they	-10.3724
▁too▁long	-10.3727
▁bin	-10.3729
▁grew	-10.374
t▁like▁it	-10.3741
▁does▁the	-10.3742
▁knock	-10.3745
▁really▁like	-10.3747
▁Before	-10.3751
▁Fuji	-10.3751
▁accused	-10.3751
▁desperate	-10.3751
▁actress	-10.3751
▁influence	-10.3751
▁firm	-10.3752
▁railway▁station	-10.3752
▁the▁classroom	-10.3752
▁gentleman	-10.3753
▁pronounce	-10.3753
▁checked	-10.3753
▁attractive	-10.3754
▁insult	-10.3754
▁I▁met▁him	-10.3754
▁a▁huge	-10.3756
▁complained	-10.3757
▁She▁said▁she	-10.3759
▁trusted	-10.3759
▁it▁be	-10.3764
▁my▁book	-10.377
▁we▁could	-10.3778
▁tip	-10.378
▁The▁road	-10.3784
▁to▁spend	-10.3785
▁having▁a	-10.3788
▁Father	-10.3794
▁See▁you	-10.3799
▁your▁mind	-10.3799
▁turn▁off▁the	-10.3799
▁so▁that	-10.3809
▁ever▁been▁to	-10.3811
▁None	-10.3811
day	-10.3813
ath	-10.3816
▁might▁not	-10.3821
▁for▁a▁moment	-10.3822
▁Tom▁has▁no	-10.3824
ula	-10.3833
▁This▁sentence	-10.3835
▁me▁up	-10.3837
▁sex	-10.3839
ray	-10.3845
▁Tom▁is▁a▁good	-10.3845
▁to▁bed	-10.3846
▁economy	-10.3846
▁false	-10.3847
▁confirm	-10.3847
▁region	-10.3847
▁delay	-10.3847
▁orbit	-10.3847
▁resist	-10.3847
ed▁to▁the	-10.3848
▁for▁years	-10.3848
▁Mary▁likes	-10.3848
▁it▁to▁me	-10.3857
▁policeman	-10.3862
round▁the▁world	-10.3863
▁punished	-10.3867
▁cleaning	-10.3868
▁I▁want▁a	-10.3871
▁why▁he	-10.3876
▁did▁you▁get	-10.3879
t▁say▁anything	-10.3887
ory	-10.3901
▁told▁us	-10.3902
m▁happy	-10.3904
▁of▁course	-10.391
▁I▁think▁he	-10.3911
▁prepare	-10.3913
▁see▁you▁again	-10.3918
ll▁find	-10.392
▁will▁go	-10.3922
▁stronger	-10.3924
▁sweat	-10.3926
▁but▁they	-10.3931
▁this▁picture	-10.3937
▁el	-10.3938
▁details	-10.3941
Perhaps	-10.3941
▁picked	-10.3942
▁kilometers	-10.3943
▁strength	-10.3943
▁unlikely	-10.3943
▁political	-10.3943
▁track	-10.3943
▁2.30	-10.3943
▁nowhere	-10.3943
▁cancer	-10.3943
▁narrow	-10.3943
▁addict	-10.3943
▁New	-10.3946
▁court	-10.3946
ctor	-10.3952
▁figure▁out	-10.3954
▁seen▁him	-10.3963
▁by▁yourself	-10.3967
▁lent	-10.3978
▁deeply	-10.3979
▁from▁Boston	-10.3981
▁becoming	-10.3981
▁we▁go	-10.3982
I▁don	-10.3983
▁forced	-10.3994
▁acting	-10.3995
▁cleaned	-10.3999
▁Jackson	-10.4002
▁worry	-10.4003
▁Col	-10.4003
▁The▁city	-10.4004
▁If▁it	-10.4006
▁I▁was▁born	-10.4008
▁always▁been	-10.4011
▁hopes	-10.4014
▁side▁of	-10.4015
oth	-10.4016
▁glass▁of	-10.4021
s▁what▁I	-10.4025
▁remained	-10.4026
▁woke	-10.403
▁want▁to▁talk▁to	-10.4036
▁still▁alive	-10.4036
▁He▁died	-10.4037
▁have▁any	-10.4037
ü	-10.4039
▁period	-10.404
▁honey	-10.404
▁volunteer	-10.404
▁a▁short	-10.404
▁swear	-10.404
▁drew	-10.4041
▁deaf	-10.4043
▁larger	-10.4045
▁block	-10.4047
▁the▁country	-10.406
▁jumper	-10.4062
▁at▁her	-10.4065
▁was▁surprised	-10.4067
▁gave▁up	-10.4068
▁Shi	-10.4069
▁have▁to▁go	-10.4075
▁for▁hours	-10.4076
▁pu	-10.4077
▁I▁have▁to▁go	-10.4081
ku	-10.4085
▁Wi	-10.4087
▁his▁hands	-10.4089
▁the▁report	-10.4092
▁Tom▁seemed▁to	-10.4097
▁love▁him	-10.4101
▁chose	-10.4103
▁all▁this	-10.4104
▁the▁second	-10.4104
▁survive	-10.4108
ient	-10.4109
▁a▁movie	-10.4112
▁dentist	-10.4114
▁see▁it	-10.4123
▁contains	-10.4124
d▁like▁you	-10.4126
▁able▁to▁do▁that	-10.4128
▁lab	-10.4129
▁Switzerland	-10.4138
▁wheel	-10.4138
▁schedule	-10.4138
▁pounds	-10.4138
▁mask	-10.4138
▁stress	-10.4138
ime	-10.4139
ologist	-10.4143
▁Once	-10.4145
hen	-10.4147
looking	-10.4151
▁reality	-10.4152
▁pie	-10.4154
▁on▁the▁way	-10.4155
▁want▁to▁do▁that	-10.4156
▁spa	-10.4159
▁snowing	-10.4166
ky	-10.417
▁served	-10.4171
▁seem	-10.4172
▁What▁else	-10.4176
▁King	-10.4177
▁skirt	-10.4178
law	-10.418
50	-10.4188
▁mum	-10.4191
▁horses	-10.4196
▁in▁his▁room	-10.4209
iving	-10.4212
▁old▁man	-10.4212
▁kill▁me	-10.4218
▁wait▁here	-10.4222
▁we▁had	-10.4228
▁be▁careful	-10.423
▁If▁I▁had	-10.4234
▁fifteen	-10.4236
▁Call	-10.4236
▁Women	-10.4237
▁border	-10.4237
▁grave	-10.4237
▁oven	-10.4237
▁aim	-10.4237
▁mobile▁phone	-10.4239
▁on▁the▁sofa	-10.4242
▁pushed	-10.4244
▁tourists	-10.4244
▁national	-10.4244
▁to▁turn	-10.4245
Neither	-10.4246
▁the▁newspaper	-10.4252
▁photos	-10.4252
▁get▁there	-10.4257
car	-10.4257
ina	-10.4258
▁engineer	-10.4258
▁Anna	-10.4261
▁the▁Sun	-10.4267
▁plants	-10.4273
▁organ	-10.4275
▁your▁house	-10.4275
▁count▁on	-10.4277
▁wears▁a	-10.4278
▁was▁sitting	-10.4282
▁is▁wrong	-10.4284
▁keeping	-10.4293
▁graduate	-10.4293
▁in▁school	-10.4294
▁traveled	-10.4294
▁speaks▁English	-10.4294
▁come▁home	-10.4298
t▁think▁you	-10.4298
▁Tom▁and▁I▁are	-10.4299
gar	-10.4299
er▁than▁I▁am	-10.4303
▁have▁gone	-10.431
▁crow	-10.431
▁to▁talk▁to▁you	-10.4315
nder	-10.4321
▁what▁I▁want	-10.4327
▁Watch	-10.4328
▁the▁ground	-10.4331
t▁play	-10.4331
▁novels	-10.4334
▁eleven	-10.4337
▁Remember	-10.4337
▁official	-10.4337
▁Think	-10.4337
▁disagree	-10.4337
▁slipped	-10.4338
▁need▁to▁be	-10.434
▁capable▁of	-10.4341
▁host	-10.4344
▁boots	-10.4345
▁new▁car	-10.4348
▁opened▁the	-10.4348
▁shame	-10.4348
▁invented	-10.4357
▁deny	-10.4359
▁to▁go▁to▁Boston	-10.4359
▁made▁of	-10.4359
▁helped▁me	-10.4364
▁Listen	-10.4365
▁Did▁you▁hear	-10.4368
▁rat	-10.4374
za	-10.4376
▁to▁the▁airport	-10.4377
▁this▁song	-10.4377
▁11	-10.438
H	-10.4395
▁India	-10.4402
▁selling	-10.4402
▁wanted▁to▁be	-10.4404
ib	-10.4407
▁is▁difficult	-10.4407
▁members	-10.4409
house	-10.4413
▁stands	-10.4415
▁mass	-10.4415
und	-10.4423
▁celebrate	-10.4438
▁queen	-10.4438
▁police▁officer	-10.4438
▁battle	-10.4438
▁occurred	-10.4438
▁salary	-10.4439
▁Hold	-10.4439
▁base	-10.444
▁tough	-10.4442
▁winning	-10.4442
▁billion	-10.4444
▁active	-10.4448
▁lot	-10.4451
▁in▁danger	-10.4452
▁the▁Earth	-10.4452
20	-10.4453
▁Tom▁wrote	-10.4454
▁most▁important	-10.4455
▁I▁doubt	-10.4465
nother	-10.4467
ther	-10.4476
▁into▁the▁room	-10.4476
▁coming▁back	-10.4477
s▁soon▁a	-10.4477
▁the▁store	-10.4479
▁very▁hungry	-10.4479
▁and▁left	-10.4481
▁anti	-10.4482
▁in▁winter	-10.4482
▁cloud	-10.4484
▁for▁three▁days	-10.4485
▁there▁were	-10.4488
▁belong	-10.4489
▁in▁jail	-10.449
▁by▁herself	-10.4493
▁miss▁you	-10.4495
▁Where▁were▁you	-10.4497
▁one▁thing	-10.45
▁wear▁a	-10.4501
▁I▁forgot▁to	-10.4502
▁too▁young	-10.4502
▁shoot	-10.4503
▁sum	-10.4507
▁signed	-10.4508
s▁important	-10.4514
That	-10.4514
▁play▁the▁piano	-10.4515
▁a▁hundred	-10.4517
▁the▁reason	-10.4518
▁telly	-10.4522
▁are▁we	-10.4524
ette	-10.453
ji	-10.453
s▁just▁a	-10.454
▁especially	-10.454
▁practise	-10.454
▁cruel	-10.454
▁dessert	-10.454
▁rubbish	-10.454
▁branch	-10.4542
▁grey	-10.4542
▁as▁she	-10.4542
▁asked▁her	-10.4544
:00	-10.4545
▁allergic▁to	-10.4547
▁older▁brother	-10.4547
▁How▁can▁you	-10.455
▁the▁mountains	-10.4551
▁How▁do▁you▁know	-10.4552
▁The▁child	-10.4561
▁thinks▁that	-10.4568
▁Tom▁went▁to	-10.4569
▁her▁parents	-10.4587
▁ver	-10.4597
tar	-10.4597
▁live▁on	-10.4601
▁this▁one	-10.4602
▁my▁job	-10.4604
ja	-10.4609
▁would▁like▁to	-10.4615
▁her▁sister	-10.4619
▁your▁room	-10.4621
▁bottom	-10.4623
▁remind	-10.4626
▁at▁the▁time	-10.4627
▁final	-10.4628
▁What▁time▁do	-10.4629
▁quietly	-10.463
▁in▁an	-10.4632
s▁face	-10.4632
▁to▁translate	-10.4635
▁to▁go▁home	-10.4636
t▁mean▁to	-10.4641
▁Whatever	-10.4641
▁diamond	-10.4643
▁airplane	-10.4643
▁lecture	-10.4643
▁buried	-10.4643
▁White	-10.4643
▁textbook	-10.4643
▁The▁woman	-10.4644
▁friend▁of▁mine	-10.4644
▁on▁the▁couch	-10.4646
t▁even▁know	-10.4647
▁in▁life	-10.4648
▁sin	-10.4649
▁proof	-10.465
▁Please▁tell▁me	-10.4651
▁constantly	-10.4653
▁does▁this	-10.4653
▁a▁fool	-10.4656
▁an▁answer	-10.4662
▁his▁room	-10.4667
▁loudly	-10.4671
▁her▁name	-10.4671
▁talk▁to	-10.4677
ami	-10.4678
▁sha	-10.4682
▁can▁speak	-10.4684
nyone	-10.4691
▁to▁marry	-10.4694
d▁like▁a	-10.4703
▁discussed	-10.4704
▁chat	-10.4705
▁was▁wearing▁a	-10.4707
▁Gen	-10.4711
▁a▁lot▁of▁time	-10.4711
▁I▁want▁to▁see	-10.4715
▁on▁holiday	-10.4716
▁carpet	-10.472
R	-10.4722
▁in▁October	-10.4725
▁at▁the▁door	-10.4729
▁passengers	-10.4731
▁He▁looked	-10.4731
▁He▁said▁that▁he	-10.4732
▁Tra	-10.4737
▁Qu	-10.4738
▁Tom▁seems▁to▁be	-10.4744
▁Or	-10.4745
▁quality	-10.4747
▁Portuguese	-10.4747
▁tyre	-10.4747
▁It▁rained	-10.4748
▁crossing	-10.4749
▁Che	-10.4751
▁next▁door	-10.4753
▁En	-10.4758
▁Tom▁ran	-10.476
▁You▁are▁not	-10.4762
▁by▁car	-10.4763
▁my▁question	-10.4768
▁Hu	-10.4768
▁the▁other▁day	-10.4769
▁retired	-10.4771
▁be▁happy	-10.4773
▁50	-10.4781
s▁got▁a	-10.4782
▁an▁umbrella	-10.4784
▁call▁him	-10.4786
▁topic	-10.4787
hand	-10.4788
cus	-10.4791
▁The▁plane	-10.4792
▁My▁son	-10.48
▁dancer	-10.4806
ash	-10.4806
▁some▁time	-10.4807
▁made▁a▁mistake	-10.4808
▁half▁an▁hour	-10.4808
▁after▁school	-10.481
▁read▁this▁book	-10.4811
▁my▁way	-10.4813
▁height	-10.4816
▁because▁she	-10.4817
all	-10.4827
▁Hav	-10.4833
ve▁left	-10.4833
▁the▁other▁side	-10.4834
▁danced	-10.484
▁cop	-10.484
▁it▁down	-10.4841
▁native	-10.4845
▁in▁town	-10.485
▁gentle	-10.4851
▁atmosphere	-10.4852
▁ladder	-10.4852
▁Chicago	-10.4852
▁changing	-10.4852
▁warn	-10.4852
▁desire	-10.4853
▁otherwise	-10.4854
▁rough	-10.4854
▁thirty▁minutes	-10.4855
▁the▁living▁room	-10.486
▁turning	-10.4861
▁sal	-10.4863
▁entirely	-10.4866
▁stay▁at▁home	-10.4871
▁the▁hotel	-10.4872
▁many▁books	-10.4876
▁the▁ship	-10.4884
bble	-10.4892
▁abandoned	-10.4896
▁toys	-10.4898
▁what▁you▁did	-10.4898
▁al	-10.49
▁as▁good▁a	-10.4902
▁the▁village	-10.4903
▁Du	-10.4903
▁too▁small	-10.4903
▁taught▁me	-10.4906
▁cla	-10.4907
▁lost▁her	-10.4911
▁talk▁to▁him	-10.4911
▁Any	-10.492
▁the▁center	-10.4922
▁spending	-10.4923
▁give▁him	-10.4923
▁impress	-10.4929
s▁license	-10.4935
▁can▁swim	-10.4936
▁hard▁work	-10.4936
▁how▁long	-10.4937
▁to▁think	-10.4941
▁called▁me	-10.4944
▁particular	-10.4944
▁remark	-10.4955
▁A▁man	-10.4957
▁shocked	-10.4958
▁economic	-10.4959
▁accustom	-10.4959
▁heaven	-10.4959
▁begun	-10.4959
▁I▁have▁no▁idea	-10.496
▁fox	-10.4961
▁jam	-10.4961
▁crack	-10.4962
▁opened▁the▁door	-10.4964
▁thinking▁of	-10.4964
▁stage	-10.4968
▁your▁money	-10.4974
▁is▁easy	-10.4976
▁degrees	-10.4976
▁your▁hair	-10.4979
▁fo	-10.4986
▁in▁advance	-10.4992
▁hired	-10.4995
▁let▁you	-10.4995
▁on▁the▁wall	-10.5004
▁score	-10.5007
▁acted	-10.5012
▁there▁any	-10.5013
t▁sure	-10.5014
▁rainy	-10.5017
▁ground	-10.5018
▁annoyed	-10.5025
▁what▁he▁said	-10.5026
▁like▁some	-10.5031
▁pretending	-10.5038
▁god	-10.5039
▁help▁him	-10.504
▁apologized	-10.504
30	-10.5046
▁potato	-10.5048
▁You▁must▁be	-10.5056
▁a▁song	-10.5057
▁too▁old	-10.5064
▁Ru	-10.5065
▁cities	-10.5065
▁ignored	-10.5066
▁affair	-10.5066
▁Dutch	-10.5066
▁basketball	-10.5066
▁Emily	-10.5071
▁my▁eyes	-10.5071
▁passed▁away	-10.5079
▁bomb	-10.5083
▁wake▁up	-10.5083
▁If▁he	-10.5083
▁amount	-10.5086
▁apply	-10.5086
▁got▁home	-10.5087
▁divorced	-10.5088
▁to▁move	-10.5091
▁touched	-10.5098
▁good▁news	-10.5098
▁ruin	-10.5099
▁the▁post▁office	-10.5103
▁love▁her	-10.5107
▁let▁him	-10.5107
▁two▁days	-10.5111
zi	-10.5111
▁the▁result	-10.5111
▁grandmother	-10.5112
▁will▁soon	-10.5114
▁too▁fast	-10.5116
▁my▁girlfriend	-10.5121
▁on▁the▁ground	-10.5125
▁noticed▁that	-10.5125
▁gro	-10.5126
▁very▁cold	-10.5128
bel	-10.5129
▁bat	-10.5136
▁advantage	-10.5137
t▁notice	-10.5137
▁The▁news	-10.5143
place	-10.5144
▁produce	-10.5145
▁create	-10.5146
▁could▁have	-10.5147
▁to▁explain	-10.5149
▁the▁last▁time	-10.5154
s▁capital	-10.5155
▁bought▁a▁new	-10.5159
▁bitter	-10.5162
▁pure	-10.5166
▁The▁world	-10.5169
▁in▁the▁city	-10.517
▁replied	-10.5175
▁praise	-10.5175
▁victim	-10.5175
▁dawn	-10.5175
▁did▁you▁buy	-10.5176
▁Mr▁Smith	-10.5179
▁moved▁to	-10.518
▁cast	-10.5184
▁tallest	-10.5188
▁pink	-10.5195
N	-10.52
rie	-10.5202
ened	-10.5205
▁Do▁you▁know▁who	-10.5207
▁take▁me	-10.5213
▁attended	-10.5216
t▁you▁want	-10.5222
▁received▁a	-10.5223
▁I▁knew▁you	-10.5229
ll▁see	-10.523
▁had▁happened	-10.5241
▁talent	-10.5255
▁custom	-10.5258
▁to▁get▁married	-10.5258
▁the▁entire	-10.5267
▁He▁wants▁to	-10.5269
▁understanding	-10.5269
▁general	-10.527
He	-10.5278
t▁seem	-10.5279
▁perform	-10.5284
▁basket	-10.5285
▁female	-10.5285
▁reputation	-10.5285
▁parcel	-10.5285
▁environment	-10.5285
▁lorry	-10.5285
▁mathematics	-10.5285
▁illegal	-10.5285
▁in▁vain	-10.5285
▁piece▁of▁cake	-10.5285
▁Shall▁we	-10.5285
▁enough▁for	-10.5286
▁credit▁card	-10.5286
▁still▁don	-10.5287
▁motor	-10.5287
▁whether▁Tom	-10.5291
▁My▁grandmother	-10.5294
▁wealthy	-10.5297
ers▁are	-10.5301
▁temper	-10.5301
10	-10.5303
▁Why▁would	-10.5308
▁on▁the▁desk	-10.5311
▁poured	-10.5315
▁that▁you▁don	-10.5316
▁He▁won	-10.5316
▁The▁company	-10.5319
▁has▁changed	-10.532
▁lessons	-10.5324
▁dig	-10.5324
▁really▁need	-10.5326
▁a▁piece	-10.5331
▁Je	-10.5331
▁If▁you▁want▁to	-10.5332
▁wallet	-10.5334
▁opposite	-10.5336
▁not▁to▁do▁that	-10.5337
s▁going▁to▁be	-10.5339
ker	-10.5341
▁noon	-10.5341
▁in▁the▁evening	-10.5342
▁leader	-10.5347
cri	-10.5347
▁percent	-10.535
▁reason▁why	-10.5352
ov	-10.5353
▁tune	-10.5355
▁sky	-10.5356
▁to▁believe	-10.5356
▁talk▁to▁me	-10.536
▁you▁must	-10.5362
▁Close	-10.5363
▁rare	-10.5365
▁drawing	-10.5372
read	-10.5373
▁an▁interesting	-10.5378
t▁swim	-10.5383
▁was▁arrested	-10.5387
▁in▁public	-10.5387
gi	-10.5387
▁burst	-10.539
▁plenty	-10.5396
▁culture	-10.5396
▁challenge	-10.5396
▁depressed	-10.5396
▁incident	-10.5396
▁valuable	-10.5396
▁nightmare	-10.5396
▁honor	-10.5396
▁School	-10.5396
▁notebook	-10.5396
▁June	-10.5399
th▁century	-10.5399
▁a▁seat	-10.5401
▁collection	-10.5404
▁knocked	-10.5404
▁properly	-10.5405
▁reading▁a▁book	-10.5405
▁huge	-10.5409
▁goodbye	-10.5409
her	-10.5411
▁on▁TV	-10.5415
▁every▁night	-10.5416
▁I▁know▁that▁you	-10.5419
uch	-10.5422
▁the▁war	-10.5423
▁getting▁married	-10.5424
▁his▁work	-10.5426
▁par	-10.5429
▁Who▁are▁you	-10.5434
j	-10.5435
▁advantage▁of	-10.5435
▁the▁washing	-10.5437
▁would▁not	-10.5438
wo	-10.544
ox	-10.5441
▁to▁carry	-10.5443
▁term	-10.5445
▁very▁difficult	-10.5452
▁several▁times	-10.5452
▁wished	-10.5453
▁earth	-10.5465
▁met▁him	-10.5467
ed▁down	-10.5467
▁Mon	-10.5467
▁on▁him	-10.5468
▁so▁far	-10.5471
▁fu	-10.5472
▁crowded	-10.5474
▁oranges	-10.5475
▁get▁back	-10.5481
▁three▁weeks	-10.5481
▁climate	-10.5493
▁good▁friends	-10.5495
▁took▁me	-10.5496
▁Where▁are▁the	-10.5497
▁whether▁you	-10.5499
▁your▁children	-10.5503
▁16	-10.5503
▁these▁days	-10.5504
▁affect	-10.5504
▁cooked	-10.5505
▁hug	-10.5506
▁to▁cook	-10.5508
▁silver	-10.5508
▁rumour	-10.5508
▁Austria	-10.5508
▁romantic	-10.5508
▁yourselves	-10.5508
▁evidence	-10.5508
▁First	-10.5508
▁shining	-10.5508
▁protest	-10.5508
▁classmates	-10.5509
▁strict	-10.5509
▁daily	-10.5509
▁lemon	-10.5509
▁shock	-10.551
s▁name▁is	-10.5516
▁hill	-10.5517
▁He▁couldn	-10.5526
ama	-10.553
▁the▁subject	-10.5533
▁dust	-10.5535
▁so▁hard	-10.5541
▁use▁it	-10.5542
▁try▁it	-10.5549
▁and▁I▁are	-10.5549
t▁afford	-10.555
▁do▁you▁know	-10.5551
▁can▁help▁you	-10.5553
▁my▁favourite	-10.5556
▁frightened	-10.5561
▁tro	-10.5568
▁They▁can	-10.557
▁read▁the▁book	-10.5574
▁is▁closed	-10.5591
▁stared	-10.5599
▁a▁drink	-10.56
▁finding	-10.5603
▁to▁everyone	-10.5603
▁to▁avoid	-10.5606
top	-10.5612
▁alarm	-10.5622
▁Greece	-10.5622
▁circle	-10.5622
▁luggage	-10.5622
▁scratch	-10.5622
▁consult	-10.5622
▁Christian	-10.5623
▁pressure	-10.5625
▁flies	-10.5628
▁pick▁up	-10.563
▁according	-10.5632
▁at▁the▁airport	-10.5634
▁about▁what	-10.5635
▁is▁made▁of	-10.564
▁He▁told▁me	-10.564
s▁of▁people	-10.5641
oe	-10.5647
ation▁of	-10.5648
▁tire	-10.5648
▁orange	-10.5649
ah	-10.5656
▁We▁had▁a	-10.5657
▁thought▁of	-10.5678
▁her▁son	-10.5679
▁Men	-10.5685
▁the▁following	-10.5686
bor	-10.5688
▁greet	-10.5691
▁a▁little▁bit	-10.5692
▁toilet	-10.57
▁ni	-10.5701
▁too▁busy	-10.5706
▁My▁dog	-10.5707
▁five▁years	-10.5707
▁tax	-10.5707
t▁you▁know	-10.5708
V	-10.5709
t▁have▁time	-10.5714
rink	-10.5717
▁as▁possible	-10.5721
15	-10.5733
t▁be▁so	-10.5735
▁Britain	-10.5737
▁Arabic	-10.5737
▁anxious	-10.5737
▁experiment	-10.5737
▁Next	-10.5737
▁style	-10.5737
▁hidden	-10.5738
▁He▁has▁no	-10.5742
▁blame	-10.5744
▁native▁language	-10.5744
▁to▁be▁done	-10.5745
▁careless	-10.5746
▁chest	-10.575
▁At▁last	-10.5751
▁load	-10.5756
▁in▁there	-10.5768
▁He▁lives▁in	-10.5773
▁what▁you▁said	-10.5775
▁ringing	-10.578
▁bla	-10.5782
cho	-10.5782
ll▁try	-10.5785
▁starting	-10.5787
▁can▁do▁that	-10.5792
▁skiing	-10.5795
▁this▁weekend	-10.5801
t▁eaten	-10.5801
▁im	-10.5802
▁hung	-10.5817
▁youth	-10.5818
▁remains	-10.5824
▁at▁seven	-10.5824
▁that▁you▁are	-10.5824
▁Day	-10.5831
t▁have▁enough	-10.5832
▁has▁an	-10.5833
▁at▁ten	-10.5834
▁squirrels	-10.5836
▁broke▁up	-10.5837
▁scared▁of	-10.5839
mail	-10.5839
▁my▁new	-10.584
▁doing▁here	-10.5841
m▁sure▁you	-10.5842
▁have▁come	-10.5847
▁interpret	-10.585
▁doing▁it	-10.5852
▁complex	-10.5853
▁Jupiter	-10.5853
▁hurried	-10.5853
▁intelligence	-10.5853
▁Smoking	-10.5853
▁album	-10.5853
▁trap	-10.5853
▁employee	-10.5853
▁bucket	-10.5854
▁Money	-10.5854
▁blanket	-10.5854
▁hugged	-10.5854
▁late▁for▁school	-10.5854
▁fancy	-10.5854
▁witch	-10.5855
▁a▁great▁deal	-10.5856
▁oppos	-10.5859
▁duck	-10.5859
▁the▁third	-10.5861
▁particularly	-10.587
▁tre	-10.5873
▁At▁first	-10.5874
▁the▁TV	-10.588
▁if▁I▁were	-10.5882
▁no▁reason	-10.5882
▁There▁was▁no	-10.5884
▁go▁shopping	-10.5885
▁his▁daughter	-10.5894
▁this▁summer	-10.5899
▁explain▁it	-10.5903
▁I▁would▁like	-10.5905
▁Mary▁said▁that	-10.5905
▁barking	-10.5907
▁of▁my▁life	-10.5916
▁died▁in	-10.5917
head	-10.5923
ddle	-10.5923
▁new▁job	-10.5927
t▁going	-10.5931
▁the▁door▁open	-10.5934
▁get▁rid▁of	-10.5936
▁describe	-10.5941
▁from▁Australia	-10.5942
ll▁call▁you	-10.5944
▁the▁entrance	-10.5947
▁Have▁you▁got▁a	-10.5948
▁in▁the▁woods	-10.5948
▁made▁it	-10.5959
▁into▁French	-10.5965
▁ashamed▁of	-10.5966
aking	-10.5968
▁occasion	-10.5971
▁society	-10.5971
▁unexpected	-10.5971
▁slave	-10.5971
▁1032	-10.5971
▁defeat	-10.5971
▁Hurry▁up	-10.5974
▁entire	-10.5975
▁theatre	-10.5975
▁vase	-10.5978
▁professional	-10.5979
▁opening	-10.5982
▁egg	-10.5983
▁to▁the▁movies	-10.5987
▁the▁cake	-10.5991
unk	-10.5995
▁misses	-10.6001
▁it▁rains	-10.6005
▁useless	-10.6005
▁If▁I▁were▁you	-10.6006
▁survived	-10.6006
▁should▁go	-10.6007
▁build	-10.6011
▁does▁he	-10.6011
▁speak▁to▁you	-10.6021
▁go▁with▁you	-10.6023
▁pity	-10.6025
▁develop	-10.6025
▁where▁we	-10.6025
▁his▁office	-10.6032
▁forward	-10.6032
▁expert	-10.6036
▁spare	-10.6041
ove	-10.6042
▁to▁hospital	-10.6042
▁the▁king	-10.6051
ll▁make	-10.6053
▁added	-10.6057
▁a▁cup▁of▁tea	-10.6059
t▁you▁like	-10.6062
t▁seems▁that	-10.6067
▁come▁with▁us	-10.6071
▁blew	-10.6071
▁up▁to▁you	-10.6075
▁that▁you▁were	-10.608
▁believe▁it	-10.6082
▁Ko	-10.6082
▁thought▁about	-10.6084
▁experienced	-10.6088
▁Christ	-10.6088
▁multi	-10.6089
▁nonsense	-10.609
▁surgery	-10.609
▁option	-10.609
▁appearance	-10.6092
▁at▁that▁time	-10.6092
▁shook	-10.6092
▁ignore	-10.6096
▁coast	-10.6096
▁does▁it▁take	-10.6097
▁little▁girl	-10.6098
▁every▁year	-10.6105
▁Min	-10.6106
▁open▁the▁window	-10.6108
▁his▁homework	-10.611
▁Maybe▁you	-10.611
atter	-10.6111
▁would▁happen	-10.6114
▁shorter	-10.6114
▁conditions	-10.6116
earest	-10.612
▁gain	-10.6132
▁in▁America	-10.6134
t▁believe▁that	-10.6135
▁take▁off	-10.6146
ll▁do▁it	-10.6146
▁shoulders	-10.6147
▁did▁this	-10.6148
rib	-10.615
▁very▁fast	-10.6153
▁what▁you▁think	-10.6163
ya	-10.6169
▁the▁station	-10.6169
▁for▁Christmas	-10.6174
▁care▁about	-10.6175
▁the▁company	-10.6176
▁so▁fast	-10.6176
▁a▁baby	-10.6176
▁knows▁what	-10.6183
G	-10.6185
▁a▁wonderful	-10.6187
cle	-10.6187
▁the▁case	-10.6188
▁packed	-10.6189
▁police	-10.6189
▁degree	-10.619
▁his▁way	-10.6191
▁loved▁her	-10.6199
▁interview	-10.621
▁stubborn	-10.621
▁George	-10.621
▁accomplish	-10.621
▁ridiculous	-10.621
▁Welcome	-10.621
▁pillow	-10.621
▁spoil	-10.621
▁operation	-10.6211
▁instant	-10.6211
▁struck	-10.6211
▁severe	-10.6211
▁Human	-10.6212
▁rope	-10.6213
▁stock	-10.6213
▁nearby	-10.6214
▁however	-10.6218
▁grade	-10.6219
▁Kate	-10.622
▁a▁dream	-10.6221
▁currently	-10.6224
▁expression	-10.6225
▁deliver	-10.6225
▁my▁wallet	-10.6226
▁July	-10.6232
▁more▁important	-10.6235
▁to▁kill	-10.6237
▁her▁friends	-10.6238
▁to▁be▁there	-10.6244
ll▁tell▁you	-10.6245
▁is▁also	-10.6245
▁last▁name	-10.6251
▁my▁head	-10.6253
▁gen	-10.6255
t▁bother	-10.6256
▁talk▁to▁her	-10.6263
ua	-10.6266
t▁seem▁to▁be	-10.6268
▁access	-10.6269
val	-10.6279
▁rode	-10.6279
▁to▁bring	-10.6281
▁wounded	-10.6281
▁fell▁off	-10.6286
▁want▁to▁learn	-10.6291
▁in▁German	-10.6293
▁The▁cat▁is	-10.6295
▁achieve	-10.6303
lor	-10.6306
▁The▁story	-10.6308
▁asked▁him▁to	-10.6309
▁army	-10.6311
re▁wrong	-10.632
▁youngest	-10.6321
▁the▁poor	-10.6327
▁went▁to▁Boston	-10.6329
▁has▁to▁be	-10.6331
▁independent	-10.6332
▁encourage	-10.6332
▁witness	-10.6332
▁riding	-10.6332
▁tram	-10.6333
m▁pretty▁sure	-10.6334
▁basic	-10.6337
▁someday	-10.6342
▁No▁matter	-10.6343
▁has▁come	-10.6344
▁a▁ticket	-10.6345
▁Send	-10.6345
▁the▁day▁before	-10.6347
press	-10.635
▁washing▁machine	-10.6357
▁dumb	-10.6357
▁of▁the▁city	-10.6361
▁lend	-10.6365
▁the▁Internet	-10.6371
▁Tom▁speaks	-10.6378
▁hurt▁you	-10.6378
▁Do▁it	-10.638
▁adopted	-10.638
▁warning	-10.6381
▁thought▁it▁was	-10.6389
▁classes	-10.6397
▁can▁we	-10.6399
▁while▁you	-10.6399
▁was▁afraid	-10.6401
t▁walk	-10.6404
▁overlook	-10.6407
▁bark	-10.6408
▁get▁used▁to	-10.6412
▁thirty▁years	-10.6412
right	-10.6416
▁How▁many▁people	-10.6417
▁pupil	-10.6418
▁career	-10.6424
▁increase	-10.6426
▁fully	-10.643
▁my▁watch	-10.6433
▁give▁it▁to	-10.6433
▁near▁here	-10.6437
▁wealth	-10.6442
▁listen▁to▁me	-10.6444
illionaire	-10.6452
▁understand▁why	-10.6453
t▁have▁time▁to	-10.6454
▁to▁tell▁Tom	-10.6454
▁on▁the▁street	-10.6455
▁World	-10.6456
▁responsibility	-10.6456
▁coincidence	-10.6456
▁essential	-10.6456
▁instrument	-10.6456
▁fought	-10.6456
21	-10.6457
▁says▁that	-10.6457
▁bench	-10.6458
▁naive	-10.646
▁travelled	-10.6461
▁metres	-10.6463
▁discussion	-10.6463
t▁tell▁anyone	-10.6472
hu	-10.6472
▁coward	-10.6473
▁pear	-10.6476
▁as▁old▁a	-10.6476
s▁time▁to	-10.6476
▁do▁without	-10.6479
oli	-10.648
▁the▁garden	-10.6484
▁lover	-10.6488
▁I▁have▁some	-10.649
▁on▁earth	-10.649
▁whether▁he	-10.6496
▁was▁sick	-10.6502
▁that▁it▁was	-10.6502
s▁Day	-10.6504
▁believe▁me	-10.6504
▁as▁long▁a	-10.6507
▁programme	-10.6514
▁as▁if▁he	-10.6515
t▁tell▁Tom	-10.6517
▁dreamed	-10.6517
▁proved	-10.6517
t▁help▁you	-10.6517
▁make▁sure	-10.652
▁his▁glasses	-10.6526
14	-10.6528
▁the▁flowers	-10.6528
▁cigarette	-10.6529
▁intended	-10.6535
▁is▁broken	-10.6535
▁as▁an	-10.6537
▁Doesn	-10.6538
aving	-10.6541
r▁parents	-10.6543
▁make▁mistakes	-10.6547
▁cheer	-10.6549
▁Is▁there▁any	-10.6558
▁a▁Canadian	-10.6559
▁Sea	-10.6563
▁bathroom	-10.6567
▁euros	-10.6569
ll▁need	-10.6571
▁Black	-10.6581
▁strike	-10.6581
▁Suddenly	-10.6581
▁optimistic	-10.6581
▁bleeding	-10.6581
▁kilometres	-10.6581
▁in▁a▁good▁mood	-10.6581
▁wolf	-10.6581
▁password	-10.6581
▁planted	-10.6584
▁I▁wonder▁if▁Tom	-10.6585
s▁there▁anything	-10.6588
ll▁be▁there	-10.6589
ll▁show▁you	-10.659
▁have▁time	-10.6594
▁scary	-10.6596
▁can▁hear	-10.66
▁she▁could	-10.6604
▁for▁coming	-10.6604
▁pay▁attention	-10.6605
▁entered	-10.6609
▁train▁station	-10.6614
▁to▁help▁us	-10.6618
▁annoying	-10.6624
cross▁the▁river	-10.6627
▁you▁can▁do	-10.6628
▁mayor	-10.6637
▁Lu	-10.6638
▁too▁big	-10.664
t▁think▁it	-10.6646
fu	-10.665
▁was▁the▁first	-10.6654
▁get▁home	-10.6659
▁too▁hard	-10.6662
▁went▁to▁bed	-10.6665
vil	-10.6667
▁my▁best▁friend	-10.6677
Oh	-10.6686
▁Red	-10.6686
▁my▁heart	-10.6687
▁back▁to▁Boston	-10.6688
t▁like▁me	-10.6688
water	-10.669
▁learn▁French	-10.6692
▁25	-10.6692
45	-10.6702
▁peel	-10.6703
▁an▁e	-10.6705
▁ask▁her	-10.6706
▁process	-10.6707
▁horrible	-10.6707
▁miracle	-10.6707
▁assistant	-10.6707
▁drowned	-10.6707
▁laundry	-10.6707
▁January	-10.6707
▁jeans	-10.6707
▁Queen	-10.6708
▁kidding	-10.6708
▁owns	-10.6709
▁tower	-10.6709
▁Let▁me▁know	-10.6713
▁this▁question	-10.6714
▁I▁just▁don	-10.6715
▁sunset	-10.6715
▁CD	-10.6715
▁to▁protect	-10.6718
▁straight▁away	-10.6721
▁Ph	-10.6723
▁men▁are	-10.6724
▁powerful	-10.6725
▁candy	-10.6731
▁The▁tree	-10.6731
▁feel▁better	-10.6731
▁the▁hill	-10.6734
▁on▁Saturday	-10.6734
▁a▁lot▁of▁things	-10.6735
▁have▁a▁lot▁of	-10.6736
▁supposed▁to▁do	-10.6739
▁cheated	-10.674
▁could▁see	-10.6742
▁What▁were▁you	-10.6743
▁helpful	-10.6744
▁A▁good	-10.6745
▁Call▁me	-10.6745
▁begg	-10.6745
s▁tall▁a	-10.6747
▁the▁supermarket	-10.6754
▁my▁office	-10.6754
▁biscuits	-10.6761
▁made▁him	-10.6767
▁on▁the▁door	-10.6773
▁my▁best	-10.6777
▁with▁each▁other	-10.6785
▁the▁pain	-10.6787
▁counter	-10.6789
▁Sun	-10.6794
kin	-10.6796
▁a▁favour	-10.6799
22	-10.6802
▁Pi	-10.6806
▁gave▁her	-10.6817
▁a▁liar	-10.6819
▁fork	-10.6819
▁his▁hair	-10.6821
▁faith	-10.6823
▁tourist	-10.6827
har	-10.6828
▁pla	-10.6829
ject	-10.6834
▁astronaut	-10.6836
▁conclusion	-10.6836
▁Wednesday	-10.6836
▁emergency	-10.6836
▁supper	-10.6836
▁Rima	-10.6836
▁financial	-10.6836
▁queue	-10.6836
▁monkey	-10.6836
▁international	-10.6836
▁property	-10.6836
▁If▁you▁want	-10.6837
▁species	-10.6837
▁bitten	-10.6838
▁drum	-10.6839
▁He▁says▁he	-10.684
▁plain	-10.684
▁because▁they	-10.6841
▁in▁the▁back	-10.6841
▁contract	-10.6843
▁command	-10.6847
▁cell	-10.6848
▁role	-10.6849
▁guide	-10.685
▁secretary	-10.6851
▁frozen	-10.6853
▁his▁girlfriend	-10.6858
▁like▁to▁go	-10.6859
yard	-10.6859
▁speaking▁French	-10.6859
▁slice	-10.6861
▁did▁she	-10.6865
▁favour	-10.6871
▁I▁am▁going	-10.6874
ternal	-10.6874
▁a▁good▁job	-10.6876
▁fake	-10.6878
▁the▁way▁you	-10.6879
▁Tom▁Jackson	-10.6887
▁was▁wearing	-10.6894
t▁know▁anything	-10.6894
▁very▁proud▁of	-10.6897
▁nothing▁about	-10.6899
▁too▁tired▁to	-10.6904
m▁learning	-10.6909
▁customers	-10.6911
▁her▁car	-10.6911
▁Being	-10.6915
▁the▁main	-10.6917
▁betrayed	-10.6917
hole	-10.6918
▁that▁you▁can	-10.6919
▁with▁water	-10.6933
▁retire	-10.6936
▁a▁hole	-10.6937
▁his▁friend	-10.6945
ppe	-10.695
▁improved	-10.6951
▁my▁birthday	-10.6953
hose▁who	-10.6959
▁the▁wind	-10.6963
▁You▁seem	-10.6963
▁respond	-10.6965
▁benefit	-10.6965
▁sunglasses	-10.6965
▁Hawaii	-10.6965
▁arguing	-10.6965
▁generous	-10.6965
▁decorat	-10.6965
▁disgust	-10.6965
▁truly	-10.6965
▁silly	-10.6966
▁whale	-10.6966
▁tiger	-10.6967
▁spec	-10.6967
▁sake	-10.6969
▁fuck	-10.697
▁comb	-10.6971
▁closed▁the▁door	-10.6973
m▁sure▁Tom	-10.6974
▁late▁at▁night	-10.6976
▁your▁homework	-10.6982
▁my▁money	-10.6982
▁more▁and▁more	-10.6983
▁the▁ocean	-10.6984
umb	-10.6987
▁Sch	-10.6987
hal	-10.699
▁has▁happened	-10.6993
▁know▁the▁truth	-10.6997
▁at▁the▁end	-10.7001
▁in▁mind	-10.7006
▁This▁medicine	-10.7013
▁the▁engine	-10.7017
▁made▁her	-10.7019
ll▁leave	-10.7021
▁than▁usual	-10.7022
▁fac	-10.7024
▁an▁eye	-10.7025
▁spoken▁to	-10.7025
▁I▁saw▁you	-10.7028
▁the▁library	-10.7029
▁very▁old	-10.704
▁think▁this▁is	-10.7041
▁cave	-10.7044
▁with▁the▁result	-10.7048
▁that▁song	-10.7052
▁saying▁that	-10.7053
▁translate▁this	-10.7056
▁Bi	-10.706
▁advise	-10.7068
▁that▁he▁would	-10.7069
t▁like▁him	-10.707
▁si	-10.7072
▁this▁car	-10.7075
▁fridge	-10.7079
▁I▁told▁him	-10.709
▁related	-10.7096
▁generation	-10.7097
▁released	-10.7097
▁pride	-10.7097
▁brilliant	-10.7097
▁Jesus	-10.7097
▁strawberries	-10.7097
▁Great	-10.7097
▁trade	-10.7097
▁income	-10.7097
▁motorcycle	-10.7097
▁circu	-10.7098
▁Drink	-10.7098
▁performance	-10.7098
▁Check	-10.7099
▁selfish	-10.71
▁quit▁smoking	-10.7101
cycle	-10.7101
▁candles	-10.7102
d▁known	-10.7103
▁where▁Tom▁is	-10.7103
▁once▁a▁week	-10.7103
▁get▁up▁early	-10.7105
▁kindness	-10.7106
▁raw	-10.7112
▁mist	-10.7112
▁the▁floor	-10.7113
▁some▁questions	-10.7114
▁announced	-10.7115
▁come▁true	-10.7115
▁in▁the▁fridge	-10.7116
▁a▁headache	-10.7117
▁east	-10.7118
▁going▁to▁take	-10.7119
▁too▁far	-10.7119
▁sixty	-10.7122
▁yard	-10.7123
▁ever▁heard	-10.7126
▁in▁Europe	-10.7126
▁seek	-10.7126
▁playing▁with	-10.7133
craft	-10.7135
▁I▁really▁don	-10.7135
▁crash	-10.7151
▁compar	-10.7158
▁old▁enough	-10.7163
▁developed	-10.7167
▁the▁market	-10.7169
ham	-10.717
▁shout	-10.7172
▁a▁genius	-10.7172
jo	-10.7173
▁canceled	-10.7174
▁an▁egg	-10.7178
▁play▁chess	-10.7178
▁sorry▁for	-10.7178
▁in▁my▁life	-10.7179
▁an▁appointment	-10.7182
▁supermarket	-10.7182
▁advance	-10.7189
▁written▁in	-10.7199
▁aside	-10.7202
▁we▁should	-10.7204
s▁not▁true	-10.7204
They▁are	-10.7205
shirt	-10.7205
ve▁found	-10.7212
▁current	-10.7215
▁his▁sister	-10.7221
▁a▁lot▁of▁fun	-10.7222
▁in▁the▁dark	-10.7223
▁gathered	-10.7229
▁threat	-10.723
▁employ	-10.723
▁struggle	-10.723
▁security	-10.723
▁Polish	-10.723
▁arriving	-10.723
▁charming	-10.723
▁reserve	-10.723
▁pilot	-10.723
▁possess	-10.723
▁swallow	-10.723
▁Follow	-10.723
▁in▁a▁bad▁mood	-10.723
▁Green	-10.723
▁worn	-10.7231
▁pitch	-10.7231
▁a▁waste▁of▁time	-10.7231
▁Though	-10.7231
▁based▁on	-10.7232
▁online	-10.7232
▁somewhere▁else	-10.7233
▁to▁sit	-10.7234
▁twins	-10.7235
▁parents▁are	-10.7237
▁metal	-10.7237
▁in▁France	-10.7239
▁total	-10.7241
▁2:30	-10.7242
▁liar	-10.7248
▁I▁came▁here	-10.7255
▁better▁at	-10.7256
▁told▁Mary	-10.7261
▁Put▁your	-10.7262
▁our▁house	-10.7268
▁stood▁up	-10.727
d▁love▁to	-10.7271
▁wishes	-10.7272
▁claimed	-10.7275
▁The▁street	-10.7275
▁panic	-10.7275
▁It▁happened	-10.7281
▁bull	-10.7287
▁former	-10.7288
▁What▁did▁you▁do	-10.7288
made	-10.7292
▁I▁met▁her	-10.7292
▁Do▁you▁think▁it	-10.7312
▁friends▁with	-10.7315
▁a▁bus	-10.7317
▁He▁speaks	-10.7322
t▁do▁this	-10.733
▁idiot	-10.7336
▁temp	-10.7336
▁as▁many	-10.7336
▁yell	-10.7343
▁working▁on	-10.7346
▁the▁woman	-10.7348
▁take▁this	-10.7351
▁candle	-10.7361
▁asked▁me▁if▁I	-10.7361
▁work▁to▁do	-10.7365
ä	-10.7365
▁handwriting	-10.7365
▁Scotland	-10.7365
▁Muslim	-10.7366
▁envelope	-10.7366
▁February	-10.7366
▁exciting	-10.7366
▁pepper	-10.7366
▁Those▁are	-10.7366
▁threatened	-10.7366
▁clue	-10.7367
▁my▁uncle	-10.7367
▁gay	-10.7367
▁the▁number	-10.7369
▁Few	-10.7369
▁all▁the▁way	-10.7369
▁partner	-10.737
▁pipe	-10.7373
▁and▁the▁other	-10.7377
▁parties	-10.7379
▁stayed▁at▁home	-10.7379
▁I▁heard▁that	-10.7382
▁to▁hear▁that	-10.7386
▁enough▁time	-10.7391
▁turned▁off	-10.7393
▁his▁money	-10.7393
▁this▁word	-10.7394
▁14	-10.7395
ll▁help▁you	-10.74
▁bow	-10.7405
▁in▁the▁distance	-10.7406
▁to▁dinner	-10.7408
▁knew▁what	-10.7414
bli	-10.7414
▁verb	-10.7418
▁dial	-10.742
▁My▁mother▁is	-10.7424
▁looks▁like▁a	-10.7425
▁40	-10.7426
▁the▁universe	-10.7429
▁seem▁to	-10.7431
▁one▁of▁these	-10.7442
▁how▁many	-10.7446
war	-10.7447
▁has▁got	-10.7449
▁was▁stolen	-10.7451
▁very▁hot	-10.7453
▁correctly	-10.7454
▁higher	-10.7455
▁to▁be▁happy	-10.7466
▁gate	-10.7468
▁your▁job	-10.7477
▁think▁it	-10.7483
▁ocean	-10.7483
box	-10.7483
▁to▁pick	-10.7484
▁to▁go▁out	-10.7486
▁the▁biggest	-10.7491
ix	-10.7495
▁prince	-10.7496
▁zoo	-10.7499
▁stairs	-10.7499
▁Vladimir	-10.7502
▁colleague	-10.7502
▁competition	-10.7502
▁recognise	-10.7502
▁balance	-10.7502
▁reservation	-10.7502
▁the▁least	-10.7503
▁solar▁system	-10.7503
▁conduct	-10.7504
▁cancelled	-10.7504
▁lamp	-10.7504
▁medical	-10.7505
▁grew▁up▁in	-10.7506
▁next▁Monday	-10.7507
▁talk▁with▁you	-10.7508
▁to▁pass	-10.7508
▁Tony	-10.7509
▁wings	-10.751
▁two▁weeks	-10.7514
▁red▁wine	-10.7517
▁I▁think▁she	-10.752
▁his▁umbrella	-10.752
▁where▁you▁are	-10.7525
▁at▁eight	-10.753
▁lightning	-10.7537
▁The▁game	-10.7538
▁The▁party	-10.7538
▁sales	-10.7543
▁appli	-10.7549
▁bug	-10.755
▁been▁able▁to	-10.7552
▁cigarettes	-10.756
▁My▁daughter	-10.756
▁my▁umbrella	-10.7561
▁your▁age	-10.7567
▁decided▁not▁to	-10.7569
▁in▁the▁winter	-10.7576
▁voted	-10.7582
▁cancel	-10.7584
▁will▁arrive	-10.7595
▁confessed	-10.761
▁boil	-10.7614
▁of▁the▁year	-10.7615
▁for▁advice	-10.7622
▁item	-10.7626
▁exact	-10.7631
▁ignor	-10.7633
▁I▁went▁to▁bed	-10.7637
pping	-10.7638
▁policy	-10.7641
▁literature	-10.7641
▁harvest	-10.7641
▁Marika	-10.7641
▁platform	-10.7641
▁reflect	-10.7641
▁sensitive	-10.7641
▁August	-10.7641
▁circumstances	-10.7641
▁helmet	-10.7641
▁robot	-10.7641
▁robbed	-10.7641
▁translating	-10.7641
Yeah	-10.7641
▁minor	-10.7642
▁split	-10.7642
▁loose	-10.7644
▁stepp	-10.7645
▁claims	-10.7649
▁wooden	-10.7651
▁agreement	-10.7652
▁going▁to▁happen	-10.7656
▁is▁going▁to▁be	-10.7657
▁chain	-10.7659
▁your▁plan	-10.766
▁much▁more	-10.7663
▁his▁face	-10.7667
▁mission	-10.767
▁I▁saw▁her	-10.7674
▁The▁situation	-10.7679
▁than▁I▁thought	-10.7685
t▁allow	-10.7689
▁disappoint	-10.7698
▁He▁asked▁me	-10.7709
t▁believe▁you	-10.7712
▁will▁happen	-10.7715
▁your▁question	-10.7727
▁my▁fault	-10.7731
▁when▁she▁was	-10.7733
▁speak▁German	-10.7735
like	-10.7746
▁the▁original	-10.7746
▁seem▁to▁be	-10.775
ural	-10.7756
fall	-10.7761
▁differ	-10.7779
▁occur	-10.7781
▁horizon	-10.7782
▁instructions	-10.7782
▁violence	-10.7782
▁statue	-10.7782
▁poker	-10.7782
▁expense	-10.7782
▁virus	-10.7782
▁carrots	-10.7782
▁driving▁licence	-10.7783
finite	-10.7783
▁dislike	-10.7783
▁sword	-10.7784
▁data	-10.7785
▁glass▁of▁water	-10.7789
▁beginning	-10.7794
▁a▁bird	-10.7798
▁March	-10.7801
▁at▁nine	-10.7812
▁a▁lot▁more	-10.7814
▁sort	-10.7816
▁more▁often	-10.7826
▁male	-10.783
▁for▁three▁hours	-10.7832
▁all▁afternoon	-10.7833
▁drive▁a▁car	-10.7835
▁code	-10.784
▁homeless	-10.7846
▁watches	-10.7847
▁to▁teach	-10.7854
hr	-10.7859
▁no▁more	-10.7859
▁disc	-10.7864
▁Tom▁sat▁down	-10.7864
▁ran▁out	-10.7867
s▁why▁I	-10.7868
▁dreaming	-10.7871
▁older▁than▁you	-10.7871
▁to▁London	-10.7874
▁to▁tell▁Mary	-10.7882
▁ruined	-10.7882
▁in▁the▁forest	-10.7886
nna	-10.789
▁eat▁lunch	-10.7896
▁make▁up	-10.7904
▁We▁went▁to	-10.7911
▁legal	-10.7917
▁the▁contract	-10.7917
▁breathe	-10.7918
▁include	-10.7918
▁opera	-10.7919
▁trust▁him	-10.7923
▁Get▁out	-10.7923
▁crisis	-10.7925
▁possibility	-10.7925
▁brief	-10.7925
▁alternative	-10.7925
▁valid	-10.7925
▁hesitate	-10.7925
▁horn	-10.7926
▁warmer	-10.7926
▁gather	-10.7926
▁to▁admit	-10.7927
▁Half	-10.7927
▁need▁your▁help	-10.7928
▁scarf	-10.7928
▁Park	-10.7929
▁gray	-10.793
▁alien	-10.793
▁we▁can▁do	-10.7931
▁my▁glasses	-10.7936
aries	-10.7937
▁Won	-10.7937
eign▁languages	-10.7938
▁divided	-10.794
t▁know▁when	-10.794
▁ent	-10.7944
▁Ten	-10.7951
▁what▁Tom▁said	-10.7952
▁pea	-10.7954
▁includ	-10.7955
▁Is▁that▁your	-10.7959
▁achieved	-10.796
▁in▁the▁country	-10.7962
▁on▁October	-10.7963
▁summer▁vacation	-10.7963
five	-10.7989
▁three▁children	-10.7989
▁the▁bus▁stop	-10.799
▁grow▁up	-10.7992
▁to▁play▁with	-10.7994
▁sour	-10.7996
▁You▁have▁no	-10.8002
d▁like▁to▁know	-10.8013
▁very▁kind	-10.8015
▁for▁a▁few▁days	-10.802
▁a▁party	-10.8022
▁meeting▁room	-10.8027
▁Use	-10.8029
▁saw▁her	-10.8032
▁Tell▁me▁what	-10.8037
▁Mark	-10.8038
▁made▁from	-10.8038
▁your▁book	-10.8038
▁in▁Rome	-10.804
▁middle	-10.804
ittle	-10.8041
▁tied	-10.8041
▁climbing	-10.8044
▁say▁no	-10.8048
▁how▁to▁swim	-10.8058
▁tell▁them	-10.8067
▁commit	-10.8067
▁violin	-10.8068
▁Egypt	-10.8069
▁I▁heard▁you	-10.8069
▁shadow	-10.807
▁thunder	-10.807
▁Swedish	-10.807
▁plastic	-10.807
▁wisdom	-10.807
▁sleeve	-10.807
▁throat	-10.807
As▁far▁as▁I▁know	-10.807
▁reluctant	-10.807
confidence	-10.807
▁postcard	-10.807
▁stretch	-10.807
▁therefore	-10.807
▁whistle	-10.807
▁reveal	-10.807
▁mystery	-10.807
▁furious	-10.8071
▁apologise	-10.8071
▁staring▁at	-10.8072
▁frog	-10.8073
▁eighteen	-10.8073
▁The▁wind	-10.8076
▁safety	-10.8076
▁17	-10.8082
back	-10.8082
ve▁forgotten	-10.8083
▁Everyone▁knows	-10.8083
▁reduce	-10.8083
▁your▁mouth	-10.809
▁landed	-10.8091
▁City	-10.8099
ll▁never▁forget	-10.8099
▁out▁of▁bed	-10.81
▁They▁won	-10.8101
▁kissed▁her	-10.8102
▁would▁do	-10.811
▁as▁you▁think	-10.8115
▁damaged	-10.8118
▁free▁time	-10.8135
▁brake	-10.8141
ith	-10.8141
▁forgive▁me	-10.8142
▁Do▁you▁want▁a	-10.8143
▁spy	-10.8146
▁sheet	-10.8147
▁to▁listen▁to	-10.8154
▁van	-10.8155
▁the▁apple	-10.8156
▁pretended▁to▁be	-10.8162
▁many▁friends	-10.8164
▁to▁decide	-10.8165
▁too▁difficult	-10.8167
▁gained	-10.8168
▁until▁tomorrow	-10.8177
▁amount▁of	-10.8182
▁divorce	-10.8188
▁$	-10.8189
▁My▁cat	-10.8191
▁never▁forget	-10.8193
But	-10.8195
▁Pu	-10.8196
▁The▁king	-10.82
▁If▁I▁were	-10.8202
▁always▁be	-10.8207
▁The▁patient	-10.8208
▁1033	-10.8217
▁wrapped	-10.8217
▁distinguish	-10.8217
▁sunshine	-10.8217
▁Thursday	-10.8217
▁heavily	-10.8217
▁the▁ceiling	-10.8217
▁sooner▁or▁later	-10.8217
▁spoon	-10.8217
▁bloom	-10.8217
▁New▁Year	-10.8217
▁Betty	-10.8217
rew	-10.8218
▁nest	-10.8219
▁swimmer	-10.822
▁flour	-10.822
▁your▁umbrella	-10.8221
▁Light	-10.8222
▁as▁soon▁as▁I	-10.8222
put	-10.8226
▁fellow	-10.8227
▁temple	-10.8228
ball	-10.8229
▁your▁hand	-10.8229
▁the▁day▁after	-10.823
0,000	-10.8233
▁shave	-10.824
▁Korean	-10.8243
▁do▁it▁again	-10.8247
▁wipe	-10.8251
overed▁with▁snow	-10.8254
▁the▁storm	-10.8257
▁Tom▁saw▁Mary	-10.8259
▁of▁my▁friends	-10.826
▁thought▁he▁was	-10.826
▁11078	-10.8263
ari	-10.828
▁is▁my▁favorite	-10.8284
▁he▁knows	-10.8285
▁any▁money	-10.8285
▁He▁went▁to	-10.8286
▁at▁the▁meeting	-10.829
▁young▁people	-10.8292
▁not▁allowed▁to	-10.8304
▁13	-10.8305
▁burning	-10.8309
▁for▁free	-10.8312
▁in▁England	-10.8316
▁lived▁here	-10.832
d▁prefer	-10.833
▁to▁apologize	-10.8332
▁for▁a▁minute	-10.8337
▁cell▁phone	-10.8349
▁to▁the▁zoo	-10.8349
▁read▁a▁book	-10.8351
▁kit	-10.8359
▁Brown	-10.8364
▁my▁keys	-10.8364
▁the▁top▁of▁the	-10.8366
▁trunk	-10.8366
▁unique	-10.8366
▁arrange	-10.8366
▁battery	-10.8366
▁mosquito	-10.8366
▁uniform	-10.8366
▁internet	-10.8366
▁haunted	-10.8366
▁physical	-10.8366
▁rising	-10.8366
▁focus	-10.8367
▁screw	-10.8367
▁crop	-10.8372
▁Add	-10.8372
▁tag	-10.8377
▁her▁children	-10.8378
▁maybe	-10.8381
re▁saying	-10.8382
▁tiny	-10.8382
▁shake	-10.8383
▁the▁latest	-10.8384
▁Nobody▁knows	-10.8384
▁We▁have▁no	-10.8391
▁did▁you▁see	-10.8392
▁my▁children	-10.8394
▁My▁house▁is	-10.8405
▁was▁full	-10.8408
▁the▁right▁thing	-10.8409
▁center	-10.8418
▁signal	-10.842
▁engine	-10.8425
▁Math	-10.8426
▁percent▁of	-10.843
▁He▁ran	-10.8436
▁like▁to▁eat	-10.8445
▁your▁shoes	-10.8446
▁the▁boss	-10.8448
▁your▁head	-10.8455
▁so▁early	-10.8459
▁Some▁of▁the	-10.8463
▁customer	-10.8467
▁unit	-10.8473
▁If▁you▁have	-10.8474
▁direct	-10.8476
▁in▁China	-10.8477
▁Do▁you▁mind	-10.8486
of	-10.8486
▁to▁the▁library	-10.8487
▁his▁clothes	-10.85
▁think▁we▁should	-10.8501
▁your▁letter	-10.8509
hold	-10.851
▁The▁accident	-10.8515
▁alphabet	-10.8518
▁committee	-10.8518
▁purchase	-10.8518
▁quarrel	-10.8518
▁practical	-10.8518
▁underground	-10.8518
▁deceive	-10.8518
▁absence	-10.8518
▁puzzle	-10.8518
▁sauce	-10.8518
▁graduated▁from	-10.8518
▁various	-10.8519
izing	-10.8521
▁development	-10.8521
▁motion	-10.8522
▁effective	-10.8522
▁majority	-10.8522
▁old▁woman	-10.8522
▁X	-10.8524
▁promoted	-10.8525
▁in▁the▁future	-10.8526
▁a▁complete	-10.8538
▁Air	-10.8539
▁get▁along	-10.8541
worm	-10.8554
▁works▁as▁a	-10.8554
▁most▁of	-10.8557
▁shine	-10.8558
▁a▁bit▁of	-10.8567
▁tasted	-10.8574
▁chosen	-10.8575
fold	-10.8576
▁need▁to▁do▁that	-10.8578
▁have▁known	-10.8587
▁what▁you▁say	-10.8594
▁on▁foot	-10.8596
▁your▁advice	-10.8597
▁Most▁of▁the	-10.8597
▁what▁I▁said	-10.8598
▁eighty	-10.8603
ither	-10.8604
▁play▁football	-10.8607
▁every▁time	-10.8612
t▁see▁anything	-10.8612
▁crashed	-10.8613
▁artificial	-10.8615
▁want▁to▁come	-10.8618
▁Who▁is▁the	-10.8627
▁get▁along▁with	-10.8633
▁painter	-10.8636
▁solved	-10.864
▁disappear	-10.8641
▁is▁wearing▁a	-10.8645
▁examination	-10.8648
▁went▁home	-10.8659
▁in▁charge	-10.8667
▁length	-10.8672
▁monster	-10.8672
▁Language	-10.8672
▁scientific	-10.8672
▁vehicle	-10.8672
▁creative	-10.8672
▁description	-10.8672
▁Hokkaido	-10.8672
▁Street	-10.8672
▁ordinary	-10.8672
▁costume	-10.8672
▁for▁many▁years	-10.8672
▁kilo	-10.8672
▁minister	-10.8672
t▁afford▁to	-10.8674
▁standard	-10.8675
▁fall▁asleep	-10.8677
▁annoy	-10.8677
▁personality	-10.8678
▁put▁up▁with	-10.8681
▁Over	-10.8682
▁sent▁me	-10.8684
▁stand▁up	-10.8689
▁the▁oldest	-10.8689
▁first▁thing	-10.8692
▁the▁pool	-10.8692
▁generally	-10.8693
▁a▁stone	-10.8693
▁the▁airport	-10.8694
ood	-10.8694
▁any▁time	-10.8706
▁remind▁me	-10.8711
▁the▁toilet	-10.8714
▁rush	-10.8716
▁admit▁that	-10.8718
▁The▁book▁is	-10.8727
▁bon	-10.8729
ve▁come	-10.873
▁Mary▁knows	-10.8734
▁stay▁home	-10.8742
▁roommate	-10.8743
t▁you▁come	-10.8755
▁para	-10.8761
▁Ann	-10.8764
▁rug	-10.8765
▁do▁such▁a▁thing	-10.8766
▁the▁courage▁to	-10.8768
▁lawn	-10.8769
▁going▁to▁Boston	-10.877
▁original	-10.8779
▁Happ	-10.8789
t▁have▁done▁it	-10.8793
▁away▁from▁the	-10.8799
J	-10.8803
▁stuck▁in	-10.8812
▁constant	-10.8813
▁among▁the	-10.8815
▁cause▁of	-10.8819
▁sofa	-10.882
▁would▁come	-10.8822
▁to▁hide	-10.8824
▁forced▁to	-10.8827
▁Toki▁Pona	-10.8828
▁prohibit	-10.8828
▁hammer	-10.8828
▁permitted	-10.8828
▁worries	-10.8828
▁unfair	-10.8828
▁Turkey	-10.8828
▁a▁member▁of	-10.8829
▁quote	-10.8829
:30	-10.8829
▁invest	-10.8831
▁play▁the▁guitar	-10.8833
t▁got▁a	-10.8833
▁have▁to▁wait	-10.8834
▁rather▁than	-10.8836
ve▁done▁that	-10.8838
▁cheating	-10.8842
Do▁you▁think▁Tom	-10.8848
zu	-10.8848
sexual	-10.8855
▁Why▁have	-10.8858
▁after▁dinner	-10.8861
▁Tom▁took▁a	-10.8863
▁the▁secret	-10.8866
▁worst	-10.8866
▁go▁to▁Australia	-10.8867
▁What▁am▁I	-10.8868
▁talking▁to▁you	-10.8869
gh	-10.8869
▁insurance	-10.8874
▁shut▁up	-10.8875
▁the▁weekend	-10.8876
99	-10.8877
▁want▁to▁become	-10.8878
▁fell▁into	-10.8879
▁refused	-10.8883
▁to▁build	-10.8883
▁not▁at▁all	-10.8884
▁blushed	-10.8893
▁The▁problem▁is	-10.8894
pend	-10.8901
m▁looking▁for▁a	-10.891
▁Does▁Tom▁know	-10.891
▁detail	-10.8912
▁got▁off	-10.8916
▁do▁everything	-10.8918
▁many▁things	-10.8922
▁fur	-10.8926
▁the▁sound▁of	-10.8927
▁just▁wanted▁to	-10.8929
▁shoes▁are	-10.893
▁cookie	-10.8935
▁their▁children	-10.8943
▁for▁the▁job	-10.8944
▁scar	-10.8946
ude	-10.8946
▁a▁lot▁of▁people	-10.8961
▁left▁the▁room	-10.8962
▁Show	-10.8963
▁come▁tomorrow	-10.8965
ve▁finished	-10.8972
▁went▁back	-10.8973
▁sew	-10.8977
▁look▁at▁it	-10.8979
▁cream	-10.8986
▁individual	-10.8987
▁grammar	-10.8987
▁fantastic	-10.8987
▁impatient	-10.8987
▁Linda	-10.8987
▁incorrect	-10.8987
▁propose	-10.8987
▁consequence	-10.8987
▁garbage	-10.8987
▁laptop	-10.8987
▁mushroom	-10.8987
▁crawl	-10.8987
▁rejected	-10.8987
▁chips	-10.8987
▁piece▁of▁paper	-10.8987
▁swimming▁pool	-10.8987
▁importance	-10.8988
▁slip	-10.8991
suit	-10.8994
▁older▁sister	-10.8996
▁miss▁the▁train	-10.8997
▁exit	-10.9001
▁bur	-10.9002
▁Dogs	-10.9004
▁at▁last	-10.9005
▁time▁for▁me	-10.9005
▁is▁just▁a	-10.9007
▁entered▁the	-10.9008
▁typical	-10.9009
▁in▁the▁mirror	-10.9016
▁managed▁t	-10.9017
ve▁ever▁seen	-10.9019
▁on▁Facebook	-10.9021
▁too▁expensive	-10.9022
▁will▁be▁back	-10.9027
▁west	-10.9032
▁The▁result	-10.9039
▁searched	-10.9039
▁no▁idea▁what	-10.9043
▁formed	-10.9043
▁the▁horse	-10.9044
▁soap	-10.9044
▁Die	-10.9045
▁alike	-10.905
▁ideal	-10.9056
▁birthday▁party	-10.9057
▁accompani	-10.906
▁why▁she	-10.906
▁shouted	-10.9061
▁in▁detail	-10.9066
▁first▁time▁I	-10.9066
can	-10.9068
▁a▁game	-10.907
▁breathing	-10.9075
timate	-10.909
▁think▁they	-10.9097
▁rushed	-10.9102
▁this▁street	-10.9106
▁tin	-10.9109
raffic▁accident	-10.911
▁seen▁her	-10.9114
▁this▁job	-10.9116
▁persuade	-10.9118
known	-10.9119
▁where▁she	-10.9124
▁some▁milk	-10.9137
▁talks▁about	-10.9144
▁century	-10.9144
▁could▁hear	-10.9146
▁to▁find▁out	-10.9147
▁September	-10.9148
▁resource	-10.9148
▁victory	-10.9148
▁translator	-10.9148
▁zero	-10.9148
▁breast	-10.9148
▁sneak	-10.9148
▁shelter	-10.9148
▁presence	-10.9148
▁a▁beginner	-10.9148
▁Old	-10.9148
▁noisy	-10.9148
▁Start	-10.9148
▁baking	-10.9151
▁How▁about▁a	-10.9155
▁ashamed	-10.9155
▁go▁out▁with	-10.9157
t▁care▁what	-10.9161
▁difficulties	-10.9161
▁rub	-10.9162
▁its▁own	-10.9166
▁what▁he▁wants	-10.9166
▁The▁soldiers	-10.9169
▁in▁the▁bathroom	-10.9172
▁a▁nurse	-10.9174
▁hundred▁dollars	-10.9176
▁heard▁the▁news	-10.9177
▁Ja	-10.9183
▁a▁long▁way	-10.9185
▁on▁the▁roof	-10.9191
▁come▁up▁with	-10.9192
▁shit	-10.9199
▁tell▁me▁how	-10.92
▁be▁honest	-10.9206
▁Indian	-10.9207
▁of▁the▁universe	-10.9209
▁camping	-10.9213
▁is▁located	-10.9216
▁insisted	-10.9225
▁have▁to▁do▁it	-10.9227
ll▁give▁you▁a	-10.9232
▁looked▁up	-10.9233
▁the▁opposite	-10.9237
▁take▁a▁taxi	-10.9239
▁too▁early	-10.9242
▁What▁do▁you▁do	-10.9242
▁sounded	-10.9242
▁more▁beautiful	-10.9242
▁500	-10.9243
▁speak▁with▁you	-10.9247
▁compare	-10.9256
▁in▁the▁village	-10.926
▁department	-10.9261
▁have▁fun	-10.9263
▁my▁favorite	-10.9263
▁The▁government	-10.9267
▁That▁sound	-10.9271
vation	-10.9277
▁wait▁for▁me	-10.9281
▁grabb	-10.9289
▁in▁a▁long▁time	-10.9292
▁kick	-10.9292
▁bush	-10.9307
▁to▁get▁there	-10.9308
▁Do▁you▁know▁why	-10.9308
▁architect	-10.9312
▁technology	-10.9312
▁California	-10.9312
▁creature	-10.9312
▁staff	-10.9312
▁preparing	-10.9312
▁baggage	-10.9312
▁overweight	-10.9312
▁At▁least	-10.9312
▁blonde	-10.9312
▁contribute	-10.9312
▁positive	-10.9312
▁Winter	-10.9312
▁gradually	-10.9312
▁misunderstand	-10.9312
▁Berber	-10.9312
▁attitude	-10.9312
▁element	-10.9312
▁increasing	-10.9312
▁Work	-10.9312
▁as▁soon▁as▁you	-10.9312
▁contest	-10.9312
▁suffering▁from	-10.9313
▁kitten	-10.9313
▁imitat	-10.9313
▁How▁could▁you	-10.9313
▁treatment	-10.9313
secondary▁school	-10.9313
zed	-10.9313
▁unconscious	-10.9314
▁one▁another	-10.9314
▁Like	-10.9314
▁rely▁on	-10.9317
▁Gl	-10.9318
▁talkative	-10.932
▁to▁an▁end	-10.9321
▁medal	-10.9323
▁crush	-10.9324
▁sunny	-10.9327
▁the▁enemy	-10.9327
▁her▁head	-10.9327
▁wasted	-10.933
▁Miss	-10.933
▁joined	-10.9331
▁drink▁coffee	-10.9331
▁older▁than▁me	-10.9334
▁the▁cinema	-10.9338
▁the▁examination	-10.9341
hood	-10.9347
▁this▁medicine	-10.935
▁long▁hair	-10.9354
▁the▁city▁centre	-10.9355
▁go▁swimming	-10.9356
▁Va	-10.9356
▁been▁raining	-10.936
▁recovered	-10.9365
▁Tell▁him	-10.9369
▁worrying	-10.9374
▁list▁of	-10.9378
▁say▁they	-10.9386
▁shared	-10.9388
▁was▁ill	-10.9389
▁came▁here	-10.9397
▁the▁rest▁of▁the	-10.9404
▁skip	-10.941
▁cut▁down	-10.9415
▁cabin	-10.9417
▁he▁says	-10.9418
▁electric	-10.9421
▁in▁the▁past	-10.9423
▁did▁nothing	-10.9423
▁are▁playing	-10.9427
▁his▁age	-10.9432
ve▁gone	-10.9436
U	-10.9453
break	-10.9454
▁differently	-10.9464
▁avoided	-10.9465
▁see▁a▁doctor	-10.9472
▁critic	-10.9476
▁Tom▁said▁Mary	-10.9478
▁surprising	-10.9478
▁December	-10.9479
▁Shakespeare	-10.9479
▁Translat	-10.9479
▁response	-10.9479
▁religious	-10.9479
▁Nancy	-10.9479
▁Olympic	-10.9479
▁supplies	-10.9479
▁unlucky	-10.9479
▁confusing	-10.9479
▁carpenter	-10.9479
▁consciousness	-10.9479
▁essay	-10.9479
▁adapt	-10.9479
▁cellphone	-10.9479
▁wander	-10.948
▁image	-10.948
▁Price	-10.948
▁homesick	-10.948
▁at▁the▁age	-10.9481
▁wool	-10.9482
▁root	-10.9482
▁function	-10.9483
▁Pick	-10.9489
▁under▁the▁table	-10.9492
▁very▁long	-10.9494
▁My▁brother▁is	-10.9494
▁historic	-10.9494
▁deleted	-10.9494
▁wait▁for▁you	-10.9501
▁my▁shoes	-10.9501
▁Can▁you▁help▁me	-10.9505
▁I▁need▁to▁know	-10.9509
down	-10.9521
▁there▁was▁no	-10.9522
▁participate	-10.9525
▁the▁roof	-10.9528
▁slightly	-10.9531
▁is▁quit	-10.9534
▁Wh	-10.9539
▁sir	-10.954
▁a▁singer	-10.9556
▁some▁water	-10.9556
ve▁written	-10.9558
▁was▁taken	-10.956
▁my▁grandmother	-10.9562
▁to▁stay▁at▁home	-10.957
▁The▁world▁is	-10.9574
▁origin	-10.9574
▁go▁for▁a▁walk	-10.958
▁Bar	-10.9597
▁Why▁were	-10.9598
▁an▁apartment	-10.9599
part▁from	-10.96
itive	-10.9601
▁very▁careful	-10.9603
▁students▁are	-10.9616
▁an▁artist	-10.9617
▁the▁gate	-10.9618
▁on▁board	-10.9618
ll▁see▁you	-10.9619
▁swam	-10.9635
▁Is▁this▁a	-10.9635
▁a▁crush	-10.9636
▁familiar▁with	-10.9638
▁my▁husband	-10.9638
▁know▁exactly	-10.9644
een	-10.9644
▁comfort	-10.9644
▁opponent	-10.9648
▁Sweden	-10.9648
▁candidate	-10.9648
▁happier	-10.9648
▁symbol	-10.9648
▁Hebrew	-10.9648
▁nodded	-10.9648
▁forehead	-10.9648
▁bananas	-10.9648
▁Iceland	-10.9648
▁the▁devil	-10.9648
▁Forget	-10.9648
▁handbag	-10.9648
▁Turkish	-10.9649
▁punch	-10.9649
▁plus	-10.9649
▁Mount	-10.9649
▁Spring	-10.9649
▁chew	-10.965
▁leave▁me▁alone	-10.9651
▁reminds▁me	-10.9651
▁made▁fun▁of	-10.9651
▁Long	-10.9652
▁had▁no▁choice	-10.9652
▁Stand	-10.9653
▁bump	-10.9657
▁Hand	-10.9658
▁playing▁tennis	-10.9661
▁Easter	-10.9662
▁laughter	-10.9662
▁be▁more▁careful	-10.9667
▁foreigners	-10.9668
▁suitable	-10.9668
▁Are▁you▁coming	-10.9668
▁a▁nap	-10.9672
▁Sho	-10.9673
▁Who▁told▁you	-10.9673
▁twin	-10.9676
▁the▁whole▁day	-10.9678
▁a▁special	-10.9684
▁the▁guests	-10.9685
▁go▁to▁sleep	-10.9692
▁One▁day	-10.9692
▁era	-10.9694
ridge	-10.9696
▁the▁gift	-10.9703
lock	-10.9706
▁came▁up	-10.9708
▁his▁promise	-10.9717
▁Cut	-10.9718
▁last▁time	-10.9722
▁to▁make▁sure	-10.9725
▁her▁face	-10.9725
round	-10.9725
▁on▁the▁list	-10.9727
▁long▁ago	-10.9733
▁ambulance	-10.9734
▁her▁daughter	-10.9735
▁looking▁at▁me	-10.9741
▁recommended	-10.9744
▁fate	-10.9746
▁need▁help	-10.975
▁a▁hotel	-10.9753
▁lend▁you	-10.9758
▁have▁breakfast	-10.976
▁in▁Italy	-10.9764
▁to▁buy▁some	-10.9766
▁how▁to▁play	-10.9771
▁Tom▁knew▁that	-10.9772
m▁trying	-10.9779
ench	-10.9779
▁did▁you▁learn	-10.9782
▁the▁fence	-10.9782
▁People▁are	-10.9784
▁than▁you▁think	-10.9788
▁brought▁up	-10.979
Why	-10.9797
▁put▁off	-10.9799
▁settle	-10.98
book	-10.9811
keeper	-10.9814
▁ought	-10.9814
▁represent	-10.982
▁dozen	-10.982
▁Frank	-10.982
▁ambitious	-10.982
▁oxygen	-10.982
▁pianist	-10.982
▁prime	-10.982
▁University	-10.982
▁Venus	-10.982
▁reliable	-10.982
▁software	-10.982
▁classical▁music	-10.982
▁families	-10.982
▁terribly	-10.982
▁treasure	-10.982
▁bookstore	-10.9821
▁owl	-10.9821
▁gym	-10.9821
▁discount	-10.9821
▁examined	-10.9821
ool	-10.9821
▁package	-10.9823
▁During▁the	-10.9824
▁next▁Sunday	-10.9826
▁accidentally	-10.9827
▁brand	-10.9827
▁journalist	-10.9829
▁Marie	-10.983
▁familiar	-10.983
▁on▁the▁bench	-10.9831
▁Where▁is▁your	-10.9834
ossibly	-10.9836
boy	-10.9838
▁goes▁to▁school	-10.9839
▁this▁movie	-10.984
▁the▁Bible	-10.984
▁tomatoes	-10.9841
▁cloudy	-10.9845
▁rescued	-10.9846
▁hunting	-10.9849
▁since▁then	-10.9853
▁Mary▁and▁John	-10.9856
everal	-10.986
▁Pass	-10.9864
▁described	-10.9864
▁on▁top	-10.9865
▁on▁Friday	-10.9876
▁figured	-10.9877
▁mate	-10.9884
▁came▁from	-10.9886
▁mother▁tongue	-10.9887
▁speak▁to▁Tom	-10.9892
▁ever▁eaten	-10.9892
▁come▁with▁me	-10.9893
t▁be▁late	-10.9893
▁imagined	-10.9903
▁criticize	-10.9909
miss	-10.9914
ve▁got▁no	-10.9928
▁metro	-10.9928
▁on▁his▁way	-10.9929
▁was▁built	-10.9935
▁stealing	-10.9936
▁louder	-10.9944
▁post▁office	-10.9946
▁300	-10.9949
▁these▁books	-10.9954
▁in▁the▁air	-10.9956
▁dye	-10.9958
▁in▁my▁room	-10.996
▁tube	-10.9962
▁cleared	-10.9971
▁site	-10.9975
▁be▁able▁to▁help	-10.9977
itted	-10.9977
▁a▁new▁car	-10.9979
m▁sure▁that	-10.9984
chen	-10.9984
▁sacrifice	-10.9996
▁explosion	-10.9996
▁explor	-10.9996
▁telescope	-10.9996
▁terror	-10.9996
▁resemble	-10.9996
▁gunshot	-10.9996
▁typhoon	-10.9996
▁Play	-10.9996
▁nerve	-10.9996
▁stead	-10.9996
▁debate	-10.9996
▁spill	-11
▁unfortunately	-11.0001
▁visitors	-11.0003
▁as▁usual	-11.0006
▁last▁weekend	-11.0006
▁loan	-11.0007
▁close▁the▁door	-11.0009
▁this▁game	-11.0011
▁the▁last▁train	-11.0012
coming	-11.0013
▁24	-11.002
▁at▁the▁weekend	-11.0023
▁coach	-11.0023
▁settled	-11.0026
▁whispered	-11.0028
d▁like▁to▁see	-11.0029
▁will▁become	-11.0036
▁cheerful	-11.0042
▁I▁want▁to▁buy	-11.0044
▁got▁lost	-11.0048
▁leak	-11.005
▁award	-11.005
▁I▁had▁no▁idea	-11.0051
▁I▁know▁who	-11.0053
▁on▁the▁bed	-11.0056
We	-11.006
▁once▁again	-11.0069
▁beautiful▁woman	-11.0077
▁who▁you▁are	-11.0077
▁out▁the▁window	-11.0083
entered▁the▁room	-11.0085
▁jail	-11.0085
▁What▁colour	-11.0087
▁safely	-11.0092
▁went▁there	-11.0101
▁prevented	-11.0111
▁cloth	-11.013
▁train▁leaves	-11.0137
▁will▁win	-11.0138
▁really▁nice	-11.014
▁sudden	-11.016
▁his▁mouth	-11.0167
▁mini	-11.017
▁Halloween	-11.0174
▁Moscow	-11.0174
▁grandparents	-11.0174
▁kilogram	-11.0174
▁unemployed	-11.0174
▁necessarily	-11.0174
▁uncomfortable	-11.0174
▁utter	-11.0174
▁butterfly	-11.0174
▁ceremony	-11.0174
▁previous	-11.0174
▁arrogant	-11.0174
▁funeral	-11.0175
▁mild	-11.0175
▁recall	-11.0175
n▁order	-11.0176
▁Last▁night	-11.0176
▁construction	-11.0176
▁community	-11.0177
ll▁let▁you▁know	-11.018
▁tennis▁player	-11.0182
▁Four	-11.0184
▁freeze	-11.0185
▁younger▁brother	-11.0185
▁Why▁should	-11.0187
▁incredible	-11.0188
▁bad▁weather	-11.0189
▁If▁we	-11.0191
▁taxes	-11.0194
▁all▁day▁long	-11.0198
▁pass▁the▁exam	-11.0199
▁wants▁to▁go	-11.0201
t▁have▁done▁that	-11.0203
▁shall▁we	-11.0203
▁clothing	-11.0205
▁The▁room▁was	-11.0205
▁very▁rich	-11.0207
▁went▁to▁school	-11.021
65	-11.0215
▁justice	-11.0215
▁normally	-11.0221
plan	-11.0223
▁new▁book	-11.0232
▁showed▁up	-11.0236
▁some▁coffee	-11.0237
▁sometime	-11.0238
▁lied▁to▁me	-11.0241
▁personally	-11.0243
air	-11.0248
▁smarter	-11.0251
▁go▁fishing	-11.0254
▁goat	-11.026
▁has▁done	-11.0261
▁cure	-11.0261
▁Char	-11.0264
▁an▁easy	-11.0265
▁teach▁me	-11.0269
18	-11.0272
▁all▁morning	-11.0274
▁laugh▁at	-11.0276
▁I▁need▁some	-11.0276
▁loser	-11.0278
▁Er	-11.0281
▁blush	-11.0281
▁Of	-11.029
▁Look▁at▁the	-11.0301
▁but▁it▁was	-11.0302
40	-11.0305
▁most▁of▁the	-11.0308
▁transport	-11.0316
▁have▁a▁look	-11.0319
▁times▁a▁week	-11.0328
▁Tom▁lives▁in▁a	-11.033
ability	-11.0331
point	-11.0333
▁Shut	-11.0345
▁been▁sick	-11.0347
▁launch	-11.0356
▁robber	-11.0356
▁Republic	-11.0356
▁scholar	-11.0356
▁phrase	-11.0356
▁Mexico	-11.0356
▁Summer	-11.0356
▁Catholic	-11.0356
▁snoring	-11.0356
▁underestimate	-11.0356
▁broad	-11.0356
▁concentrate	-11.0356
▁dizzy	-11.0356
▁turtle	-11.0356
▁adjust	-11.0356
▁Fortunately	-11.0356
▁modest	-11.0356
▁steam	-11.0357
▁the▁front▁door	-11.0357
▁an▁orange	-11.0357
▁expectations	-11.0357
▁criticism	-11.0357
▁fifteen▁minutes	-11.0358
▁punishment	-11.0358
▁connection	-11.0361
▁reward	-11.0364
ological	-11.0369
▁was▁lying	-11.0371
▁as▁far▁a	-11.0371
▁gave▁Mary▁a	-11.0373
▁glad▁to▁see▁you	-11.0373
▁time▁to▁time	-11.0378
▁said▁yes	-11.0379
▁hunter	-11.038
▁one▁of▁the▁best	-11.038
▁embarrassing	-11.0381
handed	-11.0382
▁arrest	-11.0394
▁believes▁that	-11.0394
▁my▁advice	-11.0398
▁yelling	-11.0399
▁increased	-11.04
▁towards▁the	-11.0404
▁four▁years	-11.0415
▁screaming	-11.0421
▁wanted▁to▁know	-11.0421
▁sigh	-11.0423
▁good▁at▁math	-11.0429
d▁like▁to▁be	-11.0433
▁wanted▁to▁go	-11.0433
▁are▁we▁going▁to	-11.0436
▁go▁to▁the▁beach	-11.0445
▁feel▁like	-11.0447
▁an▁old▁man	-11.0454
▁fist	-11.0461
▁guest	-11.0463
▁done▁anything	-11.0469
▁Far	-11.0469
▁the▁clock	-11.048
48	-11.0484
▁depart	-11.0486
▁Help	-11.0493
▁forecast	-11.0493
▁asked▁us	-11.05
▁little▁boy	-11.0501
▁mentioned	-11.0518
▁Asia	-11.0519
▁as▁much▁as▁I	-11.0523
s▁no▁way	-11.0527
▁an▁actor	-11.0534
Well	-11.0536
▁three▁minutes	-11.0538
▁commun	-11.0539
▁precise	-11.0541
▁November	-11.0541
▁congratulat	-11.0541
▁perhaps	-11.0541
▁valley	-11.0541
▁visible	-11.0541
▁leather	-11.0541
▁confident	-11.0541
▁memories	-11.0541
▁adventure	-11.0541
▁grapes	-11.0542
▁In▁my▁opinion	-11.0542
▁recent	-11.0542
▁granted	-11.0542
▁Mary▁says▁she	-11.0542
▁She▁says▁she	-11.0542
▁Talk	-11.0542
▁vomit	-11.0543
▁Choos	-11.0543
▁indicat	-11.0543
▁belt	-11.0545
▁unless▁you	-11.0545
▁finds▁out	-11.0545
▁existence	-11.0547
▁trying▁to▁say	-11.0547
ntil	-11.0554
▁mice	-11.0555
▁complaints	-11.0557
▁pub	-11.0557
▁a▁few▁questions	-11.0558
▁go▁away	-11.0558
▁exactly▁what▁I	-11.0559
▁angry▁with▁me	-11.0562
▁his▁coat	-11.057
re▁the▁only▁one	-11.0588
▁produced	-11.0592
▁Asian	-11.0593
▁client	-11.0596
▁our▁team	-11.0599
▁a▁vegetarian	-11.0599
▁Go▁away	-11.06
▁Do▁you▁like▁to	-11.0604
▁on▁the▁radio	-11.0605
▁to▁marry▁him	-11.0613
▁This▁song	-11.0618
▁what▁I▁mean	-11.0626
▁more▁expensive	-11.0626
▁shall▁be	-11.0627
▁is▁not▁easy	-11.0637
▁who▁knows	-11.0645
▁Young	-11.0647
▁on▁the▁road	-11.0657
▁set▁off	-11.0669
▁my▁cousin	-11.0672
▁know▁why▁you	-11.0695
▁Sit	-11.0699
▁remove	-11.0701
s▁a▁pity	-11.0704
▁say▁goodbye	-11.0707
▁the▁woods	-11.0709
▁find▁a▁job	-11.0711
▁bought▁some	-11.0714
▁East	-11.0728
▁convenient	-11.073
▁balcony	-11.073
▁acquaintance	-11.073
▁sense▁of▁humor	-11.073
▁disaster	-11.073
▁unbelievabl	-11.073
▁communicate	-11.073
▁on▁my▁nerves	-11.073
▁for▁sale	-11.073
▁balloon	-11.073
▁eager	-11.073
▁skate	-11.073
▁whether▁I	-11.0731
▁dried	-11.0731
▁Mary▁and▁Alice	-11.0731
▁detective	-11.0732
▁sank	-11.0732
▁spark	-11.0733
▁tank	-11.0735
▁download	-11.0735
▁whether▁the	-11.0737
ll▁never▁be	-11.0741
▁golden	-11.0743
▁my▁leg	-11.0744
▁cage	-11.075
▁my▁neighbor	-11.0757
▁This▁room▁is	-11.0757
▁the▁next▁room	-11.0759
▁know▁each▁other	-11.0761
▁in▁this▁country	-11.0768
!"▁"	-11.0768
▁thought▁Tom▁was	-11.0772
▁declared	-11.078
▁get▁to▁know	-11.0784
▁a▁cab	-11.0788
▁worked▁hard	-11.0792
▁in▁a▁t	-11.0795
80	-11.0796
▁charged	-11.0796
▁has▁lost	-11.0798
▁shooting	-11.0799
▁take▁part	-11.0814
▁an▁expert	-11.0816
▁how▁to▁drive	-11.0822
▁decided▁to▁go	-11.0832
▁into▁the▁water	-11.084
▁cup▁of▁tea	-11.0853
▁was▁killed▁in	-11.0857
▁want▁me▁to▁do	-11.0863
▁works▁in▁a	-11.0881
▁already▁gone	-11.0885
friend	-11.0887
▁little▁money	-11.089
re▁you▁doing	-11.0894
stand	-11.0895
Tom	-11.0902
load	-11.0904
▁letter▁from	-11.0912
▁proper	-11.0915
▁be▁quiet	-11.092
▁priest	-11.0922
▁the▁government	-11.0922
▁dragon	-11.0922
▁knight	-11.0922
▁somewhat	-11.0922
▁assistance	-11.0922
▁chapter	-11.0922
▁register	-11.0922
▁backpack	-11.0922
▁conscience	-11.0922
▁honour	-11.0922
▁devoted	-11.0922
▁injury	-11.0922
▁reckon	-11.0922
▁remote	-11.0922
▁profit	-11.0923
▁version	-11.0923
▁bald	-11.0923
▁quite▁well	-11.0923
▁between▁the▁two	-11.0923
▁closing	-11.0923
▁Prince	-11.0923
▁rust	-11.0924
▁section	-11.0924
▁route	-11.0926
▁down▁the▁stairs	-11.0926
▁Jew	-11.0926
ve▁never▁be	-11.0929
▁for▁your▁health	-11.093
▁same	-11.0934
▁regularly	-11.0935
▁vet	-11.0937
▁biggest	-11.0938
▁Gi	-11.0939
▁Chinese▁food	-11.0941
▁directly	-11.0942
▁go▁to▁church	-11.0948
▁the▁next▁day	-11.0949
▁lived▁in▁Boston	-11.095
▁virtue	-11.0954
▁an▁angel	-11.0958
▁shaved	-11.0961
▁My▁husband	-11.0963
▁at▁the▁hotel	-11.0978
▁informed	-11.0984
▁windy	-11.0988
▁coal	-11.099
▁the▁same▁way	-11.0992
▁disco	-11.0997
▁wo	-11.0998
▁scale	-11.0998
imp	-11.1009
▁did▁you▁find	-11.101
▁80	-11.1012
▁murderer	-11.1014
▁eat▁breakfast	-11.1032
▁located	-11.1036
▁very▁quickly	-11.1042
▁have▁to▁pay	-11.1044
▁delighted	-11.1048
▁Bra	-11.1054
▁every▁week	-11.1055
▁If▁there	-11.1055
▁claim	-11.1056
▁a▁pencil	-11.1058
▁vegetarian	-11.1058
▁was▁given	-11.1064
▁Ke	-11.1071
berg	-11.1082
▁angel	-11.1085
▁lot▁of▁people	-11.1089
▁blocked	-11.1089
▁have▁no▁idea	-11.1092
guard	-11.1095
▁very▁big	-11.1097
▁know▁the▁answer	-11.1101
▁very▁angry	-11.1108
▁do▁that▁anymore	-11.1111
▁talking▁with	-11.1111
▁communication	-11.1118
▁happily	-11.1118
▁poverty	-11.1118
▁vegan	-11.1119
▁drowning	-11.1119
▁Swiss	-11.1119
▁demonstra	-11.1119
▁distracted	-11.1119
▁slippery	-11.1119
▁tattoo	-11.1119
▁forbidden	-11.1119
▁$300	-11.1119
▁dolphin	-11.1119
▁on▁the▁shelf	-11.1119
▁display	-11.1119
▁folk	-11.1119
▁sixteen	-11.1119
▁stink	-11.1119
▁Jones	-11.1119
▁sunrise	-11.1119
▁float	-11.1119
▁consume	-11.112
▁destination	-11.1121
▁Marcus	-11.1121
▁pills	-11.1122
▁volcano	-11.1123
▁next▁weekend	-11.1125
▁diver	-11.1127
▁stain	-11.113
▁Shut▁up	-11.1131
▁chess▁player	-11.1136
▁pace	-11.1136
▁will▁not▁be	-11.1136
▁My▁dad	-11.1139
▁in▁this▁house	-11.1141
▁setting	-11.1142
▁fluent	-11.1144
▁pee	-11.1147
42	-11.1154
▁a▁hard▁time	-11.1155
▁pretty▁girl	-11.1155
▁sunlight	-11.1155
ve▁told▁you	-11.1161
▁wrote▁a▁letter	-11.1168
▁for▁three▁weeks	-11.1169
▁a▁good▁teacher	-11.1176
▁May▁I▁have▁a	-11.1181
▁had▁gone	-11.1183
▁welcome▁here	-11.1186
▁pour	-11.1197
▁cinema	-11.1199
▁Sir	-11.1207
▁stop▁smoking	-11.1208
▁sack	-11.1209
▁From▁the	-11.1211
▁my▁boss	-11.1213
▁net	-11.1214
▁secretly	-11.1215
▁Cha	-11.1215
▁stopping	-11.1221
▁Do▁you▁need▁a	-11.1233
▁a▁policeman	-11.1243
▁ask▁questions	-11.1244
▁see▁each▁other	-11.1247
▁want▁to▁do▁this	-11.1253
▁apple▁tree	-11.1258
▁my▁mom	-11.1259
▁at▁the▁news	-11.1269
▁boxes	-11.1273
▁suicide	-11.1296
How	-11.1296
▁glance	-11.1296
oth▁Tom▁and▁Mary	-11.13
▁comma	-11.1301
▁incredibl	-11.1303
▁on▁vacation	-11.1305
ö	-11.1318
/	-11.1318
▁superior	-11.1318
▁Denmark	-11.1319
▁Instead	-11.1319
▁siblings	-11.1319
▁exaggerate	-11.1319
▁stream	-11.1319
▁compliment	-11.1319
▁on▁Park▁Street	-11.1319
▁jogging	-11.1319
▁mechanic	-11.1319
▁contradict	-11.1319
▁Our▁teacher	-11.1319
▁physics	-11.1319
▁silk	-11.1319
▁link	-11.1319
▁mosque	-11.1319
▁began▁to▁rain	-11.1319
▁Thomas	-11.1319
▁Bird	-11.1319
▁meteor	-11.1319
▁folded	-11.1319
▁estimate	-11.1319
▁departure	-11.132
▁Alex	-11.132
▁lottery	-11.1321
▁icy	-11.1322
▁crew	-11.1324
▁Doctor	-11.1324
▁winner	-11.1325
ll▁miss▁you	-11.1325
▁No▁matter▁what	-11.1325
▁shut▁the▁door	-11.1326
▁statement	-11.133
▁heavy▁rain	-11.1331
▁postponed	-11.1333
▁with▁a▁knife	-11.1333
▁operate	-11.1336
▁bones	-11.1337
▁go▁anywhere	-11.1345
▁realised	-11.1348
▁collapsed	-11.135
▁his▁wallet	-11.1352
▁His▁mother	-11.1353
▁wondered▁wh	-11.1356
▁pulled▁out	-11.1358
▁blamed	-11.1371
▁discover	-11.1375
▁see▁Tom▁again	-11.1376
▁now▁and▁then	-11.1379
▁want▁another	-11.1393
▁go▁to▁work	-11.1403
▁my▁dad	-11.1432
▁matches	-11.1437
▁very▁popular	-11.1439
▁a▁good▁cook	-11.144
▁this▁road	-11.1456
ve▁just▁got	-11.1456
▁is▁a▁very▁good	-11.1458
ever▁you▁like	-11.1477
Nobody▁wants▁you	-11.1482
▁Korea	-11.1486
▁what▁he▁did	-11.1492
▁rescue	-11.1493
▁delivered	-11.1497
▁realise	-11.1498
▁because▁he▁was	-11.1516
Do▁you▁want▁some	-11.152
wise	-11.1522
▁overcome	-11.1523
▁global	-11.1523
▁industry	-11.1523
▁recipe	-11.1523
▁COVID	-11.1523
▁ladies	-11.1523
▁reception	-11.1523
▁violent	-11.1523
▁Norway	-11.1523
▁blouse	-11.1523
▁burglar	-11.1523
▁explode	-11.1523
▁humiliate	-11.1523
▁referee	-11.1523
▁Finland	-11.1523
▁freezing	-11.1523
▁impolite	-11.1523
▁say▁hello	-11.1523
▁rotten	-11.1523
▁wheat	-11.1523
▁folder	-11.1523
▁blink	-11.1523
▁spaghetti	-11.1523
▁waved	-11.1523
▁plenty▁of▁time	-11.1523
▁6:30	-11.1523
▁Lucy	-11.1524
▁chemistry	-11.1524
▁straw	-11.1525
▁leap	-11.1525
▁Music	-11.1525
▁scarce	-11.1526
▁beans	-11.1527
▁fuel	-11.1527
▁unknown	-11.1528
▁Since▁I	-11.1528
▁Gold	-11.1529
▁Good▁morning	-11.153
▁theater	-11.153
▁Tom▁called▁Mary	-11.153
▁a▁friend▁who	-11.1535
▁How▁come▁you	-11.1536
▁blue▁eyes	-11.1536
▁chill	-11.1537
▁declined	-11.1538
▁Compare	-11.1539
▁If▁it▁were	-11.1544
▁second▁floor	-11.1545
▁fainted	-11.1545
▁last▁summer	-11.1553
▁Help▁me	-11.1558
▁reasonable	-11.1559
▁Who▁else	-11.1559
▁persuaded	-11.156
▁Buy	-11.1564
▁mental	-11.1568
▁confess	-11.1569
▁bent	-11.157
▁boiling	-11.1576
▁sharpen	-11.1576
▁Tak	-11.1578
66	-11.1584
▁nothing▁to▁say	-11.1594
▁as▁if▁she	-11.1595
lov	-11.1599
▁went▁shopping	-11.1613
off	-11.1615
▁emotion	-11.162
▁will▁probably▁b	-11.1621
▁his▁birthday	-11.1636
▁expect▁me▁to	-11.165
▁insist	-11.1652
▁recover	-11.1653
▁any▁questions	-11.1658
▁like▁a▁child	-11.1662
▁dollar	-11.1667
▁heavier	-11.1672
▁one▁of▁those	-11.1691
▁torn	-11.1691
▁was▁absent	-11.1691
▁wants▁me▁to	-11.1702
lace	-11.1703
cket	-11.1705
phone	-11.1712
▁Our▁c	-11.1713
ppy	-11.1716
▁her▁boyfriend	-11.1721
▁my▁finger	-11.1724
▁solar	-11.1731
▁European▁Union	-11.1731
▁anniversary	-11.1731
d▁rather▁not	-11.1731
▁Saturn	-11.1731
▁medication	-11.1731
▁babies	-11.1731
▁volume	-11.1731
▁Thousand	-11.1731
▁Yumi	-11.1731
▁smooth	-11.1731
▁Liisa	-11.1731
▁philosophy	-11.1731
▁ride▁a▁bicycle	-11.1731
▁muscle	-11.1731
▁Robert	-11.1731
▁giant	-11.1731
▁up▁his▁mind	-11.1732
▁series	-11.1732
▁up▁the▁stairs	-11.1732
▁shark	-11.1733
▁flame	-11.1734
▁gossip	-11.1734
▁plum	-11.1735
▁Brazilian	-11.1735
▁Hope	-11.1736
▁seventy	-11.1738
▁frequently	-11.1741
▁ease	-11.1745
▁recovery	-11.1745
▁torch	-11.1745
▁relieved	-11.1746
-19	-11.1748
▁movement	-11.1754
▁have▁to▁do▁this	-11.1754
▁spare▁time	-11.1755
▁five▁o	-11.1756
▁the▁pub	-11.1756
s▁about▁time	-11.1758
▁passion	-11.176
▁his▁grandfather	-11.1764
▁after▁lunch	-11.1774
▁read▁books	-11.1782
▁already▁eaten	-11.1784
▁fence	-11.1785
.▁110784	-11.1786
38	-11.1805
▁whether▁t	-11.181
▁Facebook	-11.1829
▁bend	-11.1838
▁your▁passport	-11.1849
▁drink▁beer	-11.1858
▁used▁to▁live	-11.1866
▁believes▁in	-11.1874
▁sound▁like	-11.1901
▁kind▁of▁thing	-11.1901
▁a▁teenager	-11.1916
power	-11.1918
▁pool	-11.192
39	-11.1923
▁committed	-11.1923
▁new▁novel	-11.1924
▁Ku	-11.193
▁do▁you▁prefer	-11.1936
▁Football	-11.1944
▁meadow	-11.1944
▁pollution	-11.1944
▁mysterious	-11.1944
▁broadcast	-11.1944
▁establish	-11.1944
▁liquid	-11.1944
opher▁Columbus	-11.1944
▁appropriate	-11.1944
▁a▁fortnight	-11.1944
▁cafeteria	-11.1944
▁cathedral	-11.1944
▁John▁and▁Alice	-11.1944
▁insane	-11.1944
▁parrot	-11.1944
▁causing	-11.1944
nuclear	-11.1944
▁Make▁sure▁you	-11.1944
▁is▁out▁of▁order	-11.1944
▁afterwards	-11.1944
▁offended	-11.1944
▁stroke	-11.1945
▁ignorance	-11.1946
▁Kobe	-11.1946
▁cafe	-11.1946
▁bullet	-11.1946
▁courageous	-11.1947
▁Pope	-11.1948
▁What▁time▁is▁it	-11.1949
▁Taro	-11.1952
▁Part	-11.1953
▁bad▁news	-11.1955
▁orange▁juice	-11.1956
▁know▁anyone▁who	-11.1958
▁sailor	-11.1959
lways	-11.196
▁captured	-11.1961
▁zip	-11.1963
▁mow	-11.1971
▁very▁expensive	-11.1971
▁what▁Tom▁says	-11.1971
▁study▁English	-11.1972
▁two▁months	-11.1975
▁closest	-11.1976
▁pick▁me▁up	-11.1978
▁no▁matter▁what	-11.198
▁In▁Japan	-11.1984
▁suppose	-11.199
▁Dur	-11.1994
62	-11.2003
▁Did▁you▁see▁the	-11.2006
▁there▁is▁no	-11.2007
▁stay▁in▁bed	-11.2009
▁an▁electric	-11.2014
▁come▁to▁Boston	-11.2022
▁absorb	-11.2033
▁wants▁to▁learn	-11.204
change▁your▁mind	-11.2041
▁the▁countryside	-11.2042
▁clo	-11.2054
re▁welcome▁to	-11.2077
s▁going▁to▁rain	-11.2092
▁Internet	-11.2093
ve▁always▁wanted	-11.2103
▁said▁you▁were	-11.211
▁it▁was▁raining	-11.2111
Better	-11.2119
▁eyesight	-11.2132
▁how▁to▁do▁it	-11.2141
▁pretended▁not	-11.2142
▁import	-11.216
stitution	-11.2161
▁philosopher	-11.2161
▁Tanaka	-11.2161
▁horror	-11.2161
▁diagnos	-11.2161
▁misunderstood	-11.2161
▁once▁in▁a▁while	-11.2161
▁Throw	-11.2161
▁café	-11.2161
▁fountain	-11.2161
▁pigeon	-11.2161
▁target	-11.2161
▁supply	-11.2161
▁Washington	-11.2161
▁point▁of▁view	-11.2161
▁Miller	-11.2161
▁eagle	-11.2161
▁screen	-11.2161
▁downtown	-11.2161
▁dumped	-11.2161
▁estate	-11.2161
▁cease	-11.2161
▁Despi	-11.2161
▁Walk	-11.2162
▁pirate	-11.2162
▁leaf	-11.2162
▁blood▁pressure	-11.2163
▁tidy	-11.2163
▁shaking	-11.2164
▁impressive	-11.2165
▁If▁it▁rains	-11.2166
▁invention	-11.2167
▁thirty▁dollars	-11.2167
▁chairman	-11.2174
▁in▁this▁area	-11.2175
▁a▁little▁longer	-11.2178
▁Watch▁out	-11.2181
wrap	-11.2182
▁Fish	-11.2183
▁determined	-11.2185
▁hopeless	-11.2186
▁hunger	-11.219
▁in▁this▁town	-11.2191
▁universe	-11.2197
▁keyboard	-11.2198
▁accompan	-11.2201
▁nine▁o	-11.2203
▁very▁sad	-11.2209
▁old▁lady	-11.2213
▁chop	-11.2216
▁protection	-11.2216
▁fee	-11.2224
pot	-11.2234
▁an▁example	-11.2235
▁sandwiches	-11.2235
▁out▁of▁the▁room	-11.2237
▁vari	-11.2241
▁car▁keys	-11.2243
▁very▁pleased	-11.225
▁the▁man▁who	-11.2275
97	-11.2279
▁usual	-11.2288
▁like▁Boston	-11.2294
▁been▁to▁Boston	-11.2297
▁twi	-11.2299
72	-11.2299
32	-11.2314
▁think▁Tom▁would	-11.2317
▁a▁slight	-11.2317
▁looked▁around	-11.232
▁hunt	-11.2321
▁invent	-11.2334
▁spit	-11.234
▁announce	-11.2354
▁play▁golf	-11.2364
▁vegetable	-11.2372
▁widow	-11.2383
▁Finnish	-11.2383
▁surrounding	-11.2383
▁vocabulary	-11.2383
▁Enjoy	-11.2383
▁coronavirus	-11.2383
▁Finally	-11.2383
▁bankrupt	-11.2383
▁turkey	-11.2383
▁Harvard	-11.2383
▁Santa▁Claus	-11.2383
▁associate	-11.2383
▁awkward	-11.2383
▁champion	-11.2383
▁device	-11.2383
▁handkerchief	-11.2383
▁ingredients	-11.2383
▁slapped	-11.2383
▁stabbed	-11.2383
▁temporary	-11.2383
▁penalty	-11.2383
▁bottle▁of▁wine	-11.2383
▁spicy	-11.2383
▁My▁aunt	-11.2383
▁expos	-11.2384
▁freak	-11.2384
▁necklace	-11.2384
▁I▁wish▁I▁were	-11.2384
▁solid	-11.2384
▁It▁snowed	-11.2385
▁Poland	-11.2386
▁Lisa	-11.2386
▁gall	-11.2387
▁get▁out▁of▁here	-11.2387
▁on▁weekends	-11.2388
54	-11.2388
▁dinosaur	-11.2389
▁suck	-11.2394
▁discovery	-11.2399
▁call▁the▁police	-11.24
▁real▁name	-11.24
▁Last	-11.2404
▁cock	-11.2404
▁There▁were▁no	-11.2405
▁wondered▁why	-11.2412
▁connected	-11.2412
▁at▁the▁library	-11.2424
▁continu	-11.243
▁Helen	-11.2438
▁humanity	-11.2446
s▁the▁n	-11.2447
▁most▁popular	-11.2452
▁as▁large▁a	-11.2454
dged	-11.2465
itting	-11.2489
▁emotional	-11.2503
▁None▁of▁the	-11.2508
▁destroy	-11.2527
gainst▁the▁wall	-11.2541
▁at▁the▁top	-11.2558
▁six▁o	-11.2564
duct	-11.2565
▁far▁from▁here	-11.2569
▁He▁told▁me▁he	-11.2583
▁govern	-11.261
▁democracy	-11.261
▁thou	-11.261
▁fundamental	-11.2611
▁Ukraine	-11.2611
▁satellite	-11.2611
▁Luckily	-11.2611
▁guarantee	-11.2611
▁significant	-11.2611
▁military	-11.2611
▁precious	-11.2611
▁Lincoln	-11.2611
▁Valentine	-11.2611
▁approval	-11.2611
▁bookshop	-11.2611
▁shift	-11.2611
▁What▁the▁hell	-11.2611
▁asteroid	-11.2611
▁composed	-11.2611
▁on▁a▁diet	-11.2611
▁Lord	-11.2611
▁ripe	-11.2611
▁chopped	-11.2611
▁select	-11.2612
▁thumb	-11.2612
▁my▁aunt	-11.2612
▁frank	-11.2613
▁saying▁goodbye	-11.2613
▁somebody▁else	-11.2613
▁gave▁birth	-11.2616
▁Sato	-11.2618
▁under▁the▁bed	-11.2618
▁authority	-11.2621
▁very▁strange	-11.2622
▁production	-11.2623
▁interfere	-11.2623
▁ten▁years▁ago	-11.2628
19	-11.2629
▁I▁just▁can	-11.2632
▁makeup	-11.2635
▁His▁wife	-11.2639
▁having▁fun	-11.2639
▁young▁woman	-11.2639
▁ninety	-11.2645
69	-11.2646
▁This▁house▁is	-11.2649
assi	-11.2658
▁linguistic	-11.2667
d▁like▁to▁ask	-11.2686
▁what▁he▁says	-11.2687
telephone▁number	-11.2696
▁airport	-11.2697
▁My▁neighbor	-11.2698
ever▁you▁want	-11.2706
▁genius	-11.2712
izz	-11.2714
▁I▁could▁no	-11.2718
▁70	-11.2732
▁such▁things	-11.2736
▁speak▁Spanish	-11.2737
▁Does▁Tom▁have▁a	-11.2743
mount	-11.2768
▁buses	-11.2777
▁23	-11.2782
▁Anything	-11.28
▁log	-11.2812
t▁live▁without	-11.2816
word	-11.2817
thirty	-11.2818
▁go▁to▁the▁movie	-11.2828
▁regular	-11.2828
print	-11.283
▁jewel	-11.2841
▁acquainted	-11.2843
°	-11.2843
sufficient	-11.2843
▁principle	-11.2843
▁reaction	-11.2843
▁World▁Cup	-11.2843
▁Space	-11.2843
▁irritate	-11.2843
▁prettier	-11.2843
▁fascinating	-11.2843
▁grandchildren	-11.2843
▁traitor	-11.2843
▁Correct	-11.2843
▁batteries	-11.2843
▁chimney	-11.2843
▁pajamas	-11.2843
▁specific	-11.2843
▁hit▁by▁a▁car	-11.2843
▁install	-11.2843
▁Nowadays	-11.2843
▁grammatical	-11.2843
▁symptom	-11.2843
▁Nature	-11.2843
pproximate	-11.2843
▁overnight	-11.2843
▁Snow	-11.2843
▁decade	-11.2843
▁gaze	-11.2844
▁memoriz	-11.2844
▁Jewish	-11.2844
▁his▁keys	-11.2845
▁moral	-11.2845
▁Death	-11.2845
▁passionate	-11.2846
▁salesman	-11.2846
▁frame	-11.2847
▁10,000	-11.285
▁have▁no▁choice	-11.2854
▁younger▁sister	-11.286
▁Boys	-11.2867
▁did▁it▁take	-11.2882
▁hung▁up	-11.2883
▁strip	-11.2883
▁entrance	-11.2891
▁Everybody▁knows	-11.2897
▁How▁did▁the	-11.2901
▁back▁to▁work	-11.2903
hings	-11.291
▁abuse	-11.2913
▁serious▁problem	-11.292
▁May▁I▁ask▁you	-11.2925
▁speak▁Chinese	-11.2933
▁logical	-11.2966
▁Do▁you▁like▁the	-11.2973
▁their▁parents	-11.2976
89	-11.2988
▁plan▁to▁stay	-11.2995
s▁the▁best▁way	-11.3016
▁go▁abroad	-11.3023
▁despi	-11.3039
▁organize	-11.3053
▁to▁the▁theater	-11.3062
▁couch	-11.3077
▁basi	-11.3079
▁fallen▁in▁love	-11.3079
▁Euro	-11.308
▁scissors	-11.308
▁civil	-11.3081
▁Actually	-11.3081
▁dedicated	-11.3081
▁immigrant	-11.3081
▁somehow	-11.3081
▁gorgeous	-11.3081
▁yawn	-11.3081
▁inherit	-11.3081
▁mankind	-11.3081
▁motivated	-11.3081
▁pavement	-11.3081
▁belief	-11.3081
▁bloke	-11.3081
▁landscape	-11.3081
▁manufacture	-11.3081
▁principal	-11.3081
▁punctual	-11.3081
▁How▁far▁is▁it	-11.3081
▁composer	-11.3081
▁helicopter	-11.3081
▁mammal	-11.3081
at▁half▁past▁two	-11.3081
▁diplomat	-11.3081
▁arrival	-11.3081
▁assure▁you	-11.3081
▁fulfill	-11.3081
▁prior	-11.3081
▁distant	-11.3082
▁Susan	-11.3082
berries	-11.3082
▁poll	-11.3082
▁limp	-11.3082
▁Health	-11.3082
▁junk	-11.3083
▁bride	-11.3084
▁Tom▁kissed▁Mary	-11.3084
▁urge	-11.3084
▁copies	-11.3085
▁Mr▁Brown	-11.3086
▁Other	-11.3086
▁Under	-11.3087
▁an▁hour▁ago	-11.3088
fish	-11.3088
▁remarkable	-11.3089
▁Wow	-11.309
▁got▁up▁early	-11.3091
▁go▁to▁college	-11.3097
▁forgetting	-11.3097
▁hardly▁any	-11.3098
▁enable	-11.31
▁jar	-11.3103
▁faithful	-11.3106
▁Thank	-11.3116
▁spend▁the▁night	-11.3118
▁as▁beautiful▁a	-11.3127
▁have▁you▁done	-11.3129
▁cattle	-11.3131
▁Such▁a	-11.3148
gress	-11.3154
▁rid▁of	-11.3154
▁seeds	-11.316
▁the▁edge	-11.3161
▁delight	-11.3179
▁bang	-11.3189
▁beaten	-11.3198
▁came▁on▁Monday	-11.3208
▁catch▁up▁with	-11.3212
shaped	-11.3245
▁Nu	-11.3255
▁Could▁you▁do	-11.3267
▁edge	-11.3287
▁Give▁me▁th	-11.3288
K	-11.3298
t▁be▁afraid	-11.3308
▁organic	-11.3308
▁car▁park	-11.3314
▁nothing▁else	-11.3318
▁leads▁to	-11.332
▁want▁to▁stay	-11.3321
▁detect	-11.3324
uriosity	-11.3325
▁entitled	-11.3325
▁apparently	-11.3325
▁Grandad	-11.3325
▁blossom	-11.3325
▁nephew	-11.3325
▁genuine	-11.3325
▁mutual	-11.3325
▁overslept	-11.3325
▁Yuri	-11.3325
▁compartment	-11.3325
▁fascinate	-11.3325
▁feature	-11.3325
▁miserable	-11.3325
▁thorough	-11.3325
▁tunnel	-11.3325
▁channel	-11.3325
▁envy	-11.3325
▁elbow	-11.3325
ification	-11.3325
▁sushi	-11.3325
▁shovel	-11.3325
▁shiver	-11.3325
▁appeal	-11.3325
▁tasty	-11.3325
▁convert	-11.3326
▁counting▁on	-11.3326
▁flash	-11.3327
▁Count	-11.3327
▁creep	-11.3327
▁beef	-11.3327
▁Perhaps▁you	-11.3329
▁give▁up▁smoking	-11.3329
▁the▁smallest	-11.3329
▁ye	-11.3329
▁carriage	-11.333
▁brew	-11.333
▁penny	-11.3331
▁a▁long▁time▁ago	-11.3332
▁How▁do▁you▁say	-11.3333
▁the▁fastest	-11.3333
▁grain	-11.3334
▁make▁a▁decision	-11.3343
▁Not▁everyone	-11.3345
▁director	-11.3351
▁We▁still▁have	-11.3353
▁little▁sister	-11.3355
▁what▁that▁means	-11.3356
▁painful	-11.3357
▁gave▁it▁to	-11.3358
▁curse	-11.3363
maker	-11.3364
▁went▁for▁a▁walk	-11.3388
▁shortage	-11.3388
▁the▁crime	-11.3413
▁lost▁his▁job	-11.3416
▁write▁a▁letter	-11.3425
t▁want▁him▁to	-11.3428
▁want▁to▁say	-11.3436
▁critical	-11.3451
▁very▁dangerous	-11.3454
▁lifetime	-11.3456
▁I▁wish▁that▁I	-11.3464
burg	-11.3474
▁Tom▁will▁like	-11.348
▁Is▁that▁what	-11.3494
m▁still▁no	-11.3501
▁thousand▁dollar	-11.3508
ttering	-11.355
▁investigat	-11.3568
t▁show▁up	-11.3572
writing▁a▁letter	-11.3574
▁Answer	-11.3574
▁Einstein	-11.3575
▁Marilla	-11.3575
Once▁upon▁a▁time	-11.3575
▁feather	-11.3575
▁negative	-11.3575
▁servant	-11.3575
▁Cookie	-11.3575
▁expand	-11.3575
▁marathon	-11.3575
▁surrender	-11.3575
▁cherry▁tree	-11.3575
▁moustache	-11.3575
▁prejudice	-11.3575
▁skeptical	-11.3575
▁spinach	-11.3575
ography	-11.3575
▁innocence	-11.3575
▁Promise▁me▁you	-11.3575
▁orphan	-11.3575
▁polish	-11.3575
▁unbearable	-11.3575
▁Teach	-11.3575
▁Israel	-11.3575
▁blog	-11.3575
▁humid	-11.3575
▁rainbow	-11.3575
▁pair▁of▁shoes	-11.3575
▁extend	-11.3575
▁amusing	-11.3575
▁loving	-11.3575
▁trace	-11.3575
▁seventeen	-11.3575
▁caught▁a▁cold	-11.3575
▁forgave	-11.3575
▁alibi	-11.3576
▁edition	-11.3576
▁Plan	-11.3576
▁alarm▁clock	-11.3576
▁Look▁at▁that	-11.3576
▁drama	-11.3577
▁Maybe▁we▁should	-11.3578
▁telephone▁rang	-11.3581
▁Ring▁me	-11.3582
▁an▁interpreter	-11.3582
▁Sit▁down	-11.3582
▁bedtime	-11.3582
▁Centr	-11.3583
▁the▁longest	-11.3583
▁Six	-11.3583
▁massage	-11.3585
▁affection	-11.3585
▁pause	-11.3592
57	-11.3593
atomic	-11.3594
▁This▁problem▁is	-11.3601
ommitted▁suicide	-11.3604
▁adore	-11.3605
▁with▁his▁friend	-11.3614
▁despise	-11.3621
▁apolog	-11.3625
▁Do▁you▁think▁he	-11.3626
t▁help▁bu	-11.363
▁seven▁o	-11.3634
▁I▁put▁my	-11.3634
▁to▁the▁dentist	-11.3636
▁feel▁like▁going	-11.3636
▁Since▁the	-11.3637
▁stew	-11.3647
round▁the▁corner	-11.3668
grad	-11.3669
▁Take▁care	-11.3671
▁the▁highest	-11.3677
▁application	-11.368
▁receiv	-11.3687
▁improv	-11.37
▁college▁student	-11.3729
▁logic	-11.3736
▁what▁he▁wanted	-11.3751
▁slamm	-11.3762
minded	-11.3775
▁galaxy	-11.3788
▁willing▁to▁help	-11.379
▁tomato	-11.3802
▁able▁to▁swim	-11.3815
▁When▁will▁the	-11.3824
ization	-11.3829
▁per▁cent	-11.3831
▁ripp	-11.3831
▁Pacific	-11.3832
▁potential	-11.3832
▁calculate	-11.3832
▁maintain	-11.3832
▁starving	-11.3832
▁deposit	-11.3832
▁clarinet	-11.3832
▁hairdresser	-11.3832
▁harbour	-11.3832
▁outdoors	-11.3832
▁revolution	-11.3832
▁YouTube	-11.3832
▁discouraged	-11.3832
▁honeymoon	-11.3832
▁Trust	-11.3832
▁obtain	-11.3832
▁penguin	-11.3832
▁conquer	-11.3832
▁dwarf	-11.3832
▁drift	-11.3832
▁bathtub	-11.3832
▁rubbed	-11.3832
▁trash	-11.3832
▁spite▁of▁the	-11.3832
▁at▁half▁two	-11.3832
▁scrap	-11.3832
▁Islam	-11.3832
▁flashlight	-11.3832
▁neighbourhood	-11.3832
▁smartphone	-11.3833
▁keen	-11.3833
▁wake▁me▁up	-11.3833
▁sweep	-11.3833
▁racket	-11.3833
▁jewelry	-11.3834
▁the▁third▁floor	-11.3834
▁gender	-11.3835
▁Hard	-11.3836
▁grace	-11.3836
▁comic	-11.3836
▁1,000	-11.3837
▁Right	-11.3838
▁harmful	-11.3838
▁Believ	-11.3838
▁cellar	-11.3839
▁His▁house▁is	-11.3839
▁take▁a▁break	-11.384
▁to▁lose▁weight	-11.384
▁Carol	-11.3841
▁refugees	-11.3841
▁jet	-11.3842
▁everyone▁else	-11.3851
5%	-11.3853
▁Wash	-11.3857
▁chef	-11.3861
67	-11.3866
▁as▁long▁as▁you	-11.3875
t▁need▁to▁worry	-11.388
umbled	-11.3888
▁license	-11.3891
▁how▁to▁do▁this	-11.3891
hat▁would▁you▁do	-11.3891
peaking	-11.3907
Don	-11.3908
▁Where▁is▁the▁n	-11.3935
▁He▁took▁a	-11.3935
▁take▁a▁bath	-11.3939
55	-11.3955
▁more▁than▁three	-11.3967
▁take▁a▁look	-11.3985
▁typ	-11.3994
▁while▁he▁wa	-11.4003
▁Let▁me▁see	-11.4006
▁Comp	-11.4022
75	-11.4027
▁whisper	-11.4046
▁confuse	-11.4065
▁have▁a▁problem	-11.4068
Nothing	-11.4069
front	-11.407
▁thirst	-11.4081
83	-11.4084
▁relation	-11.4094
▁constellation	-11.4095
▁chemical	-11.4095
▁engagement	-11.4095
▁festival	-11.4095
▁maiden	-11.4095
▁aeroplane	-11.4095
▁chalk	-11.4095
▁compromise	-11.4095
▁nickname	-11.4095
▁pessimis	-11.4095
▁revenge	-11.4095
▁sneeze	-11.4095
▁transform	-11.4095
▁All▁of▁a▁sudden	-11.4095
▁Taninna	-11.4095
▁accurate	-11.4095
▁chopsticks	-11.4095
▁conflict	-11.4095
▁embassy	-11.4095
▁receipt	-11.4095
▁appetite	-11.4095
▁champagne	-11.4095
▁Scientists	-11.4095
▁obsess	-11.4095
▁profile	-11.4095
▁vitamin	-11.4095
▁wash▁the▁dishes	-11.4095
▁harsh	-11.4095
▁depth	-11.4095
▁by▁any▁chance	-11.4095
▁swore	-11.4095
▁cultural	-11.4095
▁exceed	-11.4095
▁in▁the▁attic	-11.4095
▁northern	-11.4095
▁scolded	-11.4095
▁gently	-11.4095
▁hook	-11.4095
▁puppy	-11.4095
▁fried	-11.4095
▁rented▁a	-11.4096
▁dealing▁with	-11.4096
▁Because▁of▁the	-11.4096
▁passed▁the▁exam	-11.4096
▁the▁night▁sky	-11.4098
▁plays▁tennis	-11.4098
▁email▁address	-11.4098
▁export	-11.4098
▁glass▁of▁wine	-11.4098
▁peak	-11.41
▁six▁months	-11.4102
▁bakery	-11.4102
▁investigation	-11.4102
▁poetry	-11.4102
▁passage	-11.4104
▁bribe	-11.4105
▁runner	-11.4105
▁heels	-11.4105
▁objective	-11.4105
▁take▁a▁walk	-11.4106
▁agent	-11.4107
▁ten▁dollars	-11.4108
▁a▁used▁car	-11.4111
85	-11.4113
▁fall▁in▁love	-11.4142
▁traditional	-11.4153
▁twist	-11.4157
▁mal	-11.4194
▁110787	-11.4209
▁frighten	-11.4238
33	-11.4257
▁adopt	-11.4261
▁visit▁Boston	-11.4261
▁first▁prize	-11.4264
▁tradition	-11.4305
▁connect	-11.4323
f▁your▁business	-11.4327
▁froze	-11.4329
▁faint	-11.4335
29	-11.4343
▁$1	-11.4345
▁works▁at▁a	-11.4347
ll▁phone▁you	-11.4354
ummy	-11.4355
▁railway	-11.4364
▁fifth	-11.4365
▁whether▁it	-11.4365
▁context	-11.4365
▁garlic	-11.4365
▁Pluto	-11.4365
▁Beijing	-11.4365
▁liberty	-11.4365
▁World▁War▁II	-11.4365
▁beneath	-11.4365
▁grandma	-11.4365
▁structure	-11.4365
▁Matthew	-11.4365
▁pronunciation	-11.4365
▁Venice	-11.4365
▁disguise	-11.4365
▁instinct	-11.4365
▁mortal	-11.4365
▁wicked	-11.4365
▁Girls	-11.4365
▁Vienna	-11.4365
▁Vietnam	-11.4365
▁microphone	-11.4365
▁revolv	-11.4365
▁shoelaces	-11.4365
▁volleyball	-11.4365
▁deliberately	-11.4365
▁magnet	-11.4365
▁David	-11.4365
▁acknowledge	-11.4365
▁Science	-11.4365
▁vanished	-11.4365
▁acquire	-11.4365
▁pulse	-11.4365
▁unlocked	-11.4365
▁wreck	-11.4365
burst▁into▁tears	-11.4365
▁palace	-11.4366
▁cope▁with	-11.4366
▁digging	-11.4366
▁mailbox	-11.4366
▁the▁Moon	-11.4367
▁hiking	-11.4367
ll▁pick▁you▁up	-11.4367
defense	-11.4368
▁feed▁the▁dog	-11.437
▁aspirin	-11.4371
▁take▁a▁shower	-11.4371
▁more▁than▁one	-11.4371
▁lock▁the▁door	-11.4371
▁impos	-11.4372
▁barber	-11.4372
▁once▁a▁month	-11.4372
▁none▁o	-11.4378
▁Find	-11.4383
▁I▁do▁not▁know	-11.4413
hing▁but	-11.4447
76	-11.4449
▁planning▁to▁do	-11.4474
lve▁this▁problem	-11.4513
▁it▁will▁rain	-11.4517
▁than▁I▁expected	-11.453
▁inform	-11.4552
▁She▁advised▁h	-11.4575
▁Tom▁still▁has	-11.4576
▁litera	-11.4598
▁divide	-11.4613
long	-11.4619
▁My▁mo	-11.4627
hearted	-11.463
▁construct	-11.464
▁Neptune	-11.4643
▁physi	-11.4643
▁practicing	-11.4643
▁Portugal	-11.4643
▁goddess	-11.4643
▁bodies	-11.4643
▁corrupt	-11.4643
▁Czech	-11.4643
▁UFO	-11.4643
▁awesome	-11.4643
▁barefoot	-11.4643
▁briefcase	-11.4643
▁continent	-11.4643
▁cups▁of▁coffee	-11.4643
▁fortunate	-11.4643
▁give▁it▁a▁try	-11.4643
▁jazz	-11.4643
▁Yoko	-11.4643
▁brolly	-11.4643
▁cycling	-11.4643
▁lettuce	-11.4643
▁popcorn	-11.4643
▁refresh	-11.4643
▁yoga	-11.4643
▁electron	-11.4643
▁infection	-11.4643
▁on▁my▁way▁home	-11.4643
▁relief	-11.4643
▁steak	-11.4643
▁Honest	-11.4643
ass▁me▁the▁salt	-11.4643
▁extent	-11.4643
▁switched▁off	-11.4643
aughter	-11.4643
▁damn	-11.4644
▁a▁traffic▁jam	-11.4644
▁bolt	-11.4644
▁equat	-11.4645
▁dread	-11.4645
▁skinny	-11.4646
▁indeed	-11.4646
▁trifl	-11.4647
▁disappointment	-11.4648
▁weakness	-11.4651
▁analy	-11.4651
▁She▁told▁me▁she	-11.4651
▁the▁menu	-11.4652
▁sea▁level	-11.4653
▁alter	-11.4654
▁how▁it▁works	-11.4654
▁anybody▁else	-11.4656
▁oak	-11.4658
▁Quit	-11.4667
shore	-11.4688
▁go▁and▁see	-11.4691
▁Could▁you▁help	-11.4695
▁responsible	-11.4696
▁err	-11.473
Phone	-11.4789
re▁we▁going	-11.4821
nything▁else	-11.4823
▁you▁said▁you	-11.4836
▁I▁first▁met	-11.4856
s▁your▁turn▁to	-11.4866
▁buy▁a▁new▁car	-11.4875
▁Milky▁Way	-11.488
▁be▁back▁soon	-11.489
free	-11.4904
▁Ocean	-11.4927
▁disorder	-11.4928
▁happiest	-11.4928
▁pawn	-11.4928
▁privacy	-11.4928
▁William	-11.4928
▁junction	-11.4928
▁tragic	-11.4928
▁Mayuko	-11.4928
▁aggressive	-11.4928
▁attentive	-11.4928
▁nowadays	-11.4928
▁air▁conditioner	-11.4928
▁educated	-11.4928
▁Kabyle	-11.4929
▁extinguish	-11.4929
▁yield	-11.4929
▁athlete	-11.4929
▁cockroach	-11.4929
▁unpack	-11.4929
▁Politic	-11.4929
▁extinct	-11.4929
▁vivid	-11.4929
▁awoke	-11.4929
▁proceed	-11.4929
▁organization	-11.4929
▁network	-11.4929
64	-11.4929
▁couple▁of▁days	-11.493
▁exhibition	-11.4931
▁cupboard	-11.4931
▁carried▁out	-11.4931
▁trustworthy	-11.4931
▁angle	-11.4932
▁Food	-11.4932
▁poisonous	-11.4933
▁Dima	-11.4934
▁need▁my▁help	-11.4934
▁twenty▁minutes	-11.4934
▁a▁few▁weeks	-11.4935
▁winked	-11.4935
▁mad▁at▁me	-11.4936
▁gap	-11.4936
▁full▁moon	-11.4936
▁goes▁to▁bed	-11.494
▁three▁days▁ago	-11.4941
▁Dick	-11.4942
▁toilet▁paper	-11.4945
What▁should▁I▁do	-11.495
gency	-11.499
▁$10	-11.5009
se▁books▁are	-11.5015
▁patt	-11.5028
Really	-11.5073
nybody	-11.5118
▁squa	-11.5187
▁hike	-11.5191
▁Could▁you▁p	-11.52
▁destin	-11.522
ß	-11.5222
▁Netherlands	-11.5223
▁pandemic	-11.5223
▁tournament	-11.5223
▁Norwegian	-11.5223
▁encounter	-11.5223
▁midday	-11.5223
▁parallel	-11.5223
▁anticipate	-11.5223
▁bishop	-11.5223
▁cheque	-11.5223
▁footsteps	-11.5223
▁scandal	-11.5223
▁unmarried	-11.5223
▁Apparently	-11.5223
▁activity	-11.5223
▁conservative	-11.5223
▁Harry	-11.5223
▁extraordinary	-11.5223
▁psychology	-11.5223
▁signature	-11.5223
▁New▁Zealand	-11.5223
▁regain	-11.5223
▁senior	-11.5223
▁Apple	-11.5223
▁quantity	-11.5223
▁random	-11.5223
▁donkey	-11.5223
▁Phone▁me	-11.5223
▁expire	-11.5223
▁hometown	-11.5223
▁change▁his▁mind	-11.5223
▁a▁decent	-11.5223
▁paint▁the▁fence	-11.5224
▁taller▁than▁me	-11.5224
▁remained▁silent	-11.5224
▁tolerate	-11.5224
▁biology	-11.5224
▁fiction	-11.5224
▁clown	-11.5224
▁Last▁year	-11.5225
▁coloni	-11.5225
▁traffic▁lights	-11.5225
▁resolve	-11.5226
▁click	-11.5227
▁Open▁the▁door	-11.5228
▁brick	-11.5228
▁twin▁brother	-11.5228
▁visa	-11.5228
▁Our▁tea	-11.5237
▁The▁question▁is	-11.5255
▁climate▁change	-11.5264
▁as▁big▁a	-11.5291
lammed▁the▁door	-11.5303
▁where▁Mary▁live	-11.5328
missed▁the▁train	-11.5328
▁want▁to▁study	-11.534
▁Free	-11.534
▁quite▁good	-11.539
▁of▁becoming▁a	-11.5432
ve▁never▁been▁t	-11.5452
clude	-11.5477
impressed	-11.55
▁frequent	-11.5511
utumn	-11.5521
▁credit	-11.5522
wimming	-11.5525
▁dictator	-11.5525
▁despair	-11.5525
▁correspond	-11.5526
▁hydrogen	-11.5526
▁grandson	-11.5526
▁hamburger	-11.5526
▁neglect	-11.5526
▁on▁the▁verge	-11.5526
▁Coffee	-11.5526
▁obliged	-11.5526
▁greedy	-11.5526
▁stiff	-11.5526
▁applauded	-11.5526
▁companies	-11.5526
▁hairstyle	-11.5526
▁phenomenon	-11.5526
▁surgeon	-11.5526
▁Ukrainian	-11.5526
▁contagious	-11.5526
▁firefighter	-11.5526
▁giraffe	-11.5526
▁sense▁of▁humour	-11.5526
▁wind▁is▁blowing	-11.5526
▁substitute	-11.5526
▁Michael	-11.5526
▁suspended	-11.5526
▁voyage	-11.5526
▁Klingon	-11.5526
▁liking	-11.5526
▁situated	-11.5526
▁Clean	-11.5526
▁an▁alcoholic	-11.5526
▁composition	-11.5526
▁Prime▁Minister	-11.5526
▁cotton	-11.5526
▁Our▁school	-11.5526
▁nasty	-11.5526
▁fire▁broke▁out	-11.5526
▁As▁soon▁as▁I	-11.5526
▁Seven	-11.5526
▁in▁the▁habit▁of	-11.5526
▁multiple	-11.5527
▁vision	-11.5527
▁Things▁are	-11.5527
▁saint	-11.5527
▁Wood	-11.5527
▁knitting	-11.5528
▁clean▁your▁room	-11.553
▁per▁hour	-11.553
▁Your▁French▁is	-11.5536
▁Whenever▁I	-11.5537
▁never▁heard▁of	-11.5537
▁lost▁sight▁of	-11.5538
▁media	-11.5547
t▁have▁much▁time	-11.5548
▁in▁a▁small▁town	-11.5572
augh	-11.5633
▁think▁I▁should	-11.5658
playing▁football	-11.5677
▁no▁such▁thing	-11.5725
ve▁never▁met	-11.5745
▁punish	-11.5767
▁know▁who▁I▁am	-11.5773
▁update	-11.5779
▁betray	-11.5808
▁delete	-11.5809
▁same▁mistake	-11.5812
grandfather	-11.5812
girl	-11.5813
bird	-11.5813
▁absolute	-11.5823
▁enormous	-11.5838
▁wolves	-11.5838
▁inhabitants	-11.5838
▁pedestrian	-11.5838
▁sunscreen	-11.5838
▁Middle▁Ages	-11.5838
▁Leonid	-11.5838
▁dialect	-11.5838
▁filthy	-11.5838
▁frustrated	-11.5838
▁mathematician	-11.5838
▁permanent	-11.5838
▁promotion	-11.5838
▁riddle	-11.5838
ibility	-11.5838
▁Study	-11.5838
▁automobile	-11.5838
▁exaggerating	-11.5838
▁incompetent	-11.5838
▁ketchup	-11.5838
▁knives	-11.5838
▁nicht	-11.5838
▁terrified	-11.5838
▁wizard	-11.5838
▁Madrid	-11.5838
▁daydream	-11.5838
▁indoors	-11.5838
▁strawberry	-11.5838
▁sympathy	-11.5838
▁Change	-11.5838
▁Laurie	-11.5838
▁Mathematics	-11.5838
▁Sleep	-11.5838
▁draught	-11.5838
▁niece	-11.5838
▁whether▁she	-11.5838
▁amazed	-11.5838
▁elderly	-11.5838
▁erupt	-11.5838
▁Guess▁what	-11.5838
▁the▁deadline	-11.5838
▁reform	-11.5838
▁particle	-11.5838
▁neat	-11.5838
▁referr	-11.5838
▁daft	-11.5838
▁snack	-11.5839
▁backwards	-11.5839
▁harp	-11.5839
▁pole	-11.5839
▁resume	-11.5839
▁Friends	-11.5839
▁High	-11.584
▁flee	-11.584
▁Newton	-11.584
▁for▁being▁late	-11.584
▁feed▁my▁dog	-11.584
▁thread	-11.584
▁Egyptian	-11.5841
▁idle	-11.5842
▁Tom▁gets▁here	-11.5842
▁enter▁the▁room	-11.5842
▁get▁well▁soon	-11.5842
▁thousand▁yen	-11.5842
,500	-11.5843
▁up▁and▁down	-11.5845
▁the▁blackboard	-11.589
▁You▁still▁have	-11.5926
▁know▁much▁about	-11.5936
▁let▁Tom▁go	-11.5937
▁behav	-11.5972
▁seiz	-11.5992
I▁am	-11.5996
98	-11.6036
organized	-11.6097
ithout▁your▁help	-11.61
Y	-11.6105
Of▁course	-11.6135
▁Franc	-11.6142
conscious	-11.6157
▁bunch	-11.6159
xplain	-11.6159
▁blank	-11.6159
▁Thai	-11.616
▁initial	-11.616
▁occup	-11.616
▁literally	-11.6161
▁industrial	-11.6161
▁hurricane	-11.6161
▁illiterate	-11.6161
▁casual	-11.6161
▁degrees▁Celsius	-11.6161
▁Yiddish	-11.6161
▁emerge	-11.6161
▁Hanako	-11.6161
▁archaeolog	-11.6161
▁convincing	-11.6161
▁humming	-11.6161
▁butterflies	-11.6161
▁luxur	-11.6161
▁uncertain	-11.6161
▁Melanie	-11.6161
▁celebrating	-11.6161
▁injuries	-11.6161
▁pyjamas	-11.6161
▁satisfactory	-11.6161
▁sidewalk	-11.6161
▁unnecessary	-11.6161
▁Happiness	-11.6161
▁crocodile	-11.6161
▁elsewhere	-11.6161
▁shampoo	-11.6161
▁twentieth	-11.6161
▁charity	-11.6161
▁every▁other▁day	-11.6161
▁seatbelt	-11.6161
▁Modern	-11.6161
▁threatening	-11.6161
▁Sami▁and▁Layla	-11.6161
▁aloud	-11.6161
▁temptation	-11.6161
▁Know	-11.6161
▁southern	-11.6161
▁more▁or▁less	-11.6161
▁Careful	-11.6161
▁intense	-11.6161
▁in▁those▁days	-11.6161
▁James	-11.6161
▁ambition	-11.6161
▁lungs	-11.6161
▁carbon	-11.6162
▁flirting▁with	-11.6162
▁get▁some▁sleep	-11.6162
▁headphones	-11.6164
▁had▁the▁chance	-11.6164
▁lanes	-11.6164
▁Doing▁that	-11.6164
fraid▁of▁snakes	-11.6174
▁movie▁theater	-11.6184
▁wind▁blew	-11.6212
▁centr	-11.6236
▁two▁or▁three	-11.6258
▁knit	-11.627
▁By▁the▁wa	-11.6296
broke▁the▁window	-11.631
▁absorbed▁in	-11.6355
three▁months▁ago	-11.6441
▁would▁love▁to	-11.6455
▁profession	-11.6471
▁furnished	-11.6475
▁have▁to▁hurry	-11.6481
▁background	-11.6494
▁eternity	-11.6494
▁illusion	-11.6494
▁identical	-11.6494
▁activities	-11.6494
▁bargain	-11.6494
▁worthwhile	-11.6494
▁smashed	-11.6494
▁Uranus	-11.6494
▁budget	-11.6494
▁decrease	-11.6494
▁qualified	-11.6494
▁Nagoya	-11.6494
▁delicate	-11.6494
▁enthusiastic	-11.6494
▁microscope	-11.6494
▁skating	-11.6494
▁suspicion	-11.6494
▁advertise	-11.6494
▁devastated	-11.6494
▁disgrace	-11.6494
▁gravity	-11.6494
▁postcode	-11.6494
▁Wikipedia	-11.6494
▁Feel	-11.6494
▁dining▁room	-11.6494
▁reconsider	-11.6494
▁intellectual	-11.6494
▁rival	-11.6494
▁outstanding	-11.6494
▁occupied	-11.6494
▁an▁apology	-11.6494
▁taking▁a▁walk	-11.6494
▁earrings	-11.6494
▁ankle	-11.6494
ppointed	-11.6494
▁derive	-11.6494
▁the▁flute	-11.6494
▁the▁UK	-11.6494
▁Julia	-11.6495
▁plot	-11.6495
▁How▁dare▁you	-11.6495
▁skipped	-11.6496
▁Charles	-11.6496
▁wanna	-11.6496
▁seat▁belt	-11.6496
▁racis	-11.6497
▁a▁deep▁breath	-11.6497
▁from▁now▁on	-11.6497
▁find▁a▁way	-11.6501
▁Kids	-11.6508
d▁rather▁stay	-11.6515
▁recite	-11.6521
▁older▁than▁Mary	-11.6532
▁Our▁plan	-11.6537
ve▁run▁out	-11.657
▁Writ	-11.6609
▁has▁become▁a	-11.6633
▁the▁waiter	-11.6655
▁older▁than▁he	-11.6668
Do▁you▁think▁she	-11.6689
▁neu	-11.6693
plug	-11.6693
▁tea▁or▁coffee	-11.6704
▁cheat	-11.672
▁astronomer	-11.6775
▁collapse	-11.6785
▁accord	-11.6808
▁guilt	-11.6825
xperience	-11.6835
▁Turk	-11.6837
tudents	-11.6839
▁Galileo	-11.6839
▁vacuum	-11.6839
▁descend	-11.6839
▁vaccinated	-11.6839
▁an▁atheist	-11.6839
▁entertain	-11.6839
▁Dinner	-11.6839
▁Mercury	-11.6839
▁Yamada	-11.6839
▁striking	-11.6839
▁vacant	-11.6839
▁Picasso	-11.6839
▁secure	-11.6839
▁astonished	-11.6839
▁Soviet	-11.6839
▁motorbike	-11.6839
▁sketch	-11.6839
▁biased	-11.6839
▁fetch	-11.6839
▁gesture	-11.6839
▁surfing	-11.6839
▁Forgive	-11.6839
▁Orange	-11.6839
▁absurd	-11.6839
▁by▁no▁means	-11.6839
▁began▁to▁cry	-11.6839
▁overseas	-11.6839
▁knot	-11.6839
▁What▁can▁I▁do	-11.6839
▁canteen	-11.6839
▁waitress	-11.6839
▁upside▁down	-11.684
▁Ancien	-11.684
▁kidnapped	-11.684
▁putting▁on	-11.684
▁burden	-11.684
▁a▁heart▁attack	-11.684
▁bass	-11.684
▁catch▁a▁cold	-11.6841
▁Year	-11.6841
▁mercy	-11.6841
▁can▁only▁be	-11.6842
▁Irish	-11.6843
▁the▁shore	-11.6843
▁a▁snowman	-11.6843
▁a▁rich▁man	-11.6844
▁throughout▁the	-11.6852
▁Even▁though▁Tom	-11.6865
34	-11.6873
▁Can▁we▁talk	-11.6874
▁the▁mud	-11.6882
▁glanced▁a	-11.6887
thing▁in▁common	-11.6895
▁peanuts	-11.6936
▁took▁part▁in▁th	-11.6946
generate	-11.6949
▁embarrass	-11.6968
bove▁all	-11.6999
▁Make▁sure▁th	-11.7008
kept▁you▁waiting	-11.7099
▁quite▁a▁lot	-11.7119
▁virtu	-11.7137
▁determine	-11.7157
n▁other▁words	-11.7157
▁capture	-11.7166
▁what▁Mary▁said	-11.7193
▁Peace	-11.7195
nternational	-11.7195
▁oneself	-11.7196
▁dictionaries	-11.7196
▁democrat	-11.7196
▁worship	-11.7196
▁lyrics	-11.7196
▁fairy▁tale	-11.7196
▁Recently	-11.7196
▁trumpet	-11.7196
▁splendid	-11.7196
▁Istanbul	-11.7196
▁Strange	-11.7196
▁assemble	-11.7196
▁illustrat	-11.7196
▁thieves	-11.7196
▁unemployment	-11.7196
▁Hungary	-11.7196
▁expelled	-11.7196
▁Bulgaria	-11.7196
▁Come▁and▁see▁me	-11.7196
▁Sooner▁or▁later	-11.7196
▁Squirrels	-11.7196
▁liquor	-11.7196
▁unreliable	-11.7196
▁Pardon	-11.7196
▁cucumber	-11.7196
▁gullible	-11.7196
▁immun	-11.7196
▁vodka	-11.7196
▁identify	-11.7196
▁pistol	-11.7196
▁tissue	-11.7196
▁broke▁his▁leg	-11.7196
▁fourteen	-11.7196
▁loyal	-11.7196
▁vague	-11.7196
▁Cross	-11.7196
▁capacity	-11.7196
▁free▁of▁charge	-11.7196
▁tragedy	-11.7196
▁automatically	-11.7196
▁pineapple	-11.7196
▁Armenia	-11.7196
▁peasant	-11.7196
▁civilization	-11.7196
▁provoke	-11.7196
▁intervene	-11.7196
▁died▁of▁cancer	-11.7196
▁started▁to▁cry	-11.7196
▁troops	-11.7196
▁pass▁the▁test	-11.7197
▁Thailand	-11.7197
▁annual	-11.7197
▁persist	-11.7197
▁Markku	-11.7197
▁Even▁though▁he	-11.7197
▁car▁broke▁down	-11.7197
▁parking▁lot	-11.7197
▁Travel	-11.7199
▁a▁prisoner	-11.7202
▁The▁kids▁are	-11.7203
▁inclin	-11.7206
▁he▁comes▁back	-11.7213
▁euro	-11.723
▁lot▁of▁friends	-11.7284
ould	-11.7292
▁How▁do▁you▁spe	-11.73
▁whenever▁I	-11.7303
▁wait▁and▁see	-11.7362
▁biscuit	-11.7408
▁publish	-11.745
▁applied▁for	-11.7451
satisfied	-11.7541
▁immediate	-11.7552
▁cigar	-11.7566
▁invisible	-11.7566
▁calendar	-11.7566
▁possibilities	-11.7566
▁centuries	-11.7566
▁district	-11.7566
▁pumpkin	-11.7566
▁in▁the▁lobby	-11.7566
▁whatsoever	-11.7566
▁Lojban	-11.7566
▁all▁of▁a▁sudden	-11.7566
▁clapped	-11.7566
▁pancakes	-11.7566
▁purple	-11.7566
▁the▁USA	-11.7566
▁Munich	-11.7566
▁astronomy	-11.7566
▁concrete	-11.7566
▁toothpaste	-11.7566
▁Congratulations	-11.7566
▁Holmes	-11.7566
▁Social	-11.7566
▁toothbrush	-11.7566
▁vaccine	-11.7566
▁choosing	-11.7566
▁conceited	-11.7566
▁disadvantage	-11.7566
▁merchant	-11.7566
▁polluted	-11.7566
▁accusation	-11.7566
▁conceal	-11.7566
▁shattered	-11.7566
▁hobbies	-11.7566
▁melody	-11.7566
▁satisfy	-11.7566
▁Grandma	-11.7566
▁embrace	-11.7566
▁warrior	-11.7566
▁collar	-11.7567
▁part▁of▁town	-11.7567
▁isolated	-11.7567
▁Visit	-11.7567
▁a▁love▁letter	-11.7567
▁mature	-11.7567
▁auf	-11.7567
▁Wash▁your▁hands	-11.7567
▁social▁media	-11.7567
▁game▁of▁chess	-11.7567
▁Can▁I▁help▁you	-11.7567
▁kidnap	-11.7567
▁consent	-11.7567
▁Western	-11.7568
▁can▁run▁fast	-11.7569
▁hint	-11.7571
▁left▁the▁office	-11.7571
ny▁idea▁who	-11.7578
▁mind▁if▁I▁ask	-11.7591
changed▁his▁mind	-11.7595
getting▁up▁early	-11.7604
▁teenager	-11.7615
ether▁or▁not▁Tom	-11.7616
zzle	-11.7618
▁be▁right▁back	-11.7623
▁Those▁t	-11.7701
paying▁attention	-11.7717
▁while▁she▁wa	-11.7727
▁who▁wrote▁this	-11.7741
▁Emi	-11.7766
ve▁just▁found	-11.7785
lved▁the▁problem	-11.7789
▁measur	-11.7793
skirts	-11.7794
▁He▁could▁no	-11.7815
knitted	-11.7822
▁be▁here▁soon	-11.7852
▁involv	-11.7866
ve▁just▁been	-11.787
wants▁to▁see▁you	-11.7879
oreign▁language	-11.7902
position	-11.7906
▁decline	-11.7921
▁asked▁Tom▁if▁he	-11.7927
lthough	-11.7939
Q	-11.795
▁DNA	-11.7951
▁monk	-11.7951
▁protein	-11.7951
▁wardrobe	-11.7951
▁giggl	-11.7951
▁Google	-11.7951
▁pluck	-11.7951
▁believing	-11.7951
▁opportunities	-11.7951
▁semester	-11.7951
patriot	-11.7951
▁Iraq	-11.7951
▁depression	-11.7951
▁equivalent	-11.7951
▁Belgium	-11.7951
▁NASA	-11.7951
▁enthusiasm	-11.7951
▁trigger	-11.7951
▁Education	-11.7951
▁fantasy	-11.7951
▁gamble	-11.7951
▁negotiate	-11.7951
▁surname	-11.7951
▁Silence	-11.7951
▁autograph	-11.7951
▁the▁doorbell	-11.7951
▁typewriter	-11.7951
▁vampire	-11.7951
▁Okay	-11.7951
▁armchair	-11.7951
▁attached	-11.7951
▁contact▁lens	-11.7951
▁corridor	-11.7951
▁custody	-11.7951
▁diligent	-11.7951
▁elaborate	-11.7951
▁preparation	-11.7951
▁substance	-11.7951
▁buzz	-11.7951
▁excitement	-11.7951
▁minimum▁wage	-11.7951
▁naughty	-11.7951
▁pharmacy	-11.7951
▁attorney	-11.7951
▁Police	-11.7951
▁Soviet▁Union	-11.7951
▁lipstick	-11.7951
▁misfortune	-11.7951
▁infected	-11.7951
▁Santa	-11.7951
▁fingerprints	-11.7951
▁Dream	-11.7951
▁pony	-11.7951
▁the▁Alps	-11.7951
▁6.30	-11.7951
▁Horse	-11.7951
▁may▁well▁be	-11.7951
▁kingdom	-11.7952
▁searching▁for	-11.7954
▁plague	-11.7962
▁the▁hardest	-11.7971
etween▁the▁lines	-11.7981
▁be▁left▁alone	-11.7992
public▁transport	-11.804
▁a▁liter	-11.8071
▁stepped▁o	-11.8084
▁semi	-11.8191
ll▁snow▁tomorrow	-11.8241
t▁possibl	-11.8265
▁whenever▁you	-11.8287
▁postpone	-11.8321
proof	-11.8325
mouth	-11.8326
mura	-11.8328
▁chemist	-11.8349
▁flirt	-11.835
▁Through	-11.8351
▁ancestors	-11.8351
▁Native▁American	-11.8351
▁accelerat	-11.8351
▁Amazon	-11.8351
▁Therefore	-11.8351
▁attribute	-11.8351
▁intersection	-11.8351
▁distinct	-11.8351
▁Cairo	-11.8351
▁combination	-11.8351
▁the▁slightest	-11.8351
▁Olympic▁Games	-11.8351
▁elegant	-11.8351
▁sceptical	-11.8351
▁Guess▁who	-11.8351
▁adorable	-11.8351
▁companion	-11.8351
▁flexible	-11.8351
▁magnificent	-11.8351
▁Elizabeth	-11.8351
▁sunburn	-11.8351
▁abstract	-11.8351
▁blunt	-11.8351
▁practising	-11.8351
▁punctuation	-11.8351
▁sacred	-11.8351
▁triangle	-11.8351
he▁escalator	-11.8351
▁Finish	-11.8351
▁Napoleon	-11.8351
▁concluded	-11.8351
▁fertil	-11.8351
▁preserve	-11.8351
▁Since▁when	-11.8351
▁digital	-11.8351
▁Slovak	-11.8351
▁amused	-11.8351
anthrop	-11.8351
▁Columbus	-11.8351
▁mysteries	-11.8351
▁trail	-11.8351
▁Break	-11.8351
▁resident	-11.8351
▁resort	-11.8351
▁zone	-11.8351
▁overcast	-11.8351
▁steel	-11.8351
▁inviting	-11.8351
▁await	-11.8351
▁clinic	-11.8351
▁wasting▁time	-11.8352
▁Adam	-11.8352
▁keep▁a▁diary	-11.8352
▁quite▁different	-11.8352
▁Both▁of▁the	-11.8352
▁tendenc	-11.8352
▁banned	-11.8353
▁couple▁of▁hours	-11.8353
▁an▁honest▁man	-11.8354
▁lights▁went▁out	-11.8355
▁How▁much▁does▁a	-11.8363
maniac	-11.839
lp▁yourself▁to▁a	-11.8394
▁hardly▁see	-11.8425
▁to▁learn▁a▁f	-11.8455
come▁a▁teacher	-11.8483
▁Supp	-11.856
r▁aunt	-11.8565
▁abandon	-11.8596
ppies	-11.8607
when▁I▁was▁a▁kid	-11.8636
▁as▁tall▁as▁you	-11.8681
ut▁of▁his▁pocket	-11.8713
▁relieve	-11.8738
t▁looks▁like▁Tom	-11.8739
class	-11.8743
▁taller▁than▁hi	-11.8745
▁refuge	-11.8752
▁can▁I▁find▁a	-11.876
▁windscreen	-11.8765
▁licence	-11.8767
▁Parliament	-11.8767
▁gravitation	-11.8767
‘	-11.8768
▁Pinocchio	-11.8768
▁sustain	-11.8768
▁National	-11.8768
▁efficient	-11.8768
▁Harry▁Potter	-11.8768
▁chief	-11.8768
▁prophet	-11.8768
▁sample	-11.8768
▁Switch	-11.8768
▁episode	-11.8768
▁doughnut	-11.8768
▁gambling	-11.8768
▁shield	-11.8768
▁Belgian	-11.8768
▁Estonia	-11.8768
▁Jordan	-11.8768
▁Obviously	-11.8768
▁cottage	-11.8768
▁vending▁machine	-11.8768
▁wrap▁it▁up	-11.8768
▁Elephant	-11.8768
▁ambassador	-11.8768
▁chauffeur	-11.8768
▁humble	-11.8768
▁Empire	-11.8768
▁Kazakh	-11.8768
▁Physic	-11.8768
▁Uyghur	-11.8768
▁anxiety	-11.8768
▁hockey	-11.8768
▁perfume	-11.8768
▁promising	-11.8768
▁solving	-11.8768
▁Mennad	-11.8768
▁Slovenia	-11.8768
▁commercial	-11.8768
▁drought	-11.8768
▁analysis	-11.8768
▁Computer	-11.8768
▁Shanghai	-11.8768
▁cats▁and▁dogs	-11.8768
▁wrist	-11.8768
▁Outside	-11.8768
▁Fresh	-11.8768
▁outcome	-11.8768
▁History	-11.8768
▁Heaven	-11.8768
venue	-11.8768
▁Quiet	-11.8768
▁dragg	-11.8768
▁stroll	-11.8768
▁hardworking	-11.8769
▁quite▁right	-11.8769
▁Wild	-11.8769
▁dispute	-11.8769
▁overhear	-11.8769
▁hang▁out▁with	-11.877
▁no▁objection	-11.8771
▁minu	-11.8773
▁fireworks	-11.8775
d▁better▁not▁go	-11.8778
App	-11.8823
▁passenger	-11.8833
▁as▁tall▁as▁hi	-11.8835
▁Have▁you▁ever▁g	-11.886
insured	-11.8877
▁inquir	-11.8883
lready▁finished	-11.8921
▁Would▁it▁b	-11.8956
Father▁Christmas	-11.9005
▁wait▁until▁the	-11.903
had▁already▁left	-11.9032
pologize▁to▁Tom	-11.9054
fashioned	-11.9084
q	-11.9086
binary	-11.9119
▁How▁do▁I▁get▁t	-11.9129
▁erect	-11.9137
covered	-11.9172
▁pronoun	-11.9194
▁contrary	-11.9202
▁swift	-11.9202
▁abrupt	-11.9202
í	-11.9202
▁Mediterranean	-11.9202
▁Hamburg	-11.9202
▁snatch	-11.9202
▁pudding	-11.9202
▁River	-11.9202
▁Sherlock▁Holmes	-11.9202
▁asylum	-11.9202
▁fiancé	-11.9202
▁molecule	-11.9202
▁territory	-11.9202
▁contributing	-11.9202
▁skeleton	-11.9202
▁technical	-11.9202
▁Georgia	-11.9202
▁barbecue	-11.9202
▁oppress	-11.9202
▁sausage	-11.9202
▁Mexican	-11.9202
▁babysitter	-11.9202
▁broccoli	-11.9202
▁get▁a▁haircut	-11.9202
▁obstinate	-11.9202
▁psychic	-11.9202
▁renovated	-11.9202
▁snowflake	-11.9202
▁stunned	-11.9202
▁the▁top▁shelf	-11.9202
▁ticklish	-11.9202
▁unpleasant	-11.9202
▁yacht	-11.9202
▁Alcohol	-11.9202
▁Indonesia	-11.9202
▁Keiko	-11.9202
▁Skura	-11.9202
▁centimeters	-11.9202
▁hedgehog	-11.9202
▁imaginary	-11.9202
▁intimidate	-11.9202
▁uneasy	-11.9202
▁courteous	-11.9202
▁wheelchair	-11.9202
▁comparison	-11.9202
▁powder	-11.9202
▁universal	-11.9202
▁Square	-11.9202
▁immortal	-11.9202
▁Our▁company	-11.9202
▁Professor	-11.9202
▁jelly	-11.9202
▁Truth	-11.9203
▁Words	-11.9203
▁location	-11.9203
▁snail	-11.9203
▁nineteen	-11.9203
▁timid	-11.9203
▁Brian	-11.9203
▁whether▁we	-11.9203
▁jerk	-11.9203
▁by▁all▁means	-11.9203
▁Church	-11.9203
▁play▁the▁violin	-11.9204
r▁mouth▁full	-11.9204
▁do▁me▁a▁favor	-11.9205
▁Even▁though▁I	-11.9205
once▁and▁for▁all	-11.9208
Please▁feel▁free	-11.9214
▁as▁soon▁as▁the	-11.9214
ress▁this▁button	-11.9218
plays▁the▁guitar	-11.9222
rst▁out▁laughing	-11.9246
uthorities	-11.9275
▁Earl	-11.9292
re▁making▁m	-11.9293
Where▁did▁you▁go	-11.9293
▁hardly▁believ	-11.9364
nything	-11.9365
peak▁more▁slowly	-11.9419
petition	-11.9429
▁Have▁you▁seen▁m	-11.9432
I▁was▁hoping▁you	-11.947
plicit	-11.9547
n▁any▁case	-11.9602
claimed	-11.9631
▁Hurry	-11.9646
▁prospect	-11.9657
▁Mozart	-11.9657
▁dialogue	-11.9657
▁San▁Francisco	-11.9657
▁Copernicus	-11.9657
▁enchant	-11.9657
▁inspiration	-11.9657
▁pierced	-11.9657
▁portrait	-11.9657
▁eclipse	-11.9657
▁fossil	-11.9657
▁yoghurt	-11.9657
▁depriv	-11.9657
▁manuscript	-11.9657
▁Yokohama	-11.9657
▁emperor	-11.9657
▁variety	-11.9657
▁adjective	-11.9657
▁kindergarten	-11.9657
▁magnetic▁field	-11.9657
▁strategy	-11.9657
▁Say▁hello	-11.9657
▁Thanksgiving	-11.9657
▁bruise	-11.9657
▁caution	-11.9657
▁global▁warming	-11.9657
▁housing	-11.9657
▁koala	-11.9657
▁survivors	-11.9657
▁ATM	-11.9657
▁Caesar	-11.9657
▁Florida	-11.9657
▁applause	-11.9657
▁medieval	-11.9657
▁offensive	-11.9657
▁prescription	-11.9657
▁Twitter	-11.9657
▁cardiologist	-11.9657
▁neutral	-11.9657
▁pay▁by▁cheque	-11.9657
▁plural	-11.9657
▁railroad	-11.9657
▁serving	-11.9657
X	-12.2277
+	-12.2303
ó	-12.2303
è	-12.3595
á	-12.4309
Z	-12.5053
_	-12.5078
&	-12.5912
­	-12.5912
⁄	-12.5912
“	-12.6795
ł	-12.8932
ç	-12.8932
ï	-13.0182
ń	-13.0182
à	-13.0182
ô	-13.161
#	-13.1611
„	-13.1611
$	-13.3252
ō	-13.3277
â	-13.3277
ë	-13.3277
ø	-13.3277
@	-13.3277
]	-13.5275
[	-13.5275
š	-13.7777
ê	-13.7777
ã	-13.7777
î	-13.7777
а	-13.7777
т	-13.7777
å	-13.7777
л	-13.7777
о	-13.7777
′	-13.7777
・	-13.7777
£	-13.7777
π	-13.7777
♘	-13.7778
(	-14.1085
×	-14.1108
ū	-14.111
ú	-14.111
·	-14.111
ñ	-14.111
ș	-14.111
ā	-14.1111
з	-14.1111
=	-14.1111
Ø	-14.1111
û	-14.1111
□	-14.1111
Ú	-14.1111
−	-14.1111
ŝ	-14.611
ž	-14.611
>	-14.611
ż	-14.611
Å	-14.6111
É	-14.6111
ć	-14.6111
Ţ	-14.6111
🤧	-14.6111
р	-14.6111
*	-14.6111
й	-14.6111
♗	-14.6111
ì	-14.6111
ī	-14.6112
ň	-15.6105
ĺ	-15.6106
ľ	-15.6106
ŕ	-15.6108
ĉ	-15.6109
ĝ	-15.6109
ĥ	-15.6109
ĵ	-15.6109
ť	-15.6109
―	-15.6109
ý	-15.611
č	-15.611
ď	-15.611
ş	-15.611
ŭ	-15.611
«	-15.611
→	-15.611
あ	-15.611
»	-15.611
е	-15.611
и	-15.611
Ł	-15.611
ę	-15.611
^	-15.6111
Ó	-15.6111
Ö	-15.6111
æ	-15.6111
ð	-15.6111
ă	-15.6111
Ō	-15.6111
Ż	-15.6111
ǎ	-15.6111
ə	-15.6111
ˈ	-15.6111
Ч	-15.6111
к	-15.6111
с	-15.6111
ч	-15.6111
ы	-15.6111
э	-15.6111
ё	-15.6111
ṭ	-15.6111
‐	-15.6111
₩	-15.6111
夢	-15.6111
樓	-15.6111
甚	-15.6111
紅	-15.6111
麼	-15.6111
🌡	-15.6111
😷	-15.6111
🤒	-15.6111
🤮	-15.6111
🦠	-15.6111
🧼	-15.6111
Δ	-15.6111
₹	-15.6111
Á	-15.6111
ẽ	-15.6111
ē	-15.6111
☉	-15.6111
々	-15.6111
什	-15.6111
À	-15.6111
Ü	-15.6111
М	-15.6111
₣	-15.6111
⊂	-15.6111
么	-15.6111
ǐ	-15.6113
ǔ	-15.6113
三	-15.6113
傳	-15.6113
國	-15.6113
水	-15.6113
滸	-15.6113
演	-15.6113
義	-15.6113
記	-15.6113
遊	-15.6113
€	-15.6114
西	-15.6114
